{
  "model": "bpe",
  "vocab_size": 10000,
  "languages": [
    "en",
    "hi",
    "te",
    "ta",
    "bn",
    "mr",
    "gbm",
    "kfy"
  ],
  "language_names": {
    "en": "English",
    "hi": "Hindi",
    "te": "Telugu",
    "ta": "Tamil",
    "bn": "Bengali",
    "mr": "Marathi",
    "gbm": "Garhwali",
    "kfy": "Kumaoni"
  },
  "language_scripts": {
    "en": "Latin",
    "hi": "Devanagari",
    "te": "Telugu",
    "ta": "Tamil",
    "bn": "Bengali",
    "mr": "Devanagari",
    "gbm": "Devanagari",
    "kfy": "Devanagari"
  },
  "language_sources": {
    "en": "Wikipedia India",
    "hi": "Wikipedia India",
    "te": "Wikipedia India",
    "ta": "Wikipedia India",
    "bn": "Wikipedia India",
    "mr": "Wikipedia India",
    "gbm": "PahariLI corpus (no Wikipedia edition)",
    "kfy": "PahariLI corpus (no Wikipedia edition)"
  },
  "token_to_id": {
    "0": 0,
    "1": 1,
    "2": 2,
    "3": 3,
    "4": 4,
    "5": 5,
    "6": 6,
    "7": 7,
    "8": 8,
    "9": 9,
    "A": 10,
    "B": 11,
    "C": 12,
    "D": 13,
    "E": 14,
    "F": 15,
    "G": 16,
    "H": 17,
    "I": 18,
    "J": 19,
    "K": 20,
    "L": 21,
    "M": 22,
    "N": 23,
    "O": 24,
    "P": 25,
    "Q": 26,
    "R": 27,
    "S": 28,
    "T": 29,
    "U": 30,
    "V": 31,
    "W": 32,
    "X": 33,
    "Y": 34,
    "Z": 35,
    "_": 36,
    "a": 37,
    "b": 38,
    "c": 39,
    "d": 40,
    "e": 41,
    "f": 42,
    "g": 43,
    "h": 44,
    "i": 45,
    "j": 46,
    "k": 47,
    "l": 48,
    "m": 49,
    "n": 50,
    "o": 51,
    "p": 52,
    "q": 53,
    "r": 54,
    "s": 55,
    "t": 56,
    "u": 57,
    "v": 58,
    "w": 59,
    "x": 60,
    "y": 61,
    "z": 62,
    "Ö": 63,
    "ß": 64,
    "á": 65,
    "â": 66,
    "æ": 67,
    "ç": 68,
    "è": 69,
    "é": 70,
    "í": 71,
    "ö": 72,
    "ü": 73,
    "ā": 74,
    "ī": 75,
    "Ś": 76,
    "ś": 77,
    "ū": 78,
    "ș": 79,
    "ə": 80,
    "ɦ": 81,
    "ɪ": 82,
    "ɾ": 83,
    "ʊ": 84,
    "ʱ": 85,
    "ʻ": 86,
    "ˈ": 87,
    "ː": 88,
    "ί": 89,
    "α": 90,
    "δ": 91,
    "θ": 92,
    "ν": 93,
    "ο": 94,
    "π": 95,
    "ς": 96,
    "ό": 97,
    "अ": 98,
    "आ": 99,
    "इ": 100,
    "ई": 101,
    "उ": 102,
    "ऊ": 103,
    "ऋ": 104,
    "ऍ": 105,
    "ए": 106,
    "ऐ": 107,
    "ऑ": 108,
    "ओ": 109,
    "औ": 110,
    "क": 111,
    "ख": 112,
    "ग": 113,
    "घ": 114,
    "ङ": 115,
    "च": 116,
    "छ": 117,
    "ज": 118,
    "झ": 119,
    "ञ": 120,
    "ट": 121,
    "ठ": 122,
    "ड": 123,
    "ढ": 124,
    "ण": 125,
    "त": 126,
    "थ": 127,
    "द": 128,
    "ध": 129,
    "न": 130,
    "प": 131,
    "फ": 132,
    "ब": 133,
    "भ": 134,
    "म": 135,
    "य": 136,
    "र": 137,
    "ऱ": 138,
    "ल": 139,
    "ळ": 140,
    "ऴ": 141,
    "व": 142,
    "श": 143,
    "ष": 144,
    "स": 145,
    "ह": 146,
    "क़": 147,
    "ख़": 148,
    "ज़": 149,
    "ड़": 150,
    "ढ़": 151,
    "फ़": 152,
    "य़": 153,
    "ॠ": 154,
    "०": 155,
    "१": 156,
    "२": 157,
    "३": 158,
    "४": 159,
    "५": 160,
    "६": 161,
    "७": 162,
    "८": 163,
    "९": 164,
    "ॲ": 165,
    "অ": 166,
    "আ": 167,
    "ই": 168,
    "ঈ": 169,
    "উ": 170,
    "ঊ": 171,
    "ঋ": 172,
    "এ": 173,
    "ঐ": 174,
    "ও": 175,
    "ক": 176,
    "খ": 177,
    "গ": 178,
    "ঘ": 179,
    "ঙ": 180,
    "চ": 181,
    "ছ": 182,
    "জ": 183,
    "ঝ": 184,
    "ঞ": 185,
    "ট": 186,
    "ঠ": 187,
    "ড": 188,
    "ঢ": 189,
    "ণ": 190,
    "ত": 191,
    "থ": 192,
    "দ": 193,
    "ধ": 194,
    "ন": 195,
    "প": 196,
    "ফ": 197,
    "ব": 198,
    "ভ": 199,
    "ম": 200,
    "য": 201,
    "র": 202,
    "ল": 203,
    "শ": 204,
    "ষ": 205,
    "স": 206,
    "হ": 207,
    "ৎ": 208,
    "০": 209,
    "১": 210,
    "২": 211,
    "৩": 212,
    "৪": 213,
    "৫": 214,
    "৬": 215,
    "৭": 216,
    "৮": 217,
    "৯": 218,
    "ஃ": 219,
    "அ": 220,
    "ஆ": 221,
    "இ": 222,
    "ஈ": 223,
    "உ": 224,
    "ஊ": 225,
    "எ": 226,
    "ஏ": 227,
    "ஐ": 228,
    "ஒ": 229,
    "ஓ": 230,
    "க": 231,
    "ங": 232,
    "ச": 233,
    "ஜ": 234,
    "ஞ": 235,
    "ட": 236,
    "ண": 237,
    "த": 238,
    "ந": 239,
    "ன": 240,
    "ப": 241,
    "ம": 242,
    "ய": 243,
    "ர": 244,
    "ற": 245,
    "ல": 246,
    "ள": 247,
    "ழ": 248,
    "வ": 249,
    "ஷ": 250,
    "ஸ": 251,
    "ஹ": 252,
    "అ": 253,
    "ఆ": 254,
    "ఇ": 255,
    "ఈ": 256,
    "ఉ": 257,
    "ఋ": 258,
    "ఎ": 259,
    "ఏ": 260,
    "ఐ": 261,
    "ఒ": 262,
    "ఓ": 263,
    "ఔ": 264,
    "క": 265,
    "ఖ": 266,
    "గ": 267,
    "ఘ": 268,
    "చ": 269,
    "ఛ": 270,
    "జ": 271,
    "ఞ": 272,
    "ట": 273,
    "ఠ": 274,
    "డ": 275,
    "ఢ": 276,
    "ణ": 277,
    "త": 278,
    "థ": 279,
    "ద": 280,
    "ధ": 281,
    "న": 282,
    "ప": 283,
    "ఫ": 284,
    "బ": 285,
    "భ": 286,
    "మ": 287,
    "య": 288,
    "ర": 289,
    "ల": 290,
    "ళ": 291,
    "వ": 292,
    "శ": 293,
    "ష": 294,
    "స": 295,
    "హ": 296,
    "ṅ": 297,
    "ṇ": 298,
    "Ṛ": 299,
    "ṣ": 300,
    "ṭ": 301,
    "Ἰ": 302,
    "<PAD>": 303,
    "<UNK>": 304,
    "<BOS>": 305,
    "<EOS>": 306,
    "th": 307,
    "an": 308,
    "in": 309,
    "er": 310,
    "on": 311,
    "the": 312,
    "al": 313,
    "ed": 314,
    "ar": 315,
    "or": 316,
    "en": 317,
    "ti": 318,
    "es": 319,
    "di": 320,
    "20": 321,
    "of": 322,
    "In": 323,
    "and": 324,
    "is": 325,
    "as": 326,
    "Indi": 327,
    "at": 328,
    "ri": 329,
    "om": 330,
    "tion": 331,
    "re": 332,
    "India": 333,
    "ch": 334,
    "ing": 335,
    "it": 336,
    "ou": 337,
    "ent": 338,
    "to": 339,
    "201": 340,
    "et": 341,
    "ic": 342,
    "st": 343,
    "le": 344,
    "Th": 345,
    "ly": 346,
    "19": 347,
    "ra": 348,
    "ved": 349,
    "li": 350,
    "am": 351,
    "ver": 352,
    "ation": 353,
    "ur": 354,
    "em": 355,
    "The": 356,
    "for": 357,
    "ec": 358,
    "200": 359,
    "ter": 360,
    "ol": 361,
    "rom": 362,
    "ig": 363,
    "ro": 364,
    "ul": 365,
    "ce": 366,
    "il": 367,
    "from": 368,
    "ge": 369,
    "ad": 370,
    "us": 371,
    "ve": 372,
    "res": 373,
    "78": 374,
    "ist": 375,
    "si": 376,
    "un": 377,
    "pp": 378,
    "ir": 379,
    "tic": 380,
    "ber": 381,
    "op": 382,
    "con": 383,
    "te": 384,
    "IS": 385,
    "978": 386,
    "Indian": 387,
    "ity": 388,
    "de": 389,
    "202": 390,
    "ISB": 391,
    "ISBN": 392,
    "hi": 393,
    "Ar": 394,
    "rie": 395,
    "10": 396,
    "ang": 397,
    "by": 398,
    "rieved": 399,
    "ma": 400,
    "ow": 401,
    "Ret": 402,
    "tu": 403,
    "Retrieved": 404,
    "du": 405,
    "ay": 406,
    "se": 407,
    "ment": 408,
    "inal": 409,
    "ac": 410,
    "orig": 411,
    "be": 412,
    "chi": 413,
    "ary": 414,
    "sh": 415,
    "original": 416,
    "est": 417,
    "um": 418,
    "wi": 419,
    "ress": 420,
    "ion": 421,
    "ate": 422,
    "ci": 423,
    "00": 424,
    "ld": 425,
    "od": 426,
    "chived": 427,
    "ab": 428,
    "Archived": 429,
    "ag": 430,
    "ther": 431,
    "Un": 432,
    "ts": 433,
    "with": 434,
    "el": 435,
    "ex": 436,
    "su": 437,
    "over": 438,
    "vers": 439,
    "was": 440,
    "im": 441,
    "Ch": 442,
    "ak": 443,
    "2011": 444,
    "ear": 445,
    "ast": 446,
    "ong": 447,
    "gh": 448,
    "रत": 449,
    "ut": 450,
    "versity": 451,
    "Hin": 452,
    "ot": 453,
    "17": 454,
    "18": 455,
    "ep": 456,
    "og": 457,
    "ain": 458,
    "cl": 459,
    "id": 460,
    "199": 461,
    "our": 462,
    "ember": 463,
    "com": 464,
    "are": 465,
    "oun": 466,
    "so": 467,
    "orld": 468,
    "26": 469,
    "ere": 470,
    "cal": 471,
    "Press": 472,
    "16": 473,
    "whi": 474,
    "iversity": 475,
    "ew": 476,
    "ory": 477,
    "ru": 478,
    "per": 479,
    "pl": 480,
    "age": 481,
    "par": 482,
    "angu": 483,
    "which": 484,
    "me": 485,
    "University": 486,
    "23": 487,
    "15": 488,
    "that": 489,
    "ha": 490,
    "ans": 491,
    "has": 492,
    "ons": 493,
    "sp": 494,
    "ish": 495,
    "end": 496,
    "ud": 497,
    "ally": 498,
    "pri": 499,
    "ence": 500,
    "cont": 501,
    "ff": 502,
    "tern": 503,
    "13": 504,
    "An": 505,
    "ry": 506,
    "Asi": 507,
    "14": 508,
    "cent": 509,
    "ational": 510,
    "os": 511,
    "its": 512,
    "titu": 513,
    "28": 514,
    "ass": 515,
    "25": 516,
    "pro": 517,
    "ine": 518,
    "der": 519,
    "av": 520,
    "mo": 521,
    "all": 522,
    "form": 523,
    "कर": 524,
    "Hindu": 525,
    "gion": 526,
    "पर": 527,
    "outh": 528,
    "21": 529,
    "wh": 530,
    "Ju": 531,
    "led": 532,
    "ated": 533,
    "overn": 534,
    "ted": 535,
    "ies": 536,
    "we": 537,
    "ub": 538,
    "2010": 539,
    "langu": 540,
    "mil": 541,
    "out": 542,
    "24": 543,
    "ap": 544,
    "রত": 545,
    "27": 546,
    "istory": 547,
    "ust": 548,
    "rit": 549,
    "were": 550,
    "ical": 551,
    "En": 552,
    "ism": 553,
    "lo": 554,
    "July": 555,
    "ford": 556,
    "calf": 557,
    "har": 558,
    "ction": 559,
    "overnment": 560,
    "lar": 561,
    "Met": 562,
    "Metcalf": 563,
    "PD": 564,
    "PDF": 565,
    "xford": 566,
    "50": 567,
    "ers": 568,
    "do": 569,
    "Mar": 570,
    "40": 571,
    "Oxford": 572,
    "opul": 573,
    "ial": 574,
    "ous": 575,
    "ort": 576,
    "ame": 577,
    "30": 578,
    "ough": 579,
    "mar": 580,
    "2021": 581,
    "ces": 582,
    "man": 583,
    "econ": 584,
    "co": 585,
    "கள": 586,
    "ore": 587,
    "World": 588,
    "ok": 589,
    "2018": 590,
    "ture": 591,
    "vi": 592,
    "Asia": 593,
    "cul": 594,
    "ance": 595,
    "tive": 596,
    "min": 597,
    "oc": 598,
    "Com": 599,
    "29": 600,
    "ome": 601,
    "History": 602,
    "Cons": 603,
    "edit": 604,
    "tra": 605,
    "gen": 606,
    "और": 607,
    "titution": 608,
    "cy": 609,
    "2019": 610,
    "rid": 611,
    "South": 612,
    "ubl": 613,
    "2014": 614,
    "up": 615,
    "bo": 616,
    "2007": 617,
    "fic": 618,
    "ages": 619,
    "year": 620,
    "ph": 621,
    "CE": 622,
    "fter": 623,
    "196": 624,
    "आह": 625,
    "वर": 626,
    "low": 627,
    "war": 628,
    "ations": 629,
    "ia": 630,
    "ern": 631,
    "ates": 632,
    "olog": 633,
    "omic": 634,
    "ct": 635,
    "qu": 636,
    "Re": 637,
    "22": 638,
    "irst": 639,
    "aste": 640,
    "uring": 641,
    "po": 642,
    "bec": 643,
    "fe": 644,
    "Oc": 645,
    "Octo": 646,
    "October": 647,
    "2006": 648,
    "row": 649,
    "sy": 650,
    "రత": 651,
    "ept": 652,
    "Apri": 653,
    "April": 654,
    "nor": 655,
    "sub": 656,
    "vel": 657,
    "ury": 658,
    "land": 659,
    "dition": 660,
    "अर": 661,
    "ty": 662,
    "ev": 663,
    "New": 664,
    "pan": 665,
    "have": 666,
    "11": 667,
    "Ma": 668,
    "ord": 669,
    "odern": 670,
    "into": 671,
    "but": 672,
    "Sept": 673,
    "September": 674,
    "tics": 675,
    "ta": 676,
    "als": 677,
    "ater": 678,
    "region": 679,
    "ound": 680,
    "first": 681,
    "amb": 682,
    "ug": 683,
    "तर": 684,
    "ens": 685,
    "ties": 686,
    "most": 687,
    "igh": 688,
    "cial": 689,
    "other": 690,
    "ork": 691,
    "Al": 692,
    "world": 693,
    "opulation": 694,
    "contin": 695,
    "udd": 696,
    "Jan": 697,
    "iv": 698,
    "ov": 699,
    "सम": 700,
    "lion": 701,
    "bet": 702,
    "cons": 703,
    "les": 704,
    "Chin": 705,
    "not": 706,
    "eng": 707,
    "cre": 708,
    "36": 709,
    "mer": 710,
    "ount": 711,
    "stem": 712,
    "47": 713,
    "38": 714,
    "language": 715,
    "Aug": 716,
    "August": 717,
    "system": 718,
    "their": 719,
    "2012": 720,
    "ins": 721,
    "more": 722,
    "ign": 723,
    "35": 724,
    "May": 725,
    "ridge": 726,
    "ween": 727,
    "tical": 728,
    "sion": 729,
    "une": 730,
    "also": 731,
    "uc": 732,
    "ran": 733,
    "years": 734,
    "ca": 735,
    "2023": 736,
    "dec": 737,
    "after": 738,
    "caste": 739,
    "reli": 740,
    "gan": 741,
    "tur": 742,
    "Econ": 743,
    "son": 744,
    "ublic": 745,
    "ik": 746,
    "197": 747,
    "eral": 748,
    "39": 749,
    "ke": 750,
    "ard": 751,
    "class": 752,
    "during": 753,
    "government": 754,
    "ambridge": 755,
    "2008": 756,
    "Cambridge": 757,
    "this": 758,
    "aj": 759,
    "March": 760,
    "ant": 761,
    "ral": 762,
    "tw": 763,
    "एक": 764,
    "ari": 765,
    "2009": 766,
    "ect": 767,
    "ele": 768,
    "ss": 769,
    "June": 770,
    "ati": 771,
    "ister": 772,
    "pe": 773,
    "por": 774,
    "been": 775,
    "one": 776,
    "Cent": 777,
    "Dec": 778,
    "2017": 779,
    "between": 780,
    "eb": 781,
    "mp": 782,
    "gra": 783,
    "Pl": 784,
    "old": 785,
    "37": 786,
    "pr": 787,
    "century": 788,
    "doi": 789,
    "ell": 790,
    "he": 791,
    "und": 792,
    "velop": 793,
    "Constitution": 794,
    "It": 795,
    "ack": 796,
    "ree": 797,
    "omy": 798,
    "had": 799,
    "her": 800,
    "81": 801,
    "000": 802,
    "Ste": 803,
    "St": 804,
    "46": 805,
    "ach": 806,
    "now": 807,
    "eds": 808,
    "ash": 809,
    "ise": 810,
    "though": 811,
    "ology": 812,
    "Janu": 813,
    "January": 814,
    "பட": 815,
    "fore": 816,
    "Bri": 817,
    "used": 818,
    "ob": 819,
    "than": 820,
    "Pro": 821,
    "cri": 822,
    "fl": 823,
    "lish": 824,
    "gest": 825,
    "ose": 826,
    "artic": 827,
    "National": 828,
    "2015": 829,
    "incl": 830,
    "continent": 831,
    "Cong": 832,
    "Congress": 833,
    "Eur": 834,
    "num": 835,
    "ann": 836,
    "ne": 837,
    "mis": 838,
    "இந": 839,
    "tradition": 840,
    "2016": 841,
    "BCE": 842,
    "thern": 843,
    "80": 844,
    "ser": 845,
    "dis": 846,
    "istan": 847,
    "Ash": 848,
    "estern": 849,
    "oh": 850,
    "hum": 851,
    "lim": 852,
    "सर": 853,
    "Sans": 854,
    "ire": 855,
    "ement": 856,
    "Sansk": 857,
    "thema": 858,
    "art": 859,
    "aw": 860,
    "2020": 861,
    "ased": 862,
    "Feb": 863,
    "ince": 864,
    "12": 865,
    "largest": 866,
    "Febru": 867,
    "February": 868,
    "two": 869,
    "pre": 870,
    "ood": 871,
    "languages": 872,
    "became": 873,
    "2022": 874,
    "tim": 875,
    "des": 876,
    "ced": 877,
    "edi": 878,
    "air": 879,
    "Man": 880,
    "dus": 881,
    "ten": 882,
    "mon": 883,
    "long": 884,
    "ali": 885,
    "tish": 886,
    "Hindi": 887,
    "Bi": 888,
    "British": 889,
    "2025": 890,
    "ata": 891,
    "Government": 892,
    "Sanskrit": 893,
    "ess": 894,
    "tr": 895,
    "ban": 896,
    "bot": 897,
    "modern": 898,
    "ure": 899,
    "such": 900,
    "2013": 901,
    "ensus": 902,
    "ai": 903,
    "49": 904,
    "ven": 905,
    "2003": 906,
    "part": 907,
    "enti": 908,
    "pres": 909,
    "ogra": 910,
    "ograph": 911,
    "China": 912,
    "no": 913,
    "Po": 914,
    "gre": 915,
    "comp": 916,
    "under": 917,
    "later": 918,
    "ledge": 919,
    "2004": 920,
    "ade": 921,
    "De": 922,
    "imal": 923,
    "পর": 924,
    "peri": 925,
    "Eng": 926,
    "main": 927,
    "app": 928,
    "there": 929,
    "ited": 930,
    "Europ": 931,
    "offic": 932,
    "number": 933,
    "Budd": 934,
    "ese": 935,
    "grow": 936,
    "Asher": 937,
    "Rep": 938,
    "For": 939,
    "Main": 940,
    "2001": 941,
    "ries": 942,
    "33": 943,
    "fer": 944,
    "Con": 945,
    "Stein": 946,
    "gr": 947,
    "ond": 948,
    "million": 949,
    "minister": 950,
    "85": 951,
    "ament": 952,
    "Europe": 953,
    "fi": 954,
    "Tal": 955,
    "Se": 956,
    "Sch": 957,
    "term": 958,
    "oy": 959,
    "tro": 960,
    "ft": 961,
    "tions": 962,
    "vis": 963,
    "ote": 964,
    "omen": 965,
    "pec": 966,
    "Rout": 967,
    "Routledge": 968,
    "akistan": 969,
    "lear": 970,
    "tri": 971,
    "Min": 972,
    "मन": 973,
    "Pakistan": 974,
    "December": 975,
    "Talbot": 976,
    "subcontinent": 977,
    "jor": 978,
    "non": 979,
    "ill": 980,
    "जन": 981,
    "ffic": 982,
    "Per": 983,
    "ya": 984,
    "cord": 985,
    "কর": 986,
    "able": 987,
    "अस": 988,
    "Hinduism": 989,
    "na": 990,
    "ana": 991,
    "northern": 992,
    "ket": 993,
    "them": 994,
    "Tim": 995,
    "bal": 996,
    "many": 997,
    "dom": 998,
    "ult": 999,
    "spec": 1000,
    "economic": 1001,
    "life": 1002,
    "who": 1003,
    "hist": 1004,
    "count": 1005,
    "Ved": 1006,
    "incre": 1007,
    "ley": 1008,
    "Mus": 1009,
    "get": 1010,
    "article": 1011,
    "osed": 1012,
    "gi": 1013,
    "time": 1014,
    "ext": 1015,
    "ors": 1016,
    "Har": 1017,
    "ould": 1018,
    "Population": 1019,
    "ild": 1020,
    "60": 1021,
    "Emp": 1022,
    "Mu": 1023,
    "litical": 1024,
    "मध": 1025,
    "cient": 1026,
    "1950": 1027,
    "anges": 1028,
    "large": 1029,
    "among": 1030,
    "major": 1031,
    "1994": 1032,
    "రతద": 1033,
    "1947": 1034,
    "social": 1035,
    "Nov": 1036,
    "November": 1037,
    "enn": 1038,
    "tex": 1039,
    "ling": 1040,
    "emoc": 1041,
    "emocra": 1042,
    "ures": 1043,
    "state": 1044,
    "line": 1045,
    "some": 1046,
    "ank": 1047,
    "Offic": 1048,
    "ever": 1049,
    "ving": 1050,
    "red": 1051,
    "mission": 1052,
    "isation": 1053,
    "Is": 1054,
    "English": 1055,
    "Dy": 1056,
    "ath": 1057,
    "ating": 1058,
    "So": 1059,
    "cur": 1060,
    "rough": 1061,
    "198": 1062,
    "both": 1063,
    "uclear": 1064,
    "अन": 1065,
    "develop": 1066,
    "Del": 1067,
    "official": 1068,
    "mathema": 1069,
    "harma": 1070,
    "2005": 1071,
    "national": 1072,
    "port": 1073,
    "use": 1074,
    "Langu": 1075,
    "31": 1076,
    "indi": 1077,
    "ange": 1078,
    "Sh": 1079,
    "new": 1080,
    "rel": 1081,
    "ple": 1082,
    "2024": 1083,
    "north": 1084,
    "ble": 1085,
    "rac": 1086,
    "au": 1087,
    "ower": 1088,
    "eas": 1089,
    "ami": 1090,
    "ople": 1091,
    "Economic": 1092,
    "77": 1093,
    "51": 1094,
    "Af": 1095,
    "వర": 1096,
    "Ac": 1097,
    "includ": 1098,
    "45": 1099,
    "पण": 1100,
    "হয": 1101,
    "population": 1102,
    "हम": 1103,
    "prime": 1104,
    "ite": 1105,
    "Asian": 1106,
    "ternational": 1107,
    "रक": 1108,
    "Kash": 1109,
    "Kashm": 1110,
    "iter": 1111,
    "Compan": 1112,
    "ght": 1113,
    "they": 1114,
    "48": 1115,
    "55": 1116,
    "iz": 1117,
    "culture": 1118,
    "can": 1119,
    "Times": 1120,
    "dle": 1121,
    "trans": 1122,
    "Dyson": 1123,
    "Ne": 1124,
    "Empire": 1125,
    "read": 1126,
    "erg": 1127,
    "val": 1128,
    "western": 1129,
    "bu": 1130,
    "Delhi": 1131,
    "period": 1132,
    "supp": 1133,
    "election": 1134,
    "उन": 1135,
    "classical": 1136,
    "south": 1137,
    "Mugh": 1138,
    "dance": 1139,
    "रम": 1140,
    "olic": 1141,
    "Joh": 1142,
    "Am": 1143,
    "Pr": 1144,
    "eration": 1145,
    "Raj": 1146,
    "ris": 1147,
    "Gu": 1148,
    "Modern": 1149,
    "pend": 1150,
    "duction": 1151,
    "York": 1152,
    "100": 1153,
    "Beng": 1154,
    "ah": 1155,
    "pt": 1156,
    "book": 1157,
    "Indo": 1158,
    "since": 1159,
    "jab": 1160,
    "सक": 1161,
    "Indus": 1162,
    "chn": 1163,
    "made": 1164,
    "44": 1165,
    "Ara": 1166,
    "soci": 1167,
    "sur": 1168,
    "हर": 1169,
    "Central": 1170,
    "cultur": 1171,
    "duc": 1172,
    "rate": 1173,
    "ised": 1174,
    "well": 1175,
    "found": 1176,
    "ered": 1177,
    "sch": 1178,
    "Col": 1179,
    "began": 1180,
    "iron": 1181,
    "iddle": 1182,
    "ron": 1183,
    "urban": 1184,
    "yan": 1185,
    "sing": 1186,
    "oup": 1187,
    "order": 1188,
    "Bl": 1189,
    "fin": 1190,
    "Ass": 1191,
    "लग": 1192,
    "ace": 1193,
    "odi": 1194,
    "Par": 1195,
    "Qu": 1196,
    "bil": 1197,
    "Ge": 1198,
    "act": 1199,
    "सब": 1200,
    "மற": 1201,
    "exp": 1202,
    "Pun": 1203,
    "Punjab": 1204,
    "emb": 1205,
    "king": 1206,
    "This": 1207,
    "ck": 1208,
    "dra": 1209,
    "set": 1210,
    "bi": 1211,
    "lands": 1212,
    "Census": 1213,
    "uis": 1214,
    "2026": 1215,
    "high": 1216,
    "मह": 1217,
    "ular": 1218,
    "til": 1219,
    "infl": 1220,
    "By": 1221,
    "lead": 1222,
    "70": 1223,
    "ety": 1224,
    "rule": 1225,
    "economy": 1226,
    "56": 1227,
    "last": 1228,
    "2000": 1229,
    "ural": 1230,
    "wide": 1231,
    "১৯": 1232,
    "col": 1233,
    "ves": 1234,
    "aman": 1235,
    "ics": 1236,
    "alth": 1237,
    "cience": 1238,
    "own": 1239,
    "people": 1240,
    "ide": 1241,
    "Gen": 1242,
    "ird": 1243,
    "stan": 1244,
    "ative": 1245,
    "mit": 1246,
    "orn": 1247,
    "early": 1248,
    "leg": 1249,
    "econd": 1250,
    "ments": 1251,
    "cycl": 1252,
    "forest": 1253,
    "ich": 1254,
    "ffer": 1255,
    "east": 1256,
    "mill": 1257,
    "att": 1258,
    "बर": 1259,
    "his": 1260,
    "Gand": 1261,
    "Gandhi": 1262,
    "influ": 1263,
    "United": 1264,
    "play": 1265,
    "mus": 1266,
    "occ": 1267,
    "work": 1268,
    "ately": 1269,
    "times": 1270,
    "hy": 1271,
    "ind": 1272,
    "viron": 1273,
    "vironment": 1274,
    "sty": 1275,
    "disp": 1276,
    "John": 1277,
    "Or": 1278,
    "Kashmir": 1279,
    "International": 1280,
    "He": 1281,
    "43": 1282,
    "पत": 1283,
    "group": 1284,
    "US": 1285,
    "territ": 1286,
    "religi": 1287,
    "vic": 1288,
    "tal": 1289,
    "country": 1290,
    "kar": 1291,
    "East": 1292,
    "Union": 1293,
    "cording": 1294,
    "521": 1295,
    "like": 1296,
    "edia": 1297,
    "rol": 1298,
    "ago": 1299,
    "lobal": 1300,
    "popul": 1301,
    "embly": 1302,
    "reg": 1303,
    "mi": 1304,
    "women": 1305,
    "ert": 1306,
    "day": 1307,
    "Encycl": 1308,
    "Encyclop": 1309,
    "European": 1310,
    "Neh": 1311,
    "religion": 1312,
    "lies": 1313,
    "Himal": 1314,
    "Himalay": 1315,
    "ploy": 1316,
    "Nehru": 1317,
    "ains": 1318,
    "vision": 1319,
    "ori": 1320,
    "inter": 1321,
    "liament": 1322,
    "Indians": 1323,
    "including": 1324,
    "rah": 1325,
    "far": 1326,
    "ollow": 1327,
    "dire": 1328,
    "तक": 1329,
    "Environment": 1330,
    "ering": 1331,
    "All": 1332,
    "Minist": 1333,
    "Ministry": 1334,
    "91": 1335,
    "ourn": 1336,
    "human": 1337,
    "বর": 1338,
    "னத": 1339,
    "धर": 1340,
    "Muslim": 1341,
    "Co": 1342,
    "Ex": 1343,
    "ature": 1344,
    "Ur": 1345,
    "తర": 1346,
    "সম": 1347,
    "এক": 1348,
    "জন": 1349,
    "hat": 1350,
    "ake": 1351,
    "Tam": 1352,
    "depend": 1353,
    "left": 1354,
    "right": 1355,
    "ross": 1356,
    "gar": 1357,
    "317": 1358,
    "ned": 1359,
    "Commission": 1360,
    "Assembly": 1361,
    "ific": 1362,
    "Jam": 1363,
    "where": 1364,
    "Quote": 1365,
    "Plate": 1366,
    "ase": 1367,
    "मर": 1368,
    "ially": 1369,
    "ting": 1370,
    "through": 1371,
    "west": 1372,
    "cour": 1373,
    "Fish": 1374,
    "Sik": 1375,
    "itary": 1376,
    "கப": 1377,
    "ublish": 1378,
    "87": 1379,
    "power": 1380,
    "Mughal": 1381,
    "increased": 1382,
    "जब": 1383,
    "90": 1384,
    "States": 1385,
    "करण": 1386,
    "ffair": 1387,
    "ffairs": 1388,
    "atter": 1389,
    "ks": 1390,
    "olicy": 1391,
    "emocracy": 1392,
    "94": 1393,
    "Cul": 1394,
    "omet": 1395,
    "57": 1396,
    "only": 1397,
    "Chand": 1398,
    "ue": 1399,
    "রক": 1400,
    "Republic": 1401,
    "From": 1402,
    "ingh": 1403,
    "composed": 1404,
    "1970": 1405,
    "Res": 1406,
    "At": 1407,
    "religious": 1408,
    "68": 1409,
    "cess": 1410,
    "ful": 1411,
    "know": 1412,
    "53": 1413,
    "Be": 1414,
    "troduction": 1415,
    "ho": 1416,
    "Tamil": 1417,
    "74": 1418,
    "texts": 1419,
    "la": 1420,
    "Science": 1421,
    "Economy": 1422,
    "ration": 1423,
    "reat": 1424,
    "Wi": 1425,
    "vid": 1426,
    "Bhar": 1427,
    "ren": 1428,
    "ances": 1429,
    "And": 1430,
    "sign": 1431,
    "ef": 1432,
    "before": 1433,
    "second": 1434,
    "fami": 1435,
    "Persi": 1436,
    "present": 1437,
    "Publish": 1438,
    "eastern": 1439,
    "emp": 1440,
    "ude": 1441,
    "these": 1442,
    "ades": 1443,
    "ines": 1444,
    "ool": 1445,
    "ently": 1446,
    "Language": 1447,
    "Fisher": 1448,
    "ms": 1449,
    "Afri": 1450,
    "cap": 1451,
    "owever": 1452,
    "oral": 1453,
    "agri": 1454,
    "mu": 1455,
    "இர": 1456,
    "406": 1457,
    "parliament": 1458,
    "arch": 1459,
    "54": 1460,
    "Stu": 1461,
    "when": 1462,
    "After": 1463,
    "forms": 1464,
    "contri": 1465,
    "1998": 1466,
    "music": 1467,
    "liter": 1468,
    "member": 1469,
    "differ": 1470,
    "96": 1471,
    "ip": 1472,
    "63": 1473,
    "ories": 1474,
    "500": 1475,
    "रण": 1476,
    "Pra": 1477,
    "Rob": 1478,
    "वस": 1479,
    "Mon": 1480,
    "name": 1481,
    "Ro": 1482,
    "गर": 1483,
    "अप": 1484,
    "Sharma": 1485,
    "stat": 1486,
    "ii": 1487,
    "1997": 1488,
    "400": 1489,
    "berg": 1490,
    "Bh": 1491,
    "2002": 1492,
    "Cra": 1493,
    "hip": 1494,
    "Li": 1495,
    "बट": 1496,
    "उत": 1497,
    "vol": 1498,
    "exist": 1499,
    "On": 1500,
    "billion": 1501,
    "Develop": 1502,
    "based": 1503,
    "men": 1504,
    "known": 1505,
    "बन": 1506,
    "As": 1507,
    "Official": 1508,
    "ution": 1509,
    "93": 1510,
    "Singh": 1511,
    "acy": 1512,
    "chnology": 1513,
    "would": 1514,
    "Persian": 1515,
    "Ludd": 1516,
    "Ludden": 1517,
    "अभ": 1518,
    "emerg": 1519,
    "four": 1520,
    "cultural": 1521,
    "Mich": 1522,
    "অন": 1523,
    "espec": 1524,
    "especially": 1525,
    "dust": 1526,
    "operation": 1527,
    "Lond": 1528,
    "London": 1529,
    "IT": 1530,
    "Africa": 1531,
    "Company": 1532,
    "majority": 1533,
    "Ganges": 1534,
    "ents": 1535,
    "influen": 1536,
    "Cl": 1537,
    "Jain": 1538,
    "Buddhist": 1539,
    "remain": 1540,
    "cook": 1541,
    "public": 1542,
    "follow": 1543,
    "nat": 1544,
    "river": 1545,
    "millenn": 1546,
    "ancient": 1547,
    "species": 1548,
    "Bengal": 1549,
    "occup": 1550,
    "ultan": 1551,
    "medi": 1552,
    "constitution": 1553,
    "growth": 1554,
    "86": 1555,
    "Public": 1556,
    "tem": 1557,
    "general": 1558,
    "तब": 1559,
    "Affairs": 1560,
    "76": 1561,
    "history": 1562,
    "Dav": 1563,
    "nd": 1564,
    "Commissioner": 1565,
    "তর": 1566,
    "ournal": 1567,
    "Amer": 1568,
    "Journal": 1569,
    "दग": 1570,
    "br": 1571,
    "Ad": 1572,
    "ఉన": 1573,
    "litics": 1574,
    "ica": 1575,
    "कल": 1576,
    "vey": 1577,
    "Tra": 1578,
    "umar": 1579,
    "orth": 1580,
    "int": 1581,
    "ector": 1582,
    "along": 1583,
    "area": 1584,
    "Development": 1585,
    "চল": 1586,
    "Organ": 1587,
    "feat": 1588,
    "rig": 1589,
    "1960": 1590,
    "independ": 1591,
    "spe": 1592,
    "ail": 1593,
    "dies": 1594,
    "range": 1595,
    "Political": 1596,
    "Sar": 1597,
    "Soci": 1598,
    "Act": 1599,
    "total": 1600,
    "eval": 1601,
    "West": 1602,
    "ds": 1603,
    "இத": 1604,
    "সব": 1605,
    "আই": 1606,
    "তম": 1607,
    "bro": 1608,
    "become": 1609,
    "ality": 1610,
    "consist": 1611,
    "prac": 1612,
    "side": 1613,
    "Constitu": 1614,
    "इन": 1615,
    "prom": 1616,
    "Count": 1617,
    "third": 1618,
    "earli": 1619,
    "sive": 1620,
    "control": 1621,
    "Western": 1622,
    "common": 1623,
    "vement": 1624,
    "sever": 1625,
    "1962": 1626,
    "வர": 1627,
    "verse": 1628,
    "political": 1629,
    "centu": 1630,
    "centuries": 1631,
    "military": 1632,
    "ste": 1633,
    "employ": 1634,
    "Brah": 1635,
    "viol": 1636,
    "pen": 1637,
    "direct": 1638,
    "षण": 1639,
    "Pe": 1640,
    "ga": 1641,
    "rul": 1642,
    "Caste": 1643,
    "abil": 1644,
    "gener": 1645,
    "Reli": 1646,
    "millenni": 1647,
    "millennium": 1648,
    "nuclear": 1649,
    "ineering": 1650,
    "asing": 1651,
    "served": 1652,
    "tar": 1653,
    "99": 1654,
    "दर": 1655,
    "Ear": 1656,
    "David": 1657,
    "2nd": 1658,
    "वन": 1659,
    "ளத": 1660,
    "Ram": 1661,
    "Des": 1662,
    "ini": 1663,
    "comm": 1664,
    "పర": 1665,
    "arb": 1666,
    "status": 1667,
    "Food": 1668,
    "elp": 1669,
    "Robb": 1670,
    "Religion": 1671,
    "Kar": 1672,
    "২০": 1673,
    "view": 1674,
    "Chinese": 1675,
    "den": 1676,
    "CN": 1677,
    "addition": 1678,
    "Pa": 1679,
    "1992": 1680,
    "ka": 1681,
    "Mal": 1682,
    "sour": 1683,
    "disput": 1684,
    "andi": 1685,
    "Harle": 1686,
    "tual": 1687,
    "Row": 1688,
    "Craven": 1689,
    "లన": 1690,
    "Hindustan": 1691,
    "amp": 1692,
    "ian": 1693,
    "ulti": 1694,
    "way": 1695,
    "ened": 1696,
    "231": 1697,
    "stru": 1698,
    "fig": 1699,
    "ually": 1700,
    "Vedic": 1701,
    "even": 1702,
    "Bo": 1703,
    "tice": 1704,
    "ody": 1705,
    "Ancient": 1706,
    "bir": 1707,
    "usin": 1708,
    "usiness": 1709,
    "geograph": 1710,
    "ization": 1711,
    "Bharat": 1712,
    "Nuclear": 1713,
    "General": 1714,
    "ods": 1715,
    "itec": 1716,
    "ive": 1717,
    "Mad": 1718,
    "eth": 1719,
    "Hindus": 1720,
    "रद": 1721,
    "domin": 1722,
    "uni": 1723,
    "tel": 1724,
    "These": 1725,
    "Constituent": 1726,
    "Tri": 1727,
    "परम": 1728,
    "undament": 1729,
    "ric": 1730,
    "within": 1731,
    "movement": 1732,
    "ained": 1733,
    "tices": 1734,
    "market": 1735,
    "longer": 1736,
    "hand": 1737,
    "BJ": 1738,
    "BJP": 1739,
    "ters": 1740,
    "97": 1741,
    "230": 1742,
    "రప": 1743,
    "१९": 1744,
    "Sikh": 1745,
    "ected": 1746,
    "Bang": 1747,
    "emerged": 1748,
    "rock": 1749,
    "traditional": 1750,
    "off": 1751,
    "rural": 1752,
    "appro": 1753,
    "upp": 1754,
    "include": 1755,
    "put": 1756,
    "areas": 1757,
    "ings": 1758,
    "ctions": 1759,
    "டத": 1760,
    "এব": 1761,
    "মধ": 1762,
    "ability": 1763,
    "regions": 1764,
    "ked": 1765,
    "middle": 1766,
    "central": 1767,
    "often": 1768,
    "88": 1769,
    "सभ": 1770,
    "ically": 1771,
    "caused": 1772,
    "आज": 1773,
    "yn": 1774,
    "दक": 1775,
    "உள": 1776,
    "पट": 1777,
    "uman": 1778,
    "79": 1779,
    "ton": 1780,
    "See": 1781,
    "219": 1782,
    "लय": 1783,
    "300": 1784,
    "Nat": 1785,
    "estim": 1786,
    "inger": 1787,
    "tition": 1788,
    "Data": 1789,
    "Dik": 1790,
    "Diksh": 1791,
    "Dikshit": 1792,
    "Politics": 1793,
    "ara": 1794,
    "defin": 1795,
    "lin": 1796,
    "eter": 1797,
    "ww": 1798,
    "border": 1799,
    "med": 1800,
    "ze": 1801,
    "van": 1802,
    "Prades": 1803,
    "Pradesh": 1804,
    "Schwar": 1805,
    "Schwart": 1806,
    "Schwartz": 1807,
    "Schwartzberg": 1808,
    "अध": 1809,
    "లక": 1810,
    "రమ": 1811,
    "లప": 1812,
    "इस": 1813,
    "ption": 1814,
    "mb": 1815,
    "ogn": 1816,
    "Forest": 1817,
    "தத": 1818,
    "ரச": 1819,
    "states": 1820,
    "adop": 1821,
    "जर": 1822,
    "earch": 1823,
    "वळ": 1824,
    "pur": 1825,
    "दल": 1826,
    "रस": 1827,
    "uri": 1828,
    "टक": 1829,
    "sector": 1830,
    "ale": 1831,
    "lor": 1832,
    "bert": 1833,
    "Cur": 1834,
    "Introduction": 1835,
    "rish": 1836,
    "चल": 1837,
    "Guj": 1838,
    "ological": 1839,
    "58": 1840,
    "According": 1841,
    "widely": 1842,
    "Pal": 1843,
    "Black": 1844,
    "upta": 1845,
    "erv": 1846,
    "union": 1847,
    "about": 1848,
    "এই": 1849,
    "Some": 1850,
    "Global": 1851,
    "ual": 1852,
    "bed": 1853,
    "Report": 1854,
    "odiversity": 1855,
    "dish": 1856,
    "itecture": 1857,
    "istr": 1858,
    "బడ": 1859,
    "ఆర": 1860,
    "flow": 1861,
    "popular": 1862,
    "pat": 1863,
    "Although": 1864,
    "ites": 1865,
    "ports": 1866,
    "families": 1867,
    "leav": 1868,
    "ker": 1869,
    "ions": 1870,
    "Rother": 1871,
    "Rotherm": 1872,
    "Rothermund": 1873,
    "1999": 1874,
    "ablish": 1875,
    "Civ": 1876,
    "Civil": 1877,
    "ederal": 1878,
    "char": 1879,
    "amic": 1880,
    "my": 1881,
    "indigen": 1882,
    "indigenous": 1883,
    "coast": 1884,
    "dustry": 1885,
    "party": 1886,
    "sions": 1887,
    "uistic": 1888,
    "theast": 1889,
    "compan": 1890,
    "parliamentary": 1891,
    "level": 1892,
    "groups": 1893,
    "hou": 1894,
    "upper": 1895,
    "gency": 1896,
    "str": 1897,
    "equ": 1898,
    "1965": 1899,
    "पद": 1900,
    "1991": 1901,
    "Andaman": 1902,
    "Isl": 1903,
    "following": 1904,
    "till": 1905,
    "teen": 1906,
    "three": 1907,
    "eton": 1908,
    "Nar": 1909,
    "Society": 1910,
    "ildlife": 1911,
    "Vol": 1912,
    "ultanate": 1913,
    "vill": 1914,
    "cted": 1915,
    "style": 1916,
    "developed": 1917,
    "Mathema": 1918,
    "Mathematics": 1919,
    "mathematics": 1920,
    "கர": 1921,
    "1996": 1922,
    "tis": 1923,
    "गमन": 1924,
    "umb": 1925,
    "कन": 1926,
    "উপ": 1927,
    "सद": 1928,
    "సవర": 1929,
    "பத": 1930,
    "Publishing": 1931,
    "கம": 1932,
    "सन": 1933,
    "Publications": 1934,
    "fence": 1935,
    "Encyclopedia": 1936,
    "सरक": 1937,
    "वत": 1938,
    "War": 1939,
    "gram": 1940,
    "আইএ": 1941,
    "Thom": 1942,
    "தன": 1943,
    "கல": 1944,
    "II": 1945,
    "रज": 1946,
    "help": 1947,
    "203": 1948,
    "around": 1949,
    "back": 1950,
    "different": 1951,
    "यक": 1952,
    "జన": 1953,
    "லத": 1954,
    "आप": 1955,
    "Policy": 1956,
    "IU": 1957,
    "IUCN": 1958,
    "यह": 1959,
    "cover": 1960,
    "ight": 1961,
    "আইএসব": 1962,
    "Brit": 1963,
    "Britann": 1964,
    "Britannica": 1965,
    "duced": 1966,
    "ick": 1967,
    "Kumar": 1968,
    "Sur": 1969,
    "ner": 1970,
    "Spr": 1971,
    "sider": 1972,
    "census": 1973,
    "Research": 1974,
    "pos": 1975,
    "Springer": 1976,
    "कड": 1977,
    "Reg": 1978,
    "ost": 1979,
    "across": 1980,
    "बह": 1981,
    "scri": 1982,
    "ily": 1983,
    "Gujar": 1984,
    "any": 1985,
    "Veda": 1986,
    "ili": 1987,
    "Vi": 1988,
    "पड": 1989,
    "list": 1990,
    "tionary": 1991,
    "ura": 1992,
    "ger": 1993,
    "tre": 1994,
    "118": 1995,
    "very": 1996,
    "if": 1997,
    "Studies": 1998,
    "Hand": 1999,
    "Handbook": 2000,
    "छन": 2001,
    "রণ": 2002,
    "একট": 2003,
    "Health": 2004,
    "Bank": 2005,
    "ats": 2006,
    "ants": 2007,
    "cis": 2008,
    "ones": 2009,
    "Tay": 2010,
    "Taylor": 2011,
    "aksh": 2012,
    "oor": 2013,
    "నల": 2014,
    "కల": 2015,
    "उद": 2016,
    "pol": 2017,
    "rec": 2018,
    "bl": 2019,
    "mig": 2020,
    "may": 2021,
    "lood": 2022,
    "Id": 2023,
    "ret": 2024,
    "Office": 2025,
    "Registr": 2026,
    "Registrar": 2027,
    "42": 2028,
    "posi": 2029,
    "Ele": 2030,
    "Himalayas": 2031,
    "body": 2032,
    "107": 2033,
    "ars": 2034,
    "rop": 2035,
    "hor": 2036,
    "ography": 2037,
    "change": 2038,
    "Organization": 2039,
    "traditions": 2040,
    "sm": 2041,
    "ஒர": 2042,
    "continu": 2043,
    "ecu": 2044,
    "histor": 2045,
    "acter": 2046,
    "action": 2047,
    "af": 2048,
    "suc": 2049,
    "independence": 2050,
    "oldest": 2051,
    "Women": 2052,
    "lades": 2053,
    "ladesh": 2054,
    "72": 2055,
    "ஆக": 2056,
    "பர": 2057,
    "এন": 2058,
    "establish": 2059,
    "plain": 2060,
    "signific": 2061,
    "ternal": 2062,
    "xim": 2063,
    "dist": 2064,
    "ee": 2065,
    "ables": 2066,
    "ords": 2067,
    "Its": 2068,
    "institution": 2069,
    "emocratic": 2070,
    "fast": 2071,
    "earliest": 2072,
    "today": 2073,
    "speak": 2074,
    "agriculture": 2075,
    "partic": 2076,
    "practices": 2077,
    "directly": 2078,
    "round": 2079,
    "pass": 2080,
    "support": 2081,
    "ule": 2082,
    "Wiley": 2083,
    "अब": 2084,
    "मत": 2085,
    "ital": 2086,
    "angered": 2087,
    "ians": 2088,
    "sou": 2089,
    "rise": 2090,
    "Middle": 2091,
    "expand": 2092,
    "growing": 2093,
    "urther": 2094,
    "Gree": 2095,
    "fied": 2096,
    "however": 2097,
    "won": 2098,
    "elections": 2099,
    "lower": 2100,
    "Brahma": 2101,
    "undamental": 2102,
    "marri": 2103,
    "series": 2104,
    "inc": 2105,
    "Wik": 2106,
    "cise": 2107,
    "prot": 2108,
    "pain": 2109,
    "painting": 2110,
    "formed": 2111,
    "literacy": 2112,
    "mid": 2113,
    "whose": 2114,
    "numbers": 2115,
    "local": 2116,
    "dances": 2117,
    "PM": 2118,
    "ref": 2119,
    "यर": 2120,
    "বস": 2121,
    "इत": 2122,
    "kil": 2123,
    "69": 2124,
    "Centre": 2125,
    "ume": 2126,
    "बत": 2127,
    "Dep": 2128,
    "Depart": 2129,
    "Department": 2130,
    "Di": 2131,
    "Ser": 2132,
    "41": 2133,
    "கட": 2134,
    "சம": 2135,
    "कम": 2136,
    "Nations": 2137,
    "Out": 2138,
    "ards": 2139,
    "Arch": 2140,
    "mary": 2141,
    "Thomas": 2142,
    "யத": 2143,
    "ject": 2144,
    "71": 2145,
    "रच": 2146,
    "ae": 2147,
    "1200": 2148,
    "106": 2149,
    "formation": 2150,
    "Bas": 2151,
    "Me": 2152,
    "stand": 2153,
    "rown": 2154,
    "রয": 2155,
    "২০০": 2156,
    "160": 2157,
    "Aryan": 2158,
    "Sub": 2159,
    "Americ": 2160,
    "ani": 2161,
    "103": 2162,
    "ys": 2163,
    "ove": 2164,
    "GD": 2165,
    "Languages": 2166,
    "consider": 2167,
    "org": 2168,
    "rust": 2169,
    "adopted": 2170,
    "gov": 2171,
    "ush": 2172,
    "cast": 2173,
    "ute": 2174,
    "1967": 2175,
    "116": 2176,
    "reach": 2177,
    "गल": 2178,
    "sc": 2179,
    "GDP": 2180,
    "बल": 2181,
    "porary": 2182,
    "Chandra": 2183,
    "गत": 2184,
    "Business": 2185,
    "Dic": 2186,
    "Dictionary": 2187,
    "వస": 2188,
    "ets": 2189,
    "nation": 2190,
    "There": 2191,
    "territories": 2192,
    "Sum": 2193,
    "overty": 2194,
    "called": 2195,
    "1993": 2196,
    "UK": 2197,
    "Rowland": 2198,
    "Law": 2199,
    "Libr": 2200,
    "lig": 2201,
    "wal": 2202,
    "126": 2203,
    "Te": 2204,
    "ervation": 2205,
    "ice": 2206,
    "refer": 2207,
    "tou": 2208,
    "touch": 2209,
    "गण": 2210,
    "232": 2211,
    "ams": 2212,
    "Fran": 2213,
    "record": 2214,
    "tree": 2215,
    "Urban": 2216,
    "News": 2217,
    "Book": 2218,
    "पह": 2219,
    "अपण": 2220,
    "Kul": 2221,
    "Kulke": 2222,
    "fication": 2223,
    "kes": 2224,
    "TO": 2225,
    "vent": 2226,
    "rent": 2227,
    "birth": 2228,
    "multi": 2229,
    "wealth": 2230,
    "democracy": 2231,
    "what": 2232,
    "empire": 2233,
    "Desert": 2234,
    "Gar": 2235,
    "lie": 2236,
    "Trade": 2237,
    "Educ": 2238,
    "Flood": 2239,
    "तथ": 2240,
    "recogn": 2241,
    "here": 2242,
    "provid": 2243,
    "Plateau": 2244,
    "Not": 2245,
    "rin": 2246,
    "Conservation": 2247,
    "five": 2248,
    "vice": 2249,
    "same": 2250,
    "onial": 2251,
    "ples": 2252,
    "ls": 2253,
    "Ra": 2254,
    "writ": 2255,
    "ection": 2256,
    "pa": 2257,
    "hā": 2258,
    "arna": 2259,
    "Sri": 2260,
    "result": 2261,
    "pil": 2262,
    "small": 2263,
    "spread": 2264,
    "Krish": 2265,
    "just": 2266,
    "trade": 2267,
    "fem": 2268,
    "Culture": 2269,
    "वल": 2270,
    "minist": 2271,
    "आण": 2272,
    "err": 2273,
    "घर": 2274,
    "changes": 2275,
    "fact": 2276,
    "istic": 2277,
    "fac": 2278,
    "vari": 2279,
    "sequ": 2280,
    "significant": 2281,
    "wards": 2282,
    "held": 2283,
    "Arab": 2284,
    "rati": 2285,
    "stud": 2286,
    "met": 2287,
    "Bangladesh": 2288,
    "Dra": 2289,
    "lid": 2290,
    "Sou": 2291,
    "religions": 2292,
    "aver": 2293,
    "development": 2294,
    "vast": 2295,
    "div": 2296,
    "head": 2297,
    "others": 2298,
    "1949": 2299,
    "Social": 2300,
    "मस": 2301,
    "అధ": 2302,
    "Wol": 2303,
    "Nic": 2304,
    "ilt": 2305,
    "approxim": 2306,
    "anged": 2307,
    "import": 2308,
    "humans": 2309,
    "Buddh": 2310,
    "Buddhism": 2311,
    "medieval": 2312,
    "turned": 2313,
    "grew": 2314,
    "Among": 2315,
    "Greek": 2316,
    "ashi": 2317,
    "inn": 2318,
    "much": 2319,
    "leading": 2320,
    "further": 2321,
    "coun": 2322,
    "influenced": 2323,
    "Dem": 2324,
    "house": 2325,
    "hen": 2326,
    "contribut": 2327,
    "school": 2328,
    "Music": 2329,
    "nar": 2330,
    "diverse": 2331,
    "ales": 2332,
    "produc": 2333,
    "sec": 2334,
    "bread": 2335,
    "EF": 2336,
    "आपण": 2337,
    "Micha": 2338,
    "Michael": 2339,
    "penins": 2340,
    "resid": 2341,
    "During": 2342,
    "southern": 2343,
    "educ": 2344,
    "education": 2345,
    "republic": 2346,
    "diversity": 2347,
    "cities": 2348,
    "regional": 2349,
    "sultanate": 2350,
    "commer": 2351,
    "aka": 2352,
    "village": 2353,
    "ergy": 2354,
    "engineering": 2355,
    "rates": 2356,
    "ighth": 2357,
    "scul": 2358,
    "exam": 2359,
    "Princ": 2360,
    "Princeton": 2361,
    "75": 2362,
    "BC": 2363,
    "মহ": 2364,
    "itz": 2365,
    "108": 2366,
    "उप": 2367,
    "1980": 2368,
    "शक": 2369,
    "Liter": 2370,
    "unity": 2371,
    "இல": 2372,
    "गय": 2373,
    "Before": 2374,
    "64": 2375,
    "तम": 2376,
    "Class": 2377,
    "রধ": 2378,
    "বল": 2379,
    "లల": 2380,
    "నద": 2381,
    "రక": 2382,
    "సర": 2383,
    "Ling": 2384,
    "Ver": 2385,
    "articles": 2386,
    "यवस": 2387,
    "Constitutional": 2388,
    "नव": 2389,
    "Human": 2390,
    "115": 2391,
    "UN": 2392,
    "Br": 2393,
    "reed": 2394,
    "itation": 2395,
    "rief": 2396,
    "Bur": 2397,
    "jo": 2398,
    "आल": 2399,
    "ஆண": 2400,
    "தல": 2401,
    "Companion": 2402,
    "endra": 2403,
    "Democracy": 2404,
    "araj": 2405,
    "রস": 2406,
    "সরক": 2407,
    "হল": 2408,
    "84": 2409,
    "SA": 2410,
    "went": 2411,
    "றத": 2412,
    "रपट": 2413,
    "titute": 2414,
    "ama": 2415,
    "266": 2416,
    "aim": 2417,
    "partition": 2418,
    "1988": 2419,
    "han": 2420,
    "disputed": 2421,
    "రధ": 2422,
    "रभ": 2423,
    "तन": 2424,
    "1995": 2425,
    "Urdu": 2426,
    "नद": 2427,
    "ctive": 2428,
    "organ": 2429,
    "Gujarat": 2430,
    "1500": 2431,
    "Survey": 2432,
    "ising": 2433,
    "ayan": 2434,
    "Le": 2435,
    "Med": 2436,
    "Power": 2437,
    "uk": 2438,
    "great": 2439,
    "deb": 2440,
    "Dut": 2441,
    "Library": 2442,
    "யம": 2443,
    "Sp": 2444,
    "eff": 2445,
    "मक": 2446,
    "195": 2447,
    "territory": 2448,
    "ung": 2449,
    "figures": 2450,
    "features": 2451,
    "missing": 2452,
    "Francis": 2453,
    "less": 2454,
    "Atl": 2455,
    "Shi": 2456,
    "jan": 2457,
    "Val": 2458,
    "Valley": 2459,
    "initi": 2460,
    "140": 2461,
    "123": 2462,
    "ns": 2463,
    "Common": 2464,
    "Commonwealth": 2465,
    "Art": 2466,
    "No": 2467,
    "Prac": 2468,
    "avin": 2469,
    "आध": 2470,
    "बण": 2471,
    "Gupta": 2472,
    "poll": 2473,
    "akh": 2474,
    "wa": 2475,
    "having": 2476,
    "simil": 2477,
    "similar": 2478,
    "Pre": 2479,
    "Dun": 2480,
    "isl": 2481,
    "190": 2482,
    "poverty": 2483,
    "largely": 2484,
    "inces": 2485,
    "Biodiversity": 2486,
    "Emer": 2487,
    "Blackwell": 2488,
    "weap": 2489,
    "entire": 2490,
    "aken": 2491,
    "scen": 2492,
    "ably": 2493,
    "gu": 2494,
    "jec": 2495,
    "gir": 2496,
    "atis": 2497,
    "ison": 2498,
    "ID": 2499,
    "Bib": 2500,
    "Spec": 2501,
    "এর": 2502,
    "यत": 2503,
    "event": 2504,
    "tes": 2505,
    "those": 2506,
    "Moh": 2507,
    "sts": 2508,
    "Mang": 2509,
    "entity": 2510,
    "hal": 2511,
    "Gange": 2512,
    "Gangetic": 2513,
    "inated": 2514,
    "relations": 2515,
    "global": 2516,
    "Marri": 2517,
    "dishes": 2518,
    "success": 2519,
    "bian": 2520,
    "pred": 2521,
    "Under": 2522,
    "down": 2523,
    "force": 2524,
    "sex": 2525,
    "iri": 2526,
    "Afgh": 2527,
    "Afghan": 2528,
    "eat": 2529,
    "रह": 2530,
    "వచ": 2531,
    "ఒక": 2532,
    "పట": 2533,
    "సమ": 2534,
    "అన": 2535,
    "ఒర": 2536,
    "करन": 2537,
    "ded": 2538,
    "लक": 2539,
    "error": 2540,
    "Port": 2541,
    "limate": 2542,
    "gradu": 2543,
    "North": 2544,
    "aning": 2545,
    "thought": 2546,
    "lay": 2547,
    "plac": 2548,
    "illi": 2549,
    "band": 2550,
    "consum": 2551,
    "related": 2552,
    "Jammu": 2553,
    "Thar": 2554,
    "emic": 2555,
    "foreign": 2556,
    "represent": 2557,
    "bre": 2558,
    "achi": 2559,
    "although": 2560,
    "mas": 2561,
    "rew": 2562,
    "Old": 2563,
    "character": 2564,
    "avour": 2565,
    "vict": 2566,
    "che": 2567,
    "harmace": 2568,
    "harmaceu": 2569,
    "harmaceutical": 2570,
    "जग": 2571,
    "52": 2572,
    "orities": 2573,
    "Country": 2574,
    "Wolper": 2575,
    "Wolpert": 2576,
    "Nicob": 2577,
    "Nicobar": 2578,
    "Islands": 2579,
    "Early": 2580,
    "created": 2581,
    "Buddha": 2582,
    "could": 2583,
    "built": 2584,
    "Cap": 2585,
    "approximately": 2586,
    "endangered": 2587,
    "until": 2588,
    "important": 2589,
    "Dance": 2590,
    "transmit": 2591,
    "transmitted": 2592,
    "cooked": 2593,
    "veget": 2594,
    "era": 2595,
    "doms": 2596,
    "works": 2597,
    "etic": 2598,
    "violence": 2599,
    "ham": 2600,
    "six": 2601,
    "alli": 2602,
    "sol": 2603,
    "ely": 2604,
    "aff": 2605,
    "opp": 2606,
    "alition": 2607,
    "ogam": 2608,
    "பக": 2609,
    "பல": 2610,
    "யல": 2611,
    "அம": 2612,
    "Wildlife": 2613,
    "जव": 2614,
    "ather": 2615,
    "শত": 2616,
    "১৯৯": 2617,
    "শক": 2618,
    "Jainism": 2619,
    "Maury": 2620,
    "federal": 2621,
    "bar": 2622,
    "styles": 2623,
    "heredit": 2624,
    "hereditary": 2625,
    "peninsular": 2626,
    "industry": 2627,
    "employed": 2628,
    "Keral": 2629,
    "Kerala": 2630,
    "leader": 2631,
    "declar": 2632,
    "fundamental": 2633,
    "mitte": 2634,
    "Nad": 2635,
    "Nadu": 2636,
    "contribu": 2637,
    "lege": 2638,
    "mathematical": 2639,
    "mathematic": 2640,
    "mathematicians": 2641,
    "meth": 2642,
    "dian": 2643,
    "rich": 2644,
    "quality": 2645,
    "cut": 2646,
    "pture": 2647,
    "bel": 2648,
    "inf": 2649,
    "enac": 2650,
    "putra": 2651,
    "car": 2652,
    "vention": 2653,
    "awa": 2654,
    "members": 2655,
    "execu": 2656,
    "Sched": 2657,
    "sched": 2658,
    "uled": 2659,
    "onomet": 2660,
    "sister": 2661,
    "269": 2662,
    "Anth": 2663,
    "target": 2664,
    "CIT": 2665,
    "CITE": 2666,
    "CITER": 2667,
    "CITEREF": 2668,
    "BBC": 2669,
    "Concise": 2670,
    "Mac": 2671,
    "असल": 2672,
    "Home": 2673,
    "ision": 2674,
    "पन": 2675,
    "67": 2676,
    "पक": 2677,
    "121": 2678,
    "అత": 2679,
    "యవస": 2680,
    "దక": 2681,
    "Volume": 2682,
    "भल": 2683,
    "32": 2684,
    "हण": 2685,
    "resent": 2686,
    "டன": 2687,
    "415": 2688,
    "Provision": 2689,
    "दम": 2690,
    "125": 2691,
    "subject": 2692,
    "Mumb": 2693,
    "Mumbai": 2694,
    "सह": 2695,
    "Sim": 2696,
    "चन": 2697,
    "সর": 2698,
    "সঙ": 2699,
    "plate": 2700,
    "Environmental": 2701,
    "tsch": 2702,
    "णक": 2703,
    "rag": 2704,
    "Linguistic": 2705,
    "Dis": 2706,
    "यम": 2707,
    "Bengali": 2708,
    "59": 2709,
    "1951": 2710,
    "147": 2711,
    "List": 2712,
    "Gold": 2713,
    "Long": 2714,
    "जस": 2715,
    "आर": 2716,
    "98": 2717,
    "1990": 2718,
    "రద": 2719,
    "००": 2720,
    "Chris": 2721,
    "etary": 2722,
    "யப": 2723,
    "Tritsch": 2724,
    "To": 2725,
    "असत": 2726,
    "117": 2727,
    "abad": 2728,
    "ames": 2729,
    "Pandi": 2730,
    "Pandit": 2731,
    "என": 2732,
    "road": 2733,
    "भर": 2734,
    "administer": 2735,
    "claim": 2736,
    "গত": 2737,
    "222": 2738,
    "inct": 2739,
    "mbol": 2740,
    "originally": 2741,
    "size": 2742,
    "hab": 2743,
    "4th": 2744,
    "maint": 2745,
    "soon": 2746,
    "216": 2747,
    "267": 2748,
    "लन": 2749,
    "place": 2750,
    "being": 2751,
    "living": 2752,
    "194": 2753,
    "லக": 2754,
    "imals": 2755,
    "dar": 2756,
    "iving": 2757,
    "temporary": 2758,
    "sf": 2759,
    "sfn": 2760,
    "Non": 2761,
    "press": 2762,
    "135": 2763,
    "Alan": 2764,
    "Tem": 2765,
    "बड": 2766,
    "Ri": 2767,
    "Rig": 2768,
    "227": 2769,
    "318": 2770,
    "Fin": 2771,
    "evid": 2772,
    "evidence": 2773,
    "Tot": 2774,
    "alys": 2775,
    "1971": 2776,
    "rative": 2777,
    "km": 2778,
    "oli": 2779,
    "makes": 2780,
    "cher": 2781,
    "ancy": 2782,
    "policy": 2783,
    "yal": 2784,
    "172": 2785,
    "Vis": 2786,
    "avi": 2787,
    "sel": 2788,
    "ays": 2789,
    "1885": 2790,
    "1972": 2791,
    "apan": 2792,
    "Inter": 2793,
    "Rog": 2794,
    "Chang": 2795,
    "Dutt": 2796,
    "humili": 2797,
    "253": 2798,
    "Paper": 2799,
    "Gavin": 2800,
    "retrieved": 2801,
    "see": 2802,
    "dia": 2803,
    "ada": 2804,
    "sq": 2805,
    "మధ": 2806,
    "వత": 2807,
    "మత": 2808,
    "చర": 2809,
    "करत": 2810,
    "portion": 2811,
    "Aust": 2812,
    "Austral": 2813,
    "draw": 2814,
    "shall": 2815,
    "Gil": 2816,
    "Current": 2817,
    "cept": 2818,
    "dress": 2819,
    "thin": 2820,
    "Market": 2821,
    "ritual": 2822,
    "gods": 2823,
    "sa": 2824,
    "163": 2825,
    "Araval": 2826,
    "Aravalli": 2827,
    "Ku": 2828,
    "Party": 2829,
    "ements": 2830,
    "Japan": 2831,
    "With": 2832,
    "Gre": 2833,
    "home": 2834,
    "375": 2835,
    "likely": 2836,
    "geographical": 2837,
    "Harv": 2838,
    "American": 2839,
    "SAG": 2840,
    "SAGE": 2841,
    "Blur": 2842,
    "Blurton": 2843,
    "ஆம": 2844,
    "னர": 2845,
    "india": 2846,
    "First": 2847,
    "olas": 2848,
    "thme": 2849,
    "thmetic": 2850,
    "written": 2851,
    "show": 2852,
    "above": 2853,
    "va": 2854,
    "ished": 2855,
    "self": 2856,
    "ources": 2857,
    "cend": 2858,
    "buc": 2859,
    "buck": 2860,
    "risis": 2861,
    "vest": 2862,
    "elect": 2863,
    "water": 2864,
    "survey": 2865,
    "highly": 2866,
    "recorded": 2867,
    "expan": 2868,
    "migration": 2869,
    "361": 2870,
    "omo": 2871,
    "occur": 2872,
    "invol": 2873,
    "epics": 2874,
    "orally": 2875,
    "mode": 2876,
    "did": 2877,
    "abor": 2878,
    "157": 2879,
    "thorn": 2880,
    "etah": 2881,
    "Rao": 2882,
    "Fore": 2883,
    "Foreign": 2884,
    "porter": 2885,
    "female": 2886,
    "dyn": 2887,
    "lost": 2888,
    "successful": 2889,
    "oic": 2890,
    "577": 2891,
    "James": 2892,
    "1017": 2893,
    "One": 2894,
    "owe": 2895,
    "Mol": 2896,
    "Bibco": 2897,
    "Bibcode": 2898,
    "Harvard": 2899,
    "674": 2900,
    "ina": 2901,
    "ps": 2902,
    "anc": 2903,
    "continued": 2904,
    "anted": 2905,
    "habit": 2906,
    "prov": 2907,
    "exten": 2908,
    "sett": 2909,
    "sil": 2910,
    "pic": 2911,
    "tax": 2912,
    "every": 2913,
    "process": 2914,
    "sum": 2915,
    "fam": 2916,
    "Ti": 2917,
    "survi": 2918,
    "reme": 2919,
    "moist": 2920,
    "tically": 2921,
    "black": 2922,
    "iger": 2923,
    "becom": 2924,
    "ived": 2925,
    "top": 2926,
    "turn": 2927,
    "428": 2928,
    "orship": 2929,
    "tival": 2930,
    "achiev": 2931,
    "cuis": 2932,
    "ource": 2933,
    "colonial": 2934,
    "However": 2935,
    "Afghanistan": 2936,
    "came": 2937,
    "polic": 2938,
    "policies": 2939,
    "provided": 2940,
    "Deccan": 2941,
    "Ghat": 2942,
    "Ghats": 2943,
    "must": 2944,
    "average": 2945,
    "several": 2946,
    "each": 2947,
    "Education": 2948,
    "therefore": 2949,
    "influences": 2950,
    "409": 2951,
    "eaten": 2952,
    "Countries": 2953,
    "without": 2954,
    "ola": 2955,
    "appear": 2956,
    "ras": 2957,
    "Nep": 2958,
    "near": 2959,
    "omin": 2960,
    "architecture": 2961,
    "cultures": 2962,
    "drew": 2963,
    "society": 2964,
    "child": 2965,
    "subsequ": 2966,
    "dev": 2967,
    "agricultural": 2968,
    "ences": 2969,
    "Islamic": 2970,
    "elites": 2971,
    "oms": 2972,
    "bility": 2973,
    "pu": 2974,
    "due": 2975,
    "decades": 2976,
    "marked": 2977,
    "legisl": 2978,
    "separ": 2979,
    "Gond": 2980,
    "run": 2981,
    "Himalayan": 2982,
    "Krishna": 2983,
    "key": 2984,
    "reatened": 2985,
    "ched": 2986,
    "Ut": 2987,
    "Uttar": 2988,
    "parties": 2989,
    "Tel": 2990,
    "close": 2991,
    "crimin": 2992,
    "Agency": 2993,
    "outside": 2994,
    "cooking": 2995,
    "romise": 2996,
    "formal": 2997,
    "former": 2998,
    "endogam": 2999,
    "eld": 3000,
    "fes": 3001,
    "best": 3002,
    "360": 3003,
    "oth": 3004,
    "athak": 3005,
    "ined": 3006,
    "ez": 3007,
    "When": 3008,
    "iqu": 3009,
    "meat": 3010,
    "Hay": 3011,
    "existed": 3012,
    "691": 3013,
    "287": 3014,
    "গণ": 3015,
    "ধর": 3016,
    "রম": 3017,
    "অঞ": 3018,
    "मण": 3019,
    "07": 3020,
    "Ind": 3021,
    "bas": 3022,
    "touchability": 3023,
    "increasing": 3024,
    "numer": 3025,
    "administ": 3026,
    "again": 3027,
    "stead": 3028,
    "ength": 3029,
    "Euras": 3030,
    "pical": 3031,
    "changed": 3032,
    "mittee": 3033,
    "test": 3034,
    "olk": 3035,
    "else": 3036,
    "brother": 3037,
    "occupation": 3038,
    "solid": 3039,
    "kingdoms": 3040,
    "Southeast": 3041,
    "astri": 3042,
    "took": 3043,
    "technology": 3044,
    "reduc": 3045,
    "reduced": 3046,
    "uscri": 3047,
    "extant": 3048,
    "estic": 3049,
    "forests": 3050,
    "comple": 3051,
    "greater": 3052,
    "classes": 3053,
    "sometimes": 3054,
    "eties": 3055,
    "commercial": 3056,
    "Dal": 3057,
    "reforms": 3058,
    "enacted": 3059,
    "liber": 3060,
    "Brahmaputra": 3061,
    "latter": 3062,
    "played": 3063,
    "recent": 3064,
    "Jawa": 3065,
    "Jawahar": 3066,
    "Jawaharl": 3067,
    "Jawaharlal": 3068,
    "coalition": 3069,
    "defe": 3070,
    "defeated": 3071,
    "executive": 3072,
    "courts": 3073,
    "compromise": 3074,
    "Eighth": 3075,
    "Schedule": 3076,
    "scheduled": 3077,
    "HO": 3078,
    "natal": 3079,
    "sculpture": 3080,
    "But": 3081,
    "onometry": 3082,
    "trig": 3083,
    "example": 3084,
    "sari": 3085,
    "worn": 3086,
    "simp": 3087,
    "simple": 3088,
    "bak": 3089,
    "Mango": 3090,
    "PMID": 3091,
    "Plof": 3092,
    "Plofker": 3093,
    "pages": 3094,
    "கத": 3095,
    "அரச": 3096,
    "कत": 3097,
    "Change": 3098,
    "రస": 3099,
    "ఎన": 3100,
    "యబడ": 3101,
    "గల": 3102,
    "नम": 3103,
    "थव": 3104,
    "அத": 3105,
    "web": 3106,
    "62": 3107,
    "রব": 3108,
    "আন": 3109,
    "অর": 3110,
    "92": 3111,
    "रख": 3112,
    "अग": 3113,
    "120": 3114,
    "Prospec": 3115,
    "Prospects": 3116,
    "State": 3117,
    "www": 3118,
    "Day": 3119,
    "Century": 3120,
    "ரம": 3121,
    "शहर": 3122,
    "132": 3123,
    "Short": 3124,
    "data": 3125,
    "Jana": 3126,
    "Gana": 3127,
    "Mana": 3128,
    "कस": 3129,
    "date": 3130,
    "via": 3131,
    "Infor": 3132,
    "Informa": 3133,
    "Informatics": 3134,
    "auth": 3135,
    "report": 3136,
    "তন": 3137,
    "উত": 3138,
    "ষম": 3139,
    "মন": 3140,
    "সন": 3141,
    "বন": 3142,
    "வத": 3143,
    "வட": 3144,
    "ளர": 3145,
    "आद": 3146,
    "दन": 3147,
    "NA": 3148,
    "110": 3149,
    "xx": 3150,
    "नक": 3151,
    "ues": 3152,
    "Barb": 3153,
    "Barbara": 3154,
    "citation": 3155,
    "orial": 3156,
    "तस": 3157,
    "Karan": 3158,
    "Karanth": 3159,
    "హద": 3160,
    "కర": 3161,
    "వల": 3162,
    "రవ": 3163,
    "अश": 3164,
    "शन": 3165,
    "05": 3166,
    "Eth": 3167,
    "Ethn": 3168,
    "PA": 3169,
    "உர": 3170,
    "தம": 3171,
    "lia": 3172,
    "chin": 3173,
    "Aks": 3174,
    "Peng": 3175,
    "Pengu": 3176,
    "Penguin": 3177,
    "यन": 3178,
    "रध": 3179,
    "जम": 3180,
    "defined": 3181,
    "143": 3182,
    "रय": 3183,
    "अल": 3184,
    "udget": 3185,
    "109": 3186,
    "Christi": 3187,
    "version": 3188,
    "cra": 3189,
    "produced": 3190,
    "Char": 3191,
    "279": 3192,
    "Sy": 3193,
    "brief": 3194,
    "Bar": 3195,
    "অধ": 3196,
    "উদ": 3197,
    "anat": 3198,
    "Manip": 3199,
    "सबस": 3200,
    "183": 3201,
    "Year": 3202,
    "defence": 3203,
    "administered": 3204,
    "1983": 3205,
    "ause": 3206,
    "Ag": 3207,
    "cus": 3208,
    "estimated": 3209,
    "while": 3210,
    "Monetary": 3211,
    "Fund": 3212,
    "Kal": 3213,
    "210": 3214,
    "டர": 3215,
    "Don": 3216,
    "Series": 3217,
    "Shar": 3218,
    "Publishers": 3219,
    "Tr": 3220,
    "Mov": 3221,
    "dispute": 3222,
    "Gl": 3223,
    "34": 3224,
    "death": 3225,
    "Wall": 3226,
    "261": 3227,
    "Defence": 3228,
    "borders": 3229,
    "come": 3230,
    "script": 3231,
    "extinct": 3232,
    "Dev": 3233,
    "sources": 3234,
    "टन": 3235,
    "136": 3236,
    "138": 3237,
    "seem": 3238,
    "andy": 3239,
    "Brown": 3240,
    "Contemporary": 3241,
    "tin": 3242,
    "nam": 3243,
    "113": 3244,
    "289": 3245,
    "ured": 3246,
    "जल": 3247,
    "पश": 3248,
    "cust": 3249,
    "below": 3250,
    "152": 3251,
    "211": 3252,
    "ji": 3253,
    "382": 3254,
    "Vedas": 3255,
    "Grow": 3256,
    "PL": 3257,
    "యమ": 3258,
    "లత": 3259,
    "జర": 3260,
    "Mil": 3261,
    "Anand": 3262,
    "Fo": 3263,
    "Ber": 3264,
    "Paul": 3265,
    "रव": 3266,
    "good": 3267,
    "Bihar": 3268,
    "dise": 3269,
    "Medi": 3270,
    "149": 3271,
    "156": 3272,
    "305": 3273,
    "bur": 3274,
    "estimate": 3275,
    "4020": 3276,
    "179": 3277,
    "হত": 3278,
    "বহ": 3279,
    "সদ": 3280,
    "agement": 3281,
    "hym": 3282,
    "hymns": 3283,
    "River": 3284,
    "eventually": 3285,
    "Sin": 3286,
    "alysis": 3287,
    "789": 3288,
    "Review": 3289,
    "cep": 3290,
    "etail": 3291,
    "83": 3292,
    "garh": 3293,
    "Gop": 3294,
    "Gopal": 3295,
    "utri": 3296,
    "utrition": 3297,
    "pollution": 3298,
    "Medieval": 3299,
    "102": 3300,
    "nearly": 3301,
    "Modi": 3302,
    "Lo": 3303,
    "expect": 3304,
    "expectancy": 3305,
    "Roy": 3306,
    "Gilbert": 3307,
    "Online": 3308,
    "Express": 3309,
    "Bal": 3310,
    "uture": 3311,
    "bes": 3312,
    "lee": 3313,
    "173": 3314,
    "rateg": 3315,
    "rategic": 3316,
    "302": 3317,
    "351": 3318,
    "ousand": 3319,
    "bably": 3320,
    "Py": 3321,
    "Geograph": 3322,
    "489": 3323,
    "168": 3324,
    "170": 3325,
    "423": 3326,
    "will": 3327,
    "detail": 3328,
    "deal": 3329,
    "438": 3330,
    "Macmill": 3331,
    "Macmillan": 3332,
    "Robert": 3333,
    "Atlas": 3334,
    "veda": 3335,
    "Mc": 3336,
    "Peers": 3337,
    "Roger": 3338,
    "Sarkar": 3339,
    "Practice": 3340,
    "Forests": 3341,
    "PLA": 3342,
    "Redi": 3343,
    "Rediff": 3344,
    "Make": 3345,
    "Provisional": 3346,
    "Totals": 3347,
    "Michell": 3348,
    "batter": 3349,
    "Up": 3350,
    "Rajat": 3351,
    "Architecture": 3352,
    "aval": 3353,
    "Encyclopæ": 3354,
    "Encyclopædia": 3355,
    "Prof": 3356,
    "Profi": 3357,
    "Profile": 3358,
    "ights": 3359,
    "perial": 3360,
    "pite": 3361,
    "descri": 3362,
    "atives": 3363,
    "Artic": 3364,
    "aith": 3365,
    "Ay": 3366,
    "full": 3367,
    "Ter": 3368,
    "Technology": 3369,
    "Ph": 3370,
    "ided": 3371,
    "taken": 3372,
    "arter": 3373,
    "Mao": 3374,
    "course": 3375,
    "She": 3376,
    "251": 3377,
    "percent": 3378,
    "statis": 3379,
    "incely": 3380,
    "School": 3381,
    "heav": 3382,
    "Tod": 3383,
    "Econom": 3384,
    "aria": 3385,
    "Their": 3386,
    "asts": 3387,
    "itt": 3388,
    "expansion": 3389,
    "primary": 3390,
    "Homo": 3391,
    "sap": 3392,
    "sapi": 3393,
    "sapiens": 3394,
    "anning": 3395,
    "past": 3396,
    "refle": 3397,
    "bey": 3398,
    "beyond": 3399,
    "owing": 3400,
    "176": 3401,
    "151": 3402,
    "ester": 3403,
    "Sat": 3404,
    "rivers": 3405,
    "belong": 3406,
    "184": 3407,
    "ete": 3408,
    "243": 3409,
    "rece": 3410,
    "sele": 3411,
    "selective": 3412,
    "Sign": 3413,
    "akes": 3414,
    "acher": 3415,
    "Pat": 3416,
    "point": 3417,
    "Lowe": 3418,
    "inci": 3419,
    "online": 3420,
    "itch": 3421,
    "Species": 3422,
    "ots": 3423,
    "Diversity": 3424,
    "akar": 3425,
    "Army": 3426,
    "ij": 3427,
    "What": 3428,
    "City": 3429,
    "Anthrop": 3430,
    "Anthropology": 3431,
    "ends": 3432,
    "ground": 3433,
    "Srin": 3434,
    "बदल": 3435,
    "रश": 3436,
    "established": 3437,
    "Malay": 3438,
    "ima": 3439,
    "oted": 3440,
    "efs": 3441,
    "vary": 3442,
    "enter": 3443,
    "visi": 3444,
    "post": 3445,
    "aged": 3446,
    "385": 3447,
    "leavened": 3448,
    "rice": 3449,
    "Perform": 3450,
    "flour": 3451,
    "democratic": 3452,
    "pots": 3453,
    "historical": 3454,
    "meaning": 3455,
    "dates": 3456,
    "animals": 3457,
    "occurred": 3458,
    "Bet": 3459,
    "Between": 3460,
    "speaking": 3461,
    "family": 3462,
    "5th": 3463,
    "various": 3464,
    "transmission": 3465,
    "then": 3466,
    "Cal": 3467,
    "introduction": 3468,
    "limited": 3469,
    "cture": 3470,
    "orne": 3471,
    "146": 3472,
    "consumption": 3473,
    "ont": 3474,
    "prevent": 3475,
    "tile": 3476,
    "osp": 3477,
    "Janata": 3478,
    "lived": 3479,
    "hold": 3480,
    "weapons": 3481,
    "acity": 3482,
    "cle": 3483,
    "killed": 3484,
    "orts": 3485,
    "unities": 3486,
    "according": 3487,
    "international": 3488,
    "wood": 3489,
    "figure": 3490,
    "regard": 3491,
    "elements": 3492,
    "thing": 3493,
    "cake": 3494,
    "hoc": 3495,
    "cert": 3496,
    "certain": 3497,
    "alread": 3498,
    "already": 3499,
    "fully": 3500,
    "Identity": 3501,
    "Dunleav": 3502,
    "Dunleavy": 3503,
    "umph": 3504,
    "shar": 3505,
    "ula": 3506,
    "pers": 3507,
    "mark": 3508,
    "clus": 3509,
    "cor": 3510,
    "etermin": 3511,
    "yam": 3512,
    "JS": 3513,
    "oz": 3514,
    "खन": 3515,
    "உலக": 3516,
    "अत": 3517,
    "मल": 3518,
    "ইন": 3519,
    "আর": 3520,
    "শন": 3521,
    "नर": 3522,
    "cean": 3523,
    "marg": 3524,
    "beli": 3525,
    "overe": 3526,
    "overeign": 3527,
    "capit": 3528,
    "story": 3529,
    "telling": 3530,
    "ṇa": 3531,
    "ously": 3532,
    "aries": 3533,
    "adi": 3534,
    "law": 3535,
    "aci": 3536,
    "rucial": 3537,
    "astern": 3538,
    "position": 3539,
    "meas": 3540,
    "sar": 3541,
    "died": 3542,
    "ying": 3543,
    "ND": 3544,
    "compl": 3545,
    "Eg": 3546,
    "fall": 3547,
    "lic": 3548,
    "rought": 3549,
    "study": 3550,
    "hami": 3551,
    "rigid": 3552,
    "amed": 3553,
    "Mun": 3554,
    "Arabian": 3555,
    "Lank": 3556,
    "northwest": 3557,
    "plains": 3558,
    "net": 3559,
    "slow": 3560,
    "techn": 3561,
    "intro": 3562,
    "introduced": 3563,
    "violent": 3564,
    "govern": 3565,
    "nom": 3566,
    "disputes": 3567,
    "ours": 3568,
    "Sind": 3569,
    "epic": 3570,
    "13th": 3571,
    "hood": 3572,
    "Mohen": 3573,
    "Mohenjo": 3574,
    "daro": 3575,
    "pot": 3576,
    "associ": 3577,
    "sac": 3578,
    "rific": 3579,
    "rather": 3580,
    "particular": 3581,
    "sively": 3582,
    "7th": 3583,
    "gold": 3584,
    "late": 3585,
    "aut": 3586,
    "Many": 3587,
    "severely": 3588,
    "ential": 3589,
    "137": 3590,
    "rast": 3591,
    "generated": 3592,
    "victories": 3593,
    "particip": 3594,
    "ecton": 3595,
    "wana": 3596,
    "ening": 3597,
    "Ko": 3598,
    "consists": 3599,
    "summer": 3600,
    "ane": 3601,
    "osa": 3602,
    "civ": 3603,
    "civil": 3604,
    "eded": 3605,
    "governments": 3606,
    "UPA": 3607,
    "tives": 3608,
    "gation": 3609,
    "supre": 3610,
    "supreme": 3611,
    "court": 3612,
    "ases": 3613,
    "division": 3614,
    "Sikk": 3615,
    "Sikkim": 3616,
    "Can": 3617,
    "Demograph": 3618,
    "milk": 3619,
    "Kashmiri": 3620,
    "affir": 3621,
    "divor": 3622,
    "divorce": 3623,
    "El": 3624,
    "occas": 3625,
    "roti": 3626,
    "ampion": 3627,
    "words": 3628,
    "toge": 3629,
    "together": 3630,
    "decided": 3631,
    "Reu": 3632,
    "Reuters": 3633,
    "JSTO": 3634,
    "JSTOR": 3635,
    "மக": 3636,
    "यप": 3637,
    "Cour": 3638,
    "arm": 3639,
    "los": 3640,
    "mediately": 3641,
    "Ajan": 3642,
    "edic": 3643,
    "Pall": 3644,
    "Pallav": 3645,
    "Ak": 3646,
    "train": 3647,
    "half": 3648,
    "crust": 3649,
    "role": 3650,
    "tropical": 3651,
    "fish": 3652,
    "Fron": 3653,
    "constitutional": 3654,
    "inte": 3655,
    "Madras": 3656,
    "bercul": 3657,
    "berculos": 3658,
    "berculosis": 3659,
    "Yaksh": 3660,
    "astron": 3661,
    "alge": 3662,
    "algeb": 3663,
    "algebra": 3664,
    "waist": 3665,
    "wear": 3666,
    "tand": 3667,
    "vegetari": 3668,
    "strati": 3669,
    "attemp": 3670,
    "Sea": 3671,
    "Myan": 3672,
    "Myanmar": 3673,
    "share": 3674,
    "Dravi": 3675,
    "Dravidian": 3676,
    "hered": 3677,
    "consolid": 3678,
    "Islam": 3679,
    "resulting": 3680,
    "cos": 3681,
    "righ": 3682,
    "rights": 3683,
    "influence": 3684,
    "inequality": 3685,
    "resol": 3686,
    "ender": 3687,
    "traditionally": 3688,
    "uscript": 3689,
    "ave": 3690,
    "reached": 3691,
    "animal": 3692,
    "thes": 3693,
    "systems": 3694,
    "conduc": 3695,
    "conducted": 3696,
    "complex": 3697,
    "renew": 3698,
    "otion": 3699,
    "Va": 3700,
    "placed": 3701,
    "Temple": 3702,
    "6th": 3703,
    "another": 3704,
    "artis": 3705,
    "societies": 3706,
    "Mughals": 3707,
    "pay": 3708,
    "cro": 3709,
    "pped": 3710,
    "secular": 3711,
    "Tibet": 3712,
    "tially": 3713,
    "highest": 3714,
    "matic": 3715,
    "Karnat": 3716,
    "Karnataka": 3717,
    "Still": 3718,
    "vul": 3719,
    "generally": 3720,
    "centre": 3721,
    "chos": 3722,
    "chosen": 3723,
    "Indira": 3724,
    "opposed": 3725,
    "returned": 3726,
    "single": 3727,
    "external": 3728,
    "Democratic": 3729,
    "elected": 3730,
    "spic": 3731,
    "1950s": 3732,
    "wars": 3733,
    "discrimin": 3734,
    "Energy": 3735,
    "domestic": 3736,
    "Demographics": 3737,
    "exports": 3738,
    "producer": 3739,
    "pharmaceutical": 3740,
    "tea": 3741,
    "provision": 3742,
    "speakers": 3743,
    "ists": 3744,
    "promin": 3745,
    "Muslims": 3746,
    "him": 3747,
    "Engineering": 3748,
    "WHO": 3749,
    "festival": 3750,
    "decimal": 3751,
    "arithmetic": 3752,
    "Hindustani": 3753,
    "Carna": 3754,
    "Carnatic": 3755,
    "dramas": 3756,
    "Kathak": 3757,
    "commonly": 3758,
    "still": 3759,
    "kame": 3760,
    "kameez": 3761,
    "portal": 3762,
    "proble": 3763,
    "Wright": 3764,
    "Sons": 3765,
    "Molnar": 3766,
    "NJ": 3767,
    "Hayashi": 3768,
    "Bour": 3769,
    "Bourbak": 3770,
    "Bourbaki": 3771,
    "trigonometry": 3772,
    "chord": 3773,
    "கவ": 3774,
    "யர": 3775,
    "రజ": 3776,
    "కన": 3777,
    "సభ": 3778,
    "260": 3779,
    "आत": 3780,
    "इल": 3781,
    "धन": 3782,
    "89": 3783,
    "अज": 3784,
    "Part": 3785,
    "যদ": 3786,
    "পত": 3787,
    "দক": 3788,
    "গর": 3789,
    "900": 3790,
    "हव": 3791,
    "Books": 3792,
    "People": 3793,
    "Since": 3794,
    "IL": 3795,
    "Div": 3796,
    "Division": 3797,
    "समझ": 3798,
    "यस": 3799,
    "तत": 3800,
    "கண": 3801,
    "बच": 3802,
    "करद": 3803,
    "kilomet": 3804,
    "ht": 3805,
    "ority": 3806,
    "गळ": 3807,
    "181": 3808,
    "82": 3809,
    "162": 3810,
    "archi": 3811,
    "Anthem": 3812,
    "டப": 3813,
    "ఉత": 3814,
    "ఇద": 3815,
    "యక": 3816,
    "అయ": 3817,
    "తమ": 3818,
    "వహ": 3819,
    "గర": 3820,
    "దర": 3821,
    "ఇతర": 3822,
    "উল": 3823,
    "মর": 3824,
    "গঠ": 3825,
    "রথ": 3826,
    "ফল": 3827,
    "ষণ": 3828,
    "Program": 3829,
    "Programme": 3830,
    "Way": 3831,
    "Ins": 3832,
    "Coll": 3833,
    "इज": 3834,
    "Ab": 3835,
    "सल": 3836,
    "ll": 3837,
    "Outlo": 3838,
    "Outlook": 3839,
    "Mach": 3840,
    "Stud": 3841,
    "यल": 3842,
    "1974": 3843,
    "community": 3844,
    "73": 3845,
    "Study": 3846,
    "Ethnolog": 3847,
    "Ethnologue": 3848,
    "उठ": 3849,
    "தப": 3850,
    "हन": 3851,
    "rd": 3852,
    "Minorities": 3853,
    "linguistic": 3854,
    "सत": 3855,
    "119": 3856,
    "countries": 3857,
    "reedom": 3858,
    "dri": 3859,
    "220": 3860,
    "960": 3861,
    "Pp": 3862,
    "Sc": 3863,
    "डल": 3864,
    "indu": 3865,
    "नह": 3866,
    "அட": 3867,
    "ரத": 3868,
    "भग": 3869,
    "Cultur": 3870,
    "Popul": 3871,
    "Pet": 3872,
    "Petrag": 3873,
    "Petraglia": 3874,
    "Allchin": 3875,
    "partly": 3876,
    "रल": 3877,
    "উৎ": 3878,
    "অক": 3879,
    "htt": 3880,
    "pact": 3881,
    "Christian": 3882,
    "Peter": 3883,
    "बद": 3884,
    "271": 3885,
    "शत": 3886,
    "Trust": 3887,
    "Institute": 3888,
    "Broad": 3889,
    "Broadcast": 3890,
    "Broadcasting": 3891,
    "Ka": 3892,
    "Hist": 3893,
    "265": 3894,
    "06": 3895,
    "हमर": 3896,
    "700": 3897,
    "additional": 3898,
    "because": 3899,
    "give": 3900,
    "ging": 3901,
    "Ah": 3902,
    "Information": 3903,
    "ict": 3904,
    "235": 3905,
    "தர": 3906,
    "Rec": 3907,
    "మహ": 3908,
    "పద": 3909,
    "రభ": 3910,
    "Aksai": 3911,
    "existence": 3912,
    "सण": 3913,
    "टर": 3914,
    "313": 3915,
    "अलग": 3916,
    "208": 3917,
    "Guide": 3918,
    "Earth": 3919,
    "Trans": 3920,
    "Assam": 3921,
    "आक": 3922,
    "DNA": 3923,
    "114": 3924,
    "127": 3925,
    "1984": 3926,
    "255": 3927,
    "Literacy": 3928,
    "333": 3929,
    "353": 3930,
    "text": 3931,
    "worth": 3932,
    "1016": 3933,
    "kash": 3934,
    "Red": 3935,
    "race": 3936,
    "debate": 3937,
    "Devan": 3938,
    "Devanag": 3939,
    "Devanagari": 3940,
    "540": 3941,
    "organisation": 3942,
    "custom": 3943,
    "338": 3944,
    "384": 3945,
    "कथ": 3946,
    "கக": 3947,
    "Classical": 3948,
    "Columb": 3949,
    "Columbia": 3950,
    "Foot": 3951,
    "Ali": 3952,
    "Basu": 3953,
    "ward": 3954,
    "Discover": 3955,
    "Orig": 3956,
    "Ki": 3957,
    "Mo": 3958,
    "spective": 3959,
    "Sa": 3960,
    "সক": 3961,
    "অব": 3962,
    "লন": 3963,
    "চন": 3964,
    "Alig": 3965,
    "Aligned": 3966,
    "Movement": 3967,
    "Marath": 3968,
    "यद": 3969,
    "111": 3970,
    "128": 3971,
    "262": 3972,
    "bit": 3973,
    "bitter": 3974,
    "349": 3975,
    "northernmost": 3976,
    "Cop": 3977,
    "Copland": 3978,
    "141": 3979,
    "215": 3980,
    "abin": 3981,
    "Ci": 3982,
    "Su": 3983,
    "264": 3984,
    "Management": 3985,
    "Growth": 3986,
    "sia": 3987,
    "981": 3988,
    "More": 3989,
    "Ang": 3990,
    "286": 3991,
    "rata": 3992,
    "Sal": 3993,
    "Acad": 3994,
    "var": 3995,
    "Sang": 3996,
    "pura": 3997,
    "hya": 3998,
    "बस": 3999,
    "independent": 4000,
    "Lat": 4001,
    "Latin": 4002,
    "Australian": 4003,
    "arms": 4004,
    "disease": 4005,
    "Set": 4006,
    "nutrition": 4007,
    "Net": 4008,
    "101": 4009,
    "vanced": 4010,
    "1989": 4011,
    "App": 4012,
    "ster": 4013,
    "254": 4014,
    "neg": 4015,
    "Wood": 4016,
    "inters": 4017,
    "Rag": 4018,
    "gg": 4019,
    "inv": 4020,
    "158": 4021,
    "169": 4022,
    "liz": 4023,
    "226": 4024,
    "245": 4025,
    "295": 4026,
    "336": 4027,
    "erved": 4028,
    "Ess": 4029,
    "Geographical": 4030,
    "3rd": 4031,
    "rema": 4032,
    "remains": 4033,
    "vedic": 4034,
    "1093": 4035,
    "Religions": 4036,
    "Archae": 4037,
    "parative": 4038,
    "Das": 4039,
    "Pylee": 4040,
    "ancial": 4041,
    "Tar": 4042,
    "Stre": 4043,
    "Street": 4044,
    "ota": 4045,
    "225": 4046,
    "239": 4047,
    "280": 4048,
    "arrel": 4049,
    "Dr": 4050,
    "ளவ": 4051,
    "அல": 4052,
    "Spear": 4053,
    "asa": 4054,
    "जक": 4055,
    "उनर": 4056,
    "इसक": 4057,
    "populous": 4058,
    "imperial": 4059,
    "mers": 4060,
    "despite": 4061,
    "titutes": 4062,
    "1966": 4063,
    "fra": 4064,
    "fram": 4065,
    "framew": 4066,
    "framework": 4067,
    "cil": 4068,
    "Faith": 4069,
    "positions": 4070,
    "adas": 4071,
    "rated": 4072,
    "LC": 4073,
    "Rights": 4074,
    "schol": 4075,
    "ores": 4076,
    "agre": 4077,
    "Multi": 4078,
    "Gan": 4079,
    "itself": 4080,
    "fell": 4081,
    "129": 4082,
    "princes": 4083,
    "flows": 4084,
    "185": 4085,
    "212": 4086,
    "hund": 4087,
    "250": 4088,
    "ither": 4089,
    "strategic": 4090,
    "Industry": 4091,
    "person": 4092,
    "Mig": 4093,
    "357": 4094,
    "probably": 4095,
    "372": 4096,
    "regards": 4097,
    "ritu": 4098,
    "rituals": 4099,
    "ults": 4100,
    "Refer": 4101,
    "Address": 4102,
    "Kaul": 4103,
    "Blackbuck": 4104,
    "kept": 4105,
    "Today": 4106,
    "humiliated": 4107,
    "Crisis": 4108,
    "Center": 4109,
    "Curry": 4110,
    "Financial": 4111,
    "Biote": 4112,
    "Biotechnology": 4113,
    "Visaria": 4114,
    "2307": 4115,
    "Palgra": 4116,
    "Palgrave": 4117,
    "Tarlo": 4118,
    "Davidson": 4119,
    "9677": 4120,
    "967733": 4121,
    "Changing": 4122,
    "1080": 4123,
    "Longman": 4124,
    "cale": 4125,
    "hu": 4126,
    "oman": 4127,
    "178": 4128,
    "Jo": 4129,
    "Gr": 4130,
    "live": 4131,
    "310": 4132,
    "316": 4133,
    "patri": 4134,
    "373": 4135,
    "Web": 4136,
    "Know": 4137,
    "iva": 4138,
    "oring": 4139,
    "Geor": 4140,
    "face": 4141,
    "Monit": 4142,
    "446": 4143,
    "ayak": 4144,
    "attack": 4145,
    "Car": 4146,
    "OM": 4147,
    "plin": 4148,
    "Federal": 4149,
    "Spend": 4150,
    "ளன": 4151,
    "பண": 4152,
    "how": 4153,
    "तय": 4154,
    "ळत": 4155,
    "इतर": 4156,
    "अपन": 4157,
    "added": 4158,
    "gration": 4159,
    "signed": 4160,
    "Punjabi": 4161,
    "lingual": 4162,
    "using": 4163,
    "mand": 4164,
    "chal": 4165,
    "Malayal": 4166,
    "बड़": 4167,
    "nationalist": 4168,
    "expen": 4169,
    "expendi": 4170,
    "expenditure": 4171,
    "varna": 4172,
    "consistently": 4173,
    "horse": 4174,
    "Willi": 4175,
    "William": 4176,
    "generation": 4177,
    "resources": 4178,
    "employment": 4179,
    "internal": 4180,
    "push": 4181,
    "climate": 4182,
    "visible": 4183,
    "defeat": 4184,
    "Son": 4185,
    "Sonia": 4186,
    "1946": 4187,
    "seats": 4188,
    "237": 4189,
    "238": 4190,
    "242": 4191,
    "270": 4192,
    "practice": 4193,
    "Arabic": 4194,
    "321": 4195,
    "pilg": 4196,
    "pilgri": 4197,
    "pilgrim": 4198,
    "statistics": 4199,
    "reaching": 4200,
    "fine": 4201,
    "finely": 4202,
    "scenes": 4203,
    "princely": 4204,
    "heavily": 4205,
    "411": 4206,
    "420": 4207,
    "idli": 4208,
    "424": 4209,
    "originated": 4210,
    "Cric": 4211,
    "Cricket": 4212,
    "Notes": 4213,
    "managed": 4214,
    "Jamison": 4215,
    "source": 4216,
    "Nationalism": 4217,
    "refers": 4218,
    "Emerging": 4219,
    "Sarah": 4220,
    "Rise": 4221,
    "Election": 4222,
    "Pac": 4223,
    "Pacific": 4224,
    "Economist": 4225,
    "Ec": 4226,
    "Ecology": 4227,
    "Second": 4228,
    "Pear": 4229,
    "Pearson": 4230,
    "Performance": 4231,
    "evol": 4232,
    "Crown": 4233,
    "rat": 4234,
    "parts": 4235,
    "chap": 4236,
    "science": 4237,
    "ilding": 4238,
    "ective": 4239,
    "139": 4240,
    "insp": 4241,
    "ountains": 4242,
    "kat": 4243,
    "gl": 4244,
    "ogeograph": 4245,
    "ming": 4246,
    "ness": 4247,
    "Pri": 4248,
    "ended": 4249,
    "246": 4250,
    "248": 4251,
    "Fr": 4252,
    "vestment": 4253,
    "308": 4254,
    "281": 4255,
    "Green": 4256,
    "volution": 4257,
    "antic": 4258,
    "Hy": 4259,
    "break": 4260,
    "impro": 4261,
    "Cha": 4262,
    "board": 4263,
    "atna": 4264,
    "ival": 4265,
    "priest": 4266,
    "352": 4267,
    "358": 4268,
    "rable": 4269,
    "Over": 4270,
    "sust": 4271,
    "das": 4272,
    "Tow": 4273,
    "uff": 4274,
    "oration": 4275,
    "len": 4276,
    "429": 4277,
    "ghtly": 4278,
    "obser": 4279,
    "culmin": 4280,
    "Mer": 4281,
    "ged": 4282,
    "gveda": 4283,
    "ills": 4284,
    "Adjec": 4285,
    "Consum": 4286,
    "ott": 4287,
    "Ow": 4288,
    "Sem": 4289,
    "hry": 4290,
    "pati": 4291,
    "ops": 4292,
    "Open": 4293,
    "Kap": 4294,
    "Fif": 4295,
    "disci": 4296,
    "Text": 4297,
    "hun": 4298,
    "rial": 4299,
    "beg": 4300,
    "big": 4301,
    "ency": 4302,
    "arc": 4303,
    "ways": 4304,
    "fil": 4305,
    "green": 4306,
    "San": 4307,
    "Sriniv": 4308,
    "ene": 4309,
    "ership": 4310,
    "এশ": 4311,
    "জনস": 4312,
    "থন": 4313,
    "সহ": 4314,
    "উন": 4315,
    "যবস": 4316,
    "ওয": 4317,
    "লক": 4318,
    "বছ": 4319,
    "বছর": 4320,
    "যক": 4321,
    "बढ": 4322,
    "04": 4323,
    "आय": 4324,
    "तल": 4325,
    "మన": 4326,
    "ఎక": 4327,
    "నడ": 4328,
    "Portal": 4329,
    "Ocean": 4330,
    "Nepal": 4331,
    "Bhut": 4332,
    "gradually": 4333,
    "organised": 4334,
    "belief": 4335,
    "interm": 4336,
    "overran": 4337,
    "expanding": 4338,
    "sovereign": 4339,
    "sovereignty": 4340,
    "ideas": 4341,
    "accompan": 4342,
    "accompani": 4343,
    "accompanied": 4344,
    "cost": 4345,
    "biodiversity": 4346,
    "Evid": 4347,
    "Evidence": 4348,
    "included": 4349,
    "Mahā": 4350,
    "Mahāb": 4351,
    "Mahābhā": 4352,
    "Mahābhārata": 4353,
    "Rā": 4354,
    "Rām": 4355,
    "Rāmā": 4356,
    "Rāmāya": 4357,
    "Rāmāyaṇa": 4358,
    "storytelling": 4359,
    "Epic": 4360,
    "forti": 4361,
    "fortified": 4362,
    "throughout": 4363,
    "seen": 4364,
    "model": 4365,
    "ruled": 4366,
    "graph": 4367,
    "They": 4368,
    "laws": 4369,
    "tiles": 4370,
    "experi": 4371,
    "tered": 4372,
    "coastal": 4373,
    "advanced": 4374,
    "subsequent": 4375,
    "consci": 4376,
    "farmers": 4377,
    "159": 4378,
    "Geography": 4379,
    "spreading": 4380,
    "zone": 4381,
    "Eastern": 4382,
    "latitu": 4383,
    "drain": 4384,
    "coastline": 4385,
    "rocky": 4386,
    "vial": 4387,
    "piv": 4388,
    "pivot": 4389,
    "pivotal": 4390,
    "projec": 4391,
    "mist": 4392,
    "habitat": 4393,
    "aps": 4394,
    "193": 4395,
    "Mod": 4396,
    "irrig": 4397,
    "irrigation": 4398,
    "trees": 4399,
    "descend": 4400,
    "204": 4401,
    "1935": 4402,
    "Tiger": 4403,
    "hundred": 4404,
    "osphere": 4405,
    "Park": 4406,
    "office": 4407,
    "Emergency": 4408,
    "alliance": 4409,
    "Prog": 4410,
    "Local": 4411,
    "legal": 4412,
    "presid": 4413,
    "president": 4414,
    "sible": 4415,
    "contra": 4416,
    "Egy": 4417,
    "Egypt": 4418,
    "247": 4419,
    "Proli": 4420,
    "Prolifer": 4421,
    "Proliferation": 4422,
    "earlier": 4423,
    "annual": 4424,
    "contributed": 4425,
    "sixteen": 4426,
    "sixteenth": 4427,
    "exporter": 4428,
    "proj": 4429,
    "projected": 4430,
    "capacity": 4431,
    "emis": 4432,
    "emissions": 4433,
    "orama": 4434,
    "301": 4435,
    "wanted": 4436,
    "315": 4437,
    "343": 4438,
    "tom": 4439,
    "characterised": 4440,
    "freedom": 4441,
    "percentage": 4442,
    "Ambed": 4443,
    "Ambedkar": 4444,
    "340": 4445,
    "poli": 4446,
    "polio": 4447,
    "Marriage": 4448,
    "marriage": 4449,
    "offer": 4450,
    "usually": 4451,
    "seal": 4452,
    "362": 4453,
    "saw": 4454,
    "fun": 4455,
    "functions": 4456,
    "pure": 4457,
    "Clo": 4458,
    "Clothing": 4459,
    "comb": 4460,
    "combined": 4461,
    "covering": 4462,
    "narrow": 4463,
    "condition": 4464,
    "cuisine": 4465,
    "steamed": 4466,
    "standing": 4467,
    "ransi": 4468,
    "oices": 4469,
    "Source": 4470,
    "populations": 4471,
    "constitute": 4472,
    "endogamous": 4473,
    "Aso": 4474,
    "Asoka": 4475,
    "Threatened": 4476,
    "Stand": 4477,
    "Standard": 4478,
    "Eric": 4479,
    "Intel": 4480,
    "Intellig": 4481,
    "Intelligence": 4482,
    "Map": 4483,
    "Line": 4484,
    "triumph": 4485,
    "hamiri": 4486,
    "Mes": 4487,
    "1007": 4488,
    "Vij": 4489,
    "ending": 4490,
    "mal": 4491,
    "gadiverse": 4492,
    "hots": 4493,
    "imple": 4494,
    "sacrific": 4495,
    "tiz": 4496,
    "tizens": 4497,
    "strong": 4498,
    "temper": 4499,
    "istent": 4500,
    "she": 4501,
    "Im": 4502,
    "substan": 4503,
    "Imp": 4504,
    "anda": 4505,
    "peak": 4506,
    "hind": 4507,
    "blo": 4508,
    "medic": 4509,
    "cheetah": 4510,
    "endments": 4511,
    "Ba": 4512,
    "short": 4513,
    "exclus": 4514,
    "decis": 4515,
    "mented": 4516,
    "diction": 4517,
    "restri": 4518,
    "sto": 4519,
    "nin": 4520,
    "atts": 4521,
    "que": 4522,
    "fo": 4523,
    "icon": 4524,
    "ises": 4525,
    "Nataraj": 4526,
    "tras": 4527,
    "zz": 4528,
    "emi": 4529,
    "onour": 4530,
    "should": 4531,
    "archy": 4532,
    "Sah": 4533,
    "Phil": 4534,
    "2755": 4535,
    "Tecton": 4536,
    "டக": 4537,
    "நட": 4538,
    "हत": 4539,
    "रवर": 4540,
    "Bay": 4541,
    "Indones": 4542,
    "Indonesia": 4543,
    "margins": 4544,
    "basin": 4545,
    "Civilisation": 4546,
    "gave": 4547,
    "Maurya": 4548,
    "1st": 4549,
    "armies": 4550,
    "Sikhism": 4551,
    "relative": 4552,
    "loss": 4553,
    "capita": 4554,
    "income": 4555,
    "information": 4556,
    "20th": 4557,
    "levels": 4558,
    "wildlife": 4559,
    "suppor": 4560,
    "supported": 4561,
    "protected": 4562,
    "immediately": 4563,
    "gained": 4564,
    "curren": 4565,
    "currency": 4566,
    "19th": 4567,
    "Ajanta": 4568,
    "Cav": 4569,
    "Caves": 4570,
    "catt": 4571,
    "cattle": 4572,
    "seals": 4573,
    "arts": 4574,
    "creating": 4575,
    "urbanisation": 4576,
    "Ashok": 4577,
    "Ashoka": 4578,
    "Follow": 4579,
    "Following": 4580,
    "edicts": 4581,
    "administration": 4582,
    "Plain": 4583,
    "assert": 4584,
    "farther": 4585,
    "Pallavas": 4586,
    "grown": 4587,
    "Chola": 4588,
    "10th": 4589,
    "emper": 4590,
    "emperor": 4591,
    "Akbar": 4592,
    "17th": 4593,
    "warri": 4594,
    "warriors": 4595,
    "tribal": 4596,
    "reven": 4597,
    "revenues": 4598,
    "markets": 4599,
    "Sikhs": 4600,
    "increasingly": 4601,
    "companies": 4602,
    "strength": 4603,
    "crucial": 4604,
    "goods": 4605,
    "instead": 4606,
    "Lord": 4607,
    "against": 4608,
    "food": 4609,
    "decade": 4610,
    "remaining": 4611,
    "Jhar": 4612,
    "Jhark": 4613,
    "Jharkhand": 4614,
    "contains": 4615,
    "kilometres": 4616,
    "Laksh": 4617,
    "Lakshad": 4618,
    "Lakshadwe": 4619,
    "Lakshadweep": 4620,
    "coral": 4621,
    "Climate": 4622,
    "cause": 4623,
    "contain": 4624,
    "endemic": 4625,
    "mam": 4626,
    "mamm": 4627,
    "mammals": 4628,
    "plant": 4629,
    "Eurasia": 4630,
    "exchange": 4631,
    "remained": 4632,
    "chose": 4633,
    "declared": 4634,
    "ministers": 4635,
    "Amri": 4636,
    "Amrits": 4637,
    "Amritsar": 4638,
    "Front": 4639,
    "NDA": 4640,
    "prop": 4641,
    "proposed": 4642,
    "Sab": 4643,
    "Sabha": 4644,
    "Untouchability": 4645,
    "integration": 4646,
    "Pu": 4647,
    "Pudu": 4648,
    "Puducher": 4649,
    "Puducherry": 4650,
    "Capital": 4651,
    "becoming": 4652,
    "1960s": 4653,
    "Treat": 4654,
    "Treaty": 4655,
    "energy": 4656,
    "garlic": 4657,
    "gas": 4658,
    "Bangal": 4659,
    "Bangalore": 4660,
    "colleg": 4661,
    "colleges": 4662,
    "communities": 4663,
    "residents": 4664,
    "brought": 4665,
    "sole": 4666,
    "numerals": 4667,
    "continue": 4668,
    "elsewhere": 4669,
    "bottom": 4670,
    "Sever": 4671,
    "Several": 4672,
    "schools": 4673,
    "Roork": 4674,
    "Roorkee": 4675,
    "Thomason": 4676,
    "College": 4677,
    "college": 4678,
    "tuberculosis": 4679,
    "marriages": 4680,
    "parents": 4681,
    "moreover": 4682,
    "Shiva": 4683,
    "sites": 4684,
    "symbol": 4685,
    "derived": 4686,
    "folk": 4687,
    "contributions": 4688,
    "zer": 4689,
    "zero": 4690,
    "negative": 4691,
    "sine": 4692,
    "theory": 4693,
    "player": 4694,
    "Shank": 4695,
    "Shankar": 4696,
    "eight": 4697,
    "Chha": 4698,
    "Chhau": 4699,
    "Yakshag": 4700,
    "Yakshagana": 4701,
    "garment": 4702,
    "chu": 4703,
    "churid": 4704,
    "churidars": 4705,
    "tandoor": 4706,
    "vegetarian": 4707,
    "cric": 4708,
    "cricket": 4709,
    "methods": 4710,
    "easily": 4711,
    "attempted": 4712,
    "interim": 4713,
    "stratification": 4714,
    "PMC": 4715,
    "Judd": 4716,
    "Muns": 4717,
    "Munshi": 4718,
    "Ayy": 4719,
    "Ayyang": 4720,
    "Ayyangar": 4721,
    "Committee": 4722,
    "brothers": 4723,
    "Arabs": 4724,
    "method": 4725,
    "astronom": 4726,
    "astronomers": 4727,
    "tables": 4728,
    "predomin": 4729,
    "isol": 4730,
    "diff": 4731,
    "loose": 4732,
    "vity": 4733,
    "ported": 4734,
    "Zor": 4735,
    "Zoro": 4736,
    "Zoroastri": 4737,
    "Zoroastrian": 4738,
    "hub": 4739,
    "emen": 4740,
    "ounced": 4741,
    "sha": 4742,
    "lied": 4743,
    "ring": 4744,
    "fashi": 4745,
    "Dom": 4746,
    "ped": 4747,
    "tow": 4748,
    "setting": 4749,
    "pared": 4750,
    "broad": 4751,
    "codi": 4752,
    "Maha": 4753,
    "ressed": 4754,
    "xed": 4755,
    "commission": 4756,
    "elf": 4757,
    "devotion": 4758,
    "vara": 4759,
    "itated": 4760,
    "merch": 4761,
    "rep": 4762,
    "atic": 4763,
    "regul": 4764,
    "itions": 4765,
    "attra": 4766,
    "Presid": 4767,
    "rail": 4768,
    "bellion": 4769,
    "safe": 4770,
    "guard": 4771,
    "liberal": 4772,
    "Na": 4773,
    "bul": 4774,
    "super": 4775,
    "sti": 4776,
    "rap": 4777,
    "rapid": 4778,
    "Nag": 4779,
    "mass": 4780,
    "extreme": 4781,
    "cli": 4782,
    "surround": 4783,
    "mang": 4784,
    "atures": 4785,
    "display": 4786,
    "endem": 4787,
    "ought": 4788,
    "vulner": 4789,
    "lian": 4790,
    "resp": 4791,
    "respon": 4792,
    "table": 4793,
    "amble": 4794,
    "distin": 4795,
    "subord": 4796,
    "subordin": 4797,
    "jur": 4798,
    "purch": 4799,
    "pet": 4800,
    "Kann": 4801,
    "riya": 4802,
    "expres": 4803,
    "founded": 4804,
    "breath": 4805,
    "idel": 4806,
    "castes": 4807,
    "marry": 4808,
    "cho": 4809,
    "bron": 4810,
    "angra": 4811,
    "theor": 4812,
    "theorem": 4813,
    "Madha": 4814,
    "calcul": 4815,
    "etermined": 4816,
    "shal": 4817,
    "youn": 4818,
    "Oly": 4819,
    "Olymp": 4820,
    "Mat": 4821,
    "conn": 4822,
    "geomet": 4823,
    "bran": 4824,
    "branch": 4825,
    "inac": 4826,
    "fif": 4827,
    "Blo": 4828,
    "omsb": 4829,
    "omsbury": 4830,
    "Gro": 4831,
    "Saj": 4832,
    "உற": 4833,
    "டம": 4834,
    "டங": 4835,
    "கழ": 4836,
    "அண": 4837,
    "அன": 4838,
    "மத": 4839,
    "समय": 4840,
    "यव": 4841,
    "https": 4842,
    "दगड़": 4843,
    "263": 4844,
    "खण": 4845,
    "नत": 4846,
    "Court": 4847,
    "லம": 4848,
    "business": 4849,
    "lists": 4850,
    "পশ": 4851,
    "যপ": 4852,
    "রথম": 4853,
    "যন": 4854,
    "বক": 4855,
    "मद": 4856,
    "யவ": 4857,
    "रपत": 4858,
    "उक": 4859,
    "றன": 4860,
    "சர": 4861,
    "खल": 4862,
    "inem": 4863,
    "पठ": 4864,
    "तरफ": 4865,
    "खर": 4866,
    "mes": 4867,
    "omb": 4868,
    "904": 4869,
    "దట": 4870,
    "మర": 4871,
    "శప": 4872,
    "లయ": 4873,
    "वक": 4874,
    "नन": 4875,
    "னவ": 4876,
    "हज": 4877,
    "1975": 4878,
    "रप": 4879,
    "Ἰν": 4880,
    "Ἰνδ": 4881,
    "Cather": 4882,
    "Catherine": 4883,
    "০০": 4884,
    "অবস": 4885,
    "নত": 4886,
    "রশ": 4887,
    "ষমত": 4888,
    "নদ": 4889,
    "अच": 4890,
    "யக": 4891,
    "இவ": 4892,
    "कई": 4893,
    "आई": 4894,
    "Present": 4895,
    "फल": 4896,
    "कब": 4897,
    "வக": 4898,
    "ழக": 4899,
    "303": 4900,
    "inema": 4901,
    "1901": 4902,
    "site": 4903,
    "नल": 4904,
    "इम": 4905,
    "1000": 4906,
    "Wayback": 4907,
    "Machine": 4908,
    "Fact": 4909,
    "Factbook": 4910,
    "लण": 4911,
    "हळ": 4912,
    "पदव": 4913,
    "Harper": 4914,
    "Collins": 4915,
    "PP": 4916,
    "சத": 4917,
    "दगड": 4918,
    "1961": 4919,
    "iii": 4920,
    "थन": 4921,
    "Final": 4922,
    "Dat": 4923,
    "Literature": 4924,
    "Twent": 4925,
    "Twenty": 4926,
    "வங": 4927,
    "अम": 4928,
    "अफ": 4929,
    "हरण": 4930,
    "grand": 4931,
    "Sta": 4932,
    "Rel": 4933,
    "कट": 4934,
    "পদ": 4935,
    "রদ": 4936,
    "পরম": 4937,
    "১১": 4938,
    "নয": 4939,
    "पल": 4940,
    "142": 4941,
    "णय": 4942,
    "மன": 4943,
    "161": 4944,
    "जय": 4945,
    "सच": 4946,
    "खत": 4947,
    "186": 4948,
    "374": 4949,
    "षभ": 4950,
    "517": 4951,
    "421": 4952,
    "Charles": 4953,
    "ning": 4954,
    "600": 4955,
    "ఉప": 4956,
    "తక": 4957,
    "బహ": 4958,
    "ఆధ": 4959,
    "నవ": 4960,
    "ఏర": 4961,
    "పడ": 4962,
    "నమ": 4963,
    "పక": 4964,
    "జక": 4965,
    "యధ": 4966,
    "209": 4967,
    "hindu": 4968,
    "505": 4969,
    "archived": 4970,
    "लत": 4971,
    "329": 4972,
    "Popular": 4973,
    "Cali": 4974,
    "Califor": 4975,
    "Californ": 4976,
    "California": 4977,
    "२०": 4978,
    "Onew": 4979,
    "Oneworld": 4980,
    "RL": 4981,
    "026": 4982,
    "considered": 4983,
    "dial": 4984,
    "TI": 4985,
    "487": 4986,
    "66": 4987,
    "does": 4988,
    "422": 4989,
    "anthem": 4990,
    "Symbol": 4991,
    "Symbols": 4992,
    "Chap": 4993,
    "Tex": 4994,
    "1858": 4995,
    "Ken": 4996,
    "Her": 4997,
    "HarperCollins": 4998,
    "आस": 4999,
    "Cultural": 5000,
    "रमण": 5001,
    "वड": 5002,
    "edition": 5003,
    "Witz": 5004,
    "Witzel": 5005,
    "105": 5006,
    "Budget": 5007,
    "पस": 5008,
    "CD": 5009,
    "भवन": 5010,
    "ired": 5011,
    "agore": 5012,
    "Differ": 5013,
    "Ahmed": 5014,
    "Ahmedabad": 5015,
    "worldwide": 5016,
    "Land": 5017,
    "ஆற": 5018,
    "பங": 5019,
    "unic": 5020,
    "Bra": 5021,
    "252": 5022,
    "439": 5023,
    "ईस": 5024,
    "104": 5025,
    "345": 5026,
    "hl": 5027,
    "Encyclopa": 5028,
    "Encyclopaedia": 5029,
    "claimed": 5030,
    "Pos": 5031,
    "180": 5032,
    "धत": 5033,
    "১৭": 5034,
    "আয": 5035,
    "এছ": 5036,
    "করত": 5037,
    "রভ": 5038,
    "১৯৫": 5039,
    "সময": 5040,
    "খয": 5041,
    "অভ": 5042,
    "রপ": 5043,
    "জয": 5044,
    "লয": 5045,
    "দশক": 5046,
    "অস": 5047,
    "রহ": 5048,
    "কট": 5049,
    "लच": 5050,
    "अरब": 5051,
    "65": 5052,
    "Narayan": 5053,
    "impact": 5054,
    "545": 5055,
    "mater": 5056,
    "material": 5057,
    "untouch": 5058,
    "emorial": 5059,
    "primar": 5060,
    "primarily": 5061,
    "discus": 5062,
    "Cast": 5063,
    "ATI": 5064,
    "पड़": 5065,
    "520": 5066,
    "யற": 5067,
    "யன": 5068,
    "ching": 5069,
    "aː": 5070,
    "Mit": 5071,
    "ition": 5072,
    "ille": 5073,
    "165": 5074,
    "Raman": 5075,
    "Ramanu": 5076,
    "Ramanujan": 5077,
    "xvi": 5078,
    "Pras": 5079,
    "Prasad": 5080,
    "Pose": 5081,
    "Posey": 5082,
    "Heitz": 5083,
    "Heitzman": 5084,
    "Subcontinent": 5085,
    "Yearbook": 5086,
    "Wind": 5087,
    "भरत": 5088,
    "गव": 5089,
    "Chi": 5090,
    "tification": 5091,
    "rest": 5092,
    "Hary": 5093,
    "Haryana": 5094,
    "426": 5095,
    "बज": 5096,
    "486": 5097,
    "476": 5098,
    "irect": 5099,
    "Region": 5100,
    "905": 5101,
    "Agra": 5102,
    "130": 5103,
    "materials": 5104,
    "Rus": 5105,
    "1985": 5106,
    "404": 5107,
    "Gho": 5108,
    "Ghosh": 5109,
    "५०": 5110,
    "Eight": 5111,
    "transl": 5112,
    "ator": 5113,
    "Discovery": 5114,
    "Associ": 5115,
    "Dig": 5116,
    "Perspective": 5117,
    "Kiple": 5118,
    "Orn": 5119,
    "Ornel": 5120,
    "Ornelas": 5121,
    "१९९": 5122,
    "Madhya": 5123,
    "Manipur": 5124,
    "Megh": 5125,
    "Marathi": 5126,
    "Manipuri": 5127,
    "Kon": 5128,
    "Konk": 5129,
    "ऑफ": 5130,
    "61": 5131,
    "Harapp": 5132,
    "make": 5133,
    "122": 5134,
    "124": 5135,
    "1930": 5136,
    "187": 5137,
    "1964": 5138,
    "ized": 5139,
    "burden": 5140,
    "Most": 5141,
    "Direct": 5142,
    "orate": 5143,
    "agn": 5144,
    "Jha": 5145,
    "Media": 5146,
    "Future": 5147,
    "WTO": 5148,
    "coexistence": 5149,
    "flict": 5150,
    "Mis": 5151,
    "Agrawal": 5152,
    "Simon": 5153,
    "Time": 5154,
    "Tw": 5155,
    "Brid": 5156,
    "Bridget": 5157,
    "Leg": 5158,
    "win": 5159,
    "Russia": 5160,
    "veh": 5161,
    "vehic": 5162,
    "vehicle": 5163,
    "thousand": 5164,
    "yer": 5165,
    "Kui": 5166,
    "Kuiper": 5167,
    "Xavi": 5168,
    "Xavier": 5169,
    "2305": 5170,
    "RLT": 5171,
    "RLTS": 5172,
    "Service": 5173,
    "almost": 5174,
    "Analysis": 5175,
    "mod": 5176,
    "hear": 5177,
    "ரப": 5178,
    "வல": 5179,
    "வளர": 5180,
    "Berlin": 5181,
    "अक": 5182,
    "वव": 5183,
    "specific": 5184,
    "conqu": 5185,
    "conquest": 5186,
    "sie": 5187,
    "145": 5188,
    "148": 5189,
    "Nor": 5190,
    "constitutes": 5191,
    "una": 5192,
    "Coast": 5193,
    "Monsoon": 5194,
    "tiger": 5195,
    "Narendra": 5196,
    "Article": 5197,
    "ession": 5198,
    "initiatives": 5199,
    "350": 5200,
    "mel": 5201,
    "Post": 5202,
    "rity": 5203,
    "northwestern": 5204,
    "Van": 5205,
    "Nir": 5206,
    "Plan": 5207,
    "Gov": 5208,
    "Ragh": 5209,
    "953": 5210,
    "bring": 5211,
    "Age": 5212,
    "entieth": 5213,
    "एव": 5214,
    "पहल": 5215,
    "१८": 5216,
    "शब": 5217,
    "tribes": 5218,
    "journ": 5219,
    "treat": 5220,
    "treatment": 5221,
    "loc": 5222,
    "189": 5223,
    "ju": 5224,
    "remit": 5225,
    "remitt": 5226,
    "remittances": 5227,
    "304": 5228,
    "either": 5229,
    "Reference": 5230,
    "Ganaraj": 5231,
    "Ganarajya": 5232,
    "516": 5233,
    "Arn": 5234,
    "Arnold": 5235,
    "Border": 5236,
    "seems": 5237,
    "preserved": 5238,
    "making": 5239,
    "Tradition": 5240,
    "509": 5241,
    "Goy": 5242,
    "Goyal": 5243,
    "Sinha": 5244,
    "Opp": 5245,
    "Opport": 5246,
    "Organisation": 5247,
    "Just": 5248,
    "Finance": 5249,
    "Dist": 5250,
    "Distri": 5251,
    "Sci": 5252,
    "684": 5253,
    "Archaeology": 5254,
    "1700": 5255,
    "Concept": 5256,
    "8069": 5257,
    "Compe": 5258,
    "Brief": 5259,
    "Essays": 5260,
    "Cor": 5261,
    "272": 5262,
    "331": 5263,
    "365": 5264,
    "402": 5265,
    "ads": 5266,
    "490": 5267,
    "My": 5268,
    "Myth": 5269,
    "Prakash": 5270,
    "Siva": 5271,
    "asan": 5272,
    "els": 5273,
    "ague": 5274,
    "Inf": 5275,
    "యత": 5276,
    "ఇవ": 5277,
    "ఒకట": 5278,
    "యన": 5279,
    "లవ": 5280,
    "గణ": 5281,
    "రణ": 5282,
    "షల": 5283,
    "థల": 5284,
    "రపత": 5285,
    "வந": 5286,
    "இரண": 5287,
    "பகம": 5288,
    "नगर": 5289,
    "वश": 5290,
    "১৯৮": 5291,
    "২১": 5292,
    "সভ": 5293,
    "ইত": 5294,
    "জনপ": 5295,
    "টবল": 5296,
    "অজ": 5297,
    "যম": 5298,
    "उस": 5299,
    "तप": 5300,
    "सस": 5301,
    "cha": 5302,
    "next": 5303,
    "lement": 5304,
    "Northeast": 5305,
    "Hima": 5306,
    "Himachal": 5307,
    "Golden": 5308,
    "Administ": 5309,
    "Territ": 5310,
    "effect": 5311,
    "Assamese": 5312,
    "Malayalam": 5313,
    "Konkani": 5314,
    "Var": 5315,
    "ggle": 5316,
    "hia": 5317,
    "AL": 5318,
    "ives": 5319,
    "mention": 5320,
    "issu": 5321,
    "Minister": 5322,
    "fir": 5323,
    "deep": 5324,
    "prise": 5325,
    "tail": 5326,
    "Techn": 5327,
    "171": 5328,
    "188": 5329,
    "Liber": 5330,
    "go": 5331,
    "asser": 5332,
    "herd": 5333,
    "Iran": 5334,
    "Child": 5335,
    "ika": 5336,
    "bri": 5337,
    "cepts": 5338,
    "pi": 5339,
    "appar": 5340,
    "cate": 5341,
    "346": 5342,
    "rations": 5343,
    "thar": 5344,
    "avy": 5345,
    "thecus": 5346,
    "Er": 5347,
    "Ish": 5348,
    "Phy": 5349,
    "scale": 5350,
    "weapon": 5351,
    "rising": 5352,
    "settled": 5353,
    "referred": 5354,
    "ayana": 5355,
    "Meh": 5356,
    "involved": 5357,
    "forces": 5358,
    "places": 5359,
    "core": 5360,
    "134": 5361,
    "ceptions": 5362,
    "164": 5363,
    "167": 5364,
    "origin": 5365,
    "hibian": 5366,
    "dense": 5367,
    "natural": 5368,
    "grass": 5369,
    "grasslands": 5370,
    "Bharati": 5371,
    "Bharatiya": 5372,
    "abinet": 5373,
    "dici": 5374,
    "diciary": 5375,
    "Odish": 5376,
    "Odisha": 5377,
    "244": 5378,
    "Ban": 5379,
    "received": 5380,
    "Group": 5381,
    "256": 5382,
    "France": 5383,
    "257": 5384,
    "forced": 5385,
    "lab": 5386,
    "importer": 5387,
    "277": 5388,
    "380": 5389,
    "units": 5390,
    "292": 5391,
    "ratio": 5392,
    "314": 5393,
    "327": 5394,
    "higher": 5395,
    "divid": 5396,
    "divided": 5397,
    "356": 5398,
    "364": 5399,
    "370": 5400,
    "371": 5401,
    "few": 5402,
    "383": 5403,
    "reflect": 5404,
    "Ary": 5405,
    "394": 5406,
    "396": 5407,
    "397": 5408,
    "405": 5409,
    "410": 5410,
    "413": 5411,
    "abaddi": 5412,
    "bordering": 5413,
    "observe": 5414,
    "veness": 5415,
    "bution": 5416,
    "418": 5417,
    "434": 5418,
    "tist": 5419,
    "756": 5420,
    "Merri": 5421,
    "Merriam": 5422,
    "Webster": 5423,
    "Directory": 5424,
    "institutions": 5425,
    "electorate": 5426,
    "nationwide": 5427,
    "argu": 5428,
    "argued": 5429,
    "onization": 5430,
    "opin": 5431,
    "Greater": 5432,
    "Ira": 5433,
    "textual": 5434,
    "actual": 5435,
    "xviii": 5436,
    "Vers": 5437,
    "dominant": 5438,
    "princi": 5439,
    "theism": 5440,
    "sams": 5441,
    "samskar": 5442,
    "samskaras": 5443,
    "inspi": 5444,
    "inspiration": 5445,
    "Ramus": 5446,
    "Ramusack": 5447,
    "Sharon": 5448,
    "Indiana": 5449,
    "George": 5450,
    "ery": 5451,
    "Manch": 5452,
    "Manchester": 5453,
    "5261": 5454,
    "Steph": 5455,
    "Parties": 5456,
    "Clé": 5457,
    "Clément": 5458,
    "Clémentin": 5459,
    "Oj": 5460,
    "Ojha": 5461,
    "Barrow": 5462,
    "Jose": 5463,
    "Joseph": 5464,
    "Patter": 5465,
    "Patterson": 5466,
    "922": 5467,
    "Hind": 5468,
    "ternative": 5469,
    "631": 5470,
    "Aitch": 5471,
    "Aitchison": 5472,
    "arid": 5473,
    "dominated": 5474,
    "fold": 5475,
    "fertile": 5476,
    "Duff": 5477,
    "Mcgra": 5478,
    "Mcgrail": 5479,
    "Word": 5480,
    "Worden": 5481,
    "grees": 5482,
    "Hyd": 5483,
    "567": 5484,
    "Monitoring": 5485,
    "Animal": 5486,
    "Basak": 5487,
    "Ven": 5488,
    "Venkat": 5489,
    "Venkatar": 5490,
    "Venkataraman": 5491,
    "Krishnam": 5492,
    "Krishnamo": 5493,
    "Krishnamoorth": 5494,
    "Krishnamoorthy": 5495,
    "Sivaper": 5496,
    "Sivaperuman": 5497,
    "Chandrak": 5498,
    "Chandrakasan": 5499,
    "Hots": 5500,
    "Hotspots": 5501,
    "Verte": 5502,
    "shad": 5503,
    "pip": 5504,
    "pipal": 5505,
    "fost": 5506,
    "fostered": 5507,
    "Ameri": 5508,
    "Marta": 5509,
    "Ima": 5510,
    "Cost": 5511,
    "Scott": 5512,
    "adoration": 5513,
    "Crame": 5514,
    "Owen": 5515,
    "joh": 5516,
    "john": 5517,
    "johnii": 5518,
    "T446": 5519,
    "T44694": 5520,
    "T44694A": 5521,
    "T44694A109": 5522,
    "T44694A109279": 5523,
    "T44694A10927987": 5524,
    "Duttap": 5525,
    "Duttaphry": 5526,
    "Duttaphryn": 5527,
    "Duttaphrynus": 5528,
    "beddom": 5529,
    "beddomii": 5530,
    "T545": 5531,
    "T54584": 5532,
    "T54584A": 5533,
    "Che": 5534,
    "Cheetah": 5535,
    "Burn": 5536,
    "Burnell": 5537,
    "Calver": 5538,
    "Calvert": 5539,
    "Bhamb": 5540,
    "Bhambh": 5541,
    "Bhambhri": 5542,
    "Pass": 5543,
    "Mathe": 5544,
    "Mathew": 5545,
    "Neub": 5546,
    "Neuborne": 5547,
    "Sripati": 5548,
    "2003b": 5549,
    "Sino": 5550,
    "cycle": 5551,
    "troops": 5552,
    "America": 5553,
    "Gangu": 5554,
    "Ganguly": 5555,
    "humiliating": 5556,
    "lai": 5557,
    "Beij": 5558,
    "Beijing": 5559,
    "Perk": 5560,
    "Perko": 5561,
    "Perkovi": 5562,
    "Perkovich": 5563,
    "Nair": 5564,
    "ISS": 5565,
    "ISSN": 5566,
    "Nayak": 5567,
    "Goldar": 5568,
    "Gargan": 5569,
    "Alam": 5570,
    "Alamgir": 5571,
    "Rem": 5572,
    "Bon": 5573,
    "Bonner": 5574,
    "Farrel": 5575,
    "Farrell": 5576,
    "Bein": 5577,
    "Beinhoc": 5578,
    "Beinhocker": 5579,
    "NP": 5580,
    "Em": 5581,
    "Employ": 5582,
    "Employment": 5583,
    "modeled": 5584,
    "ILO": 5585,
    "Kapoor": 5586,
    "Pharmaceutical": 5587,
    "Equ": 5588,
    "Found": 5589,
    "Investment": 5590,
    "Yep": 5591,
    "Generation": 5592,
    "Emis": 5593,
    "Emissions": 5594,
    "Allen": 5595,
    "Ror": 5596,
    "Rorab": 5597,
    "Rorabacher": 5598,
    "abortions": 5599,
    "born": 5600,
    "Gir": 5601,
    "Garg": 5602,
    "Ratna": 5603,
    "Chandram": 5604,
    "Chandramou": 5605,
    "Chandramouli": 5606,
    "Parliament": 5607,
    "says": 5608,
    "Inequ": 5609,
    "Inequality": 5610,
    "709": 5611,
    "pc": 5612,
    "ashboard": 5613,
    "Atlantic": 5614,
    "brates": 5615,
    "Malik": 5616,
    "449": 5617,
    "Makar": 5618,
    "Medor": 5619,
    "Medora": 5620,
    "Jones": 5621,
    "Ramdas": 5622,
    "Bis": 5623,
    "Biswas": 5624,
    "Souti": 5625,
    "Soutik": 5626,
    "Cullen": 5627,
    "Dup": 5628,
    "Dupont": 5629,
    "becomes": 5630,
    "Evolution": 5631,
    "Stev": 5632,
    "Stevens": 5633,
    "Stevenson": 5634,
    "Angus": 5635,
    "Wa": 5636,
    "Waite": 5637,
    "Mauri": 5638,
    "Maurice": 5639,
    "ROM": 5640,
    "960110": 5641,
    "Dress": 5642,
    "Proble": 5643,
    "Idli": 5644,
    "oyce": 5645,
    "2760": 5646,
    "Ian": 5647,
    "Bin": 5648,
    "Binmore": 5649,
    "Overview": 5650,
    "disciplin": 5651,
    "disciplinary": 5652,
    "uth": 5653,
    "582": 5654,
    "936": 5655,
    "85168": 5656,
    "Colonial": 5657,
    "Rule": 5658,
    "Upin": 5659,
    "Upinder": 5660,
    "Fifty": 5661,
    "Years": 5662,
    "SR": 5663,
    "2126": 5664,
    "212640": 5665,
    "Hol": 5666,
    "Hague": 5667,
    "Jun": 5668,
    "Junk": 5669,
    "010": 5670,
    "ogeography": 5671,
    "ozoic": 5672,
    "Geological": 5673,
    "Third": 5674,
    "Sup": 5675,
    "Supreme": 5676,
    "2203": 5677,
    "Shift": 5678,
    "Deal": 5679,
    "EU": 5680,
    "Reform": 5681,
    "Spending": 5682,
    "uity": 5683,
    "Member": 5684,
    "Rural": 5685,
    "Represent": 5686,
    "Representing": 5687,
    "Histori": 5688,
    "Historiography": 5689,
    "Planning": 5690,
    "Thames": 5691,
    "Hud": 5692,
    "Hudson": 5693,
    "Mate": 5694,
    "Selection": 5695,
    "Marriages": 5696,
    "books": 5697,
    "தங": 5698,
    "எண": 5699,
    "வண": 5700,
    "ओळ": 5701,
    "शय": 5702,
    "नई": 5703,
    "गढ": 5704,
    "लब": 5705,
    "यश": 5706,
    "सकद": 5707,
    "Bhutan": 5708,
    "Lanka": 5709,
    "Maldi": 5710,
    "Maldives": 5711,
    "awn": 5712,
    "existing": 5713,
    "nit": 5714,
    "Empi": 5715,
    "Empires": 5716,
    "intermitt": 5717,
    "intermittently": 5718,
    "Gra": 5719,
    "ethn": 5720,
    "ethnic": 5721,
    "annually": 5722,
    "alleng": 5723,
    "allenges": 5724,
    "ler": 5725,
    "Names": 5726,
    "reference": 5727,
    "Sindhu": 5728,
    "extension": 5729,
    "Asians": 5730,
    "Bhā": 5731,
    "Bhārat": 5732,
    "avar": 5733,
    "Based": 5734,
    "alesc": 5735,
    "alescence": 5736,
    "Chrom": 5737,
    "Chromos": 5738,
    "Chromosome": 5739,
    "lihood": 5740,
    "initially": 5741,
    "fos": 5742,
    "fossil": 5743,
    "fossils": 5744,
    "Dh": 5745,
    "craf": 5746,
    "Networks": 5747,
    "pastoral": 5748,
    "associated": 5749,
    "refin": 5750,
    "contem": 5751,
    "contemporary": 5752,
    "Chron": 5753,
    "268": 5754,
    "except": 5755,
    "stre": 5756,
    "embo": 5757,
    "tas": 5758,
    "valley": 5759,
    "Simultan": 5760,
    "Simultane": 5761,
    "Simultaneously": 5762,
    "create": 5763,
    "consequ": 5764,
    "royal": 5765,
    "citizens": 5766,
    "elt": 5767,
    "Cam": 5768,
    "scene": 5769,
    "syn": 5770,
    "Emb": 5771,
    "superi": 5772,
    "superior": 5773,
    "identity": 5774,
    "real": 5775,
    "loyal": 5776,
    "divine": 5777,
    "maintained": 5778,
    "ronage": 5779,
    "textiles": 5780,
    "coll": 5781,
    "pand": 5782,
    "mentation": 5783,
    "facil": 5784,
    "presence": 5785,
    "effective": 5786,
    "visit": 5787,
    "dem": 5788,
    "harsh": 5789,
    "founding": 5790,
    "increase": 5791,
    "famines": 5792,
    "rastru": 5793,
    "rastructure": 5794,
    "indust": 5795,
    "industrial": 5796,
    "pping": 5797,
    "production": 5798,
    "critical": 5799,
    "famine": 5800,
    "ascent": 5801,
    "cris": 5802,
    "processes": 5803,
    "eastward": 5804,
    "horiz": 5805,
    "thick": 5806,
    "Arav": 5807,
    "Aravall": 5808,
    "Aravallis": 5809,
    "latitude": 5810,
    "Yam": 5811,
    "Yamuna": 5812,
    "measures": 5813,
    "177": 5814,
    "hyd": 5815,
    "Coastal": 5816,
    "Rann": 5817,
    "Kut": 5818,
    "Kutch": 5819,
    "allu": 5820,
    "alluvial": 5821,
    "mountains": 5822,
    "Ts": 5823,
    "moisture": 5824,
    "lad": 5825,
    "laden": 5826,
    "Four": 5827,
    "wet": 5828,
    "dry": 5829,
    "humid": 5830,
    "current": 5831,
    "projections": 5832,
    "Moder": 5833,
    "zones": 5834,
    "neem": 5835,
    "peep": 5836,
    "entered": 5837,
    "leaf": 5838,
    "design": 5839,
    "rum": 5840,
    "open": 5841,
    "graz": 5842,
    "grazed": 5843,
    "Prot": 5844,
    "Protection": 5845,
    "Biosphere": 5846,
    "Ramsar": 5847,
    "tig": 5848,
    "Peace": 5849,
    "Declar": 5850,
    "Declaration": 5851,
    "Liberation": 5852,
    "Mor": 5853,
    "occupying": 5854,
    "victory": 5855,
    "223": 5856,
    "polling": 5857,
    "Naras": 5858,
    "Narasim": 5859,
    "Narasimha": 5860,
    "followed": 5861,
    "relied": 5862,
    "Gow": 5863,
    "complete": 5864,
    "absol": 5865,
    "absolute": 5866,
    "Sec": 5867,
    "abs": 5868,
    "structure": 5869,
    "legislature": 5870,
    "ende": 5871,
    "illegal": 5872,
    "233": 5873,
    "holding": 5874,
    "compr": 5875,
    "Jus": 5876,
    "Justice": 5877,
    "ators": 5878,
    "Arun": 5879,
    "Arunach": 5880,
    "Arunachal": 5881,
    "Telang": 5882,
    "Telangana": 5883,
    "Lad": 5884,
    "Ladakh": 5885,
    "decisive": 5886,
    "249": 5887,
    "Sovi": 5888,
    "Soviet": 5889,
    "ried": 5890,
    "rence": 5891,
    "doct": 5892,
    "Cold": 5893,
    "civi": 5894,
    "poss": 5895,
    "Atomic": 5896,
    "King": 5897,
    "Canada": 5898,
    "Meas": 5899,
    "stra": 5900,
    "aining": 5901,
    "Wid": 5902,
    "towards": 5903,
    "274": 5904,
    "276": 5905,
    "Aver": 5906,
    "431": 5907,
    "pected": 5908,
    "283": 5909,
    "prof": 5910,
    "293": 5911,
    "carb": 5912,
    "carbon": 5913,
    "sof": 5914,
    "307": 5915,
    "girls": 5916,
    "unwanted": 5917,
    "care": 5918,
    "309": 5919,
    "Migration": 5920,
    "dynamic": 5921,
    "overall": 5922,
    "decline": 5923,
    "plus": 5924,
    "glom": 5925,
    "glomer": 5926,
    "glomerations": 5927,
    "itage": 5928,
    "325": 5929,
    "328": 5930,
    "Pol": 5931,
    "Syn": 5932,
    "330": 5933,
    "ints": 5934,
    "Lati": 5935,
    "Latika": 5936,
    "Chaud": 5937,
    "Chaudh": 5938,
    "Chaudhary": 5939,
    "Primary": 5940,
    "sities": 5941,
    "Children": 5942,
    "339": 5943,
    "struction": 5944,
    "limit": 5945,
    "needed": 5946,
    "Brahmin": 5947,
    "priests": 5948,
    "udra": 5949,
    "untouchables": 5950,
    "brok": 5951,
    "broken": 5952,
    "entren": 5953,
    "entrenched": 5954,
    "347": 5955,
    "anti": 5956,
    "ranged": 5957,
    "Dand": 5958,
    "amaj": 5959,
    "deity": 5960,
    "irtu": 5961,
    "irtually": 5962,
    "Almost": 5963,
    "363": 5964,
    "prev": 5965,
    "prevail": 5966,
    "regarded": 5967,
    "Across": 5968,
    "formula": 5969,
    "dynas": 5970,
    "dynasties": 5971,
    "sustained": 5972,
    "377": 5973,
    "significantly": 5974,
    "recording": 5975,
    "smaller": 5976,
    "innov": 5977,
    "cheap": 5978,
    "done": 5979,
    "387": 5980,
    "389": 5981,
    "ument": 5982,
    "398": 5983,
    "musical": 5984,
    "origins": 5985,
    "sit": 5986,
    "compositions": 5987,
    "Mani": 5988,
    "teacher": 5989,
    "Ravi": 5990,
    "meet": 5991,
    "Identi": 5992,
    "attain": 5993,
    "Than": 5994,
    "Pan": 5995,
    "indivi": 5996,
    "individu": 5997,
    "Bol": 5998,
    "Bolly": 5999,
    "Bollywood": 6000,
    "Towards": 6001,
    "sk": 6002,
    "ouse": 6003,
    "jam": 6004,
    "sports": 6005,
    "wan": 6006,
    "Tur": 6007,
    "Turk": 6008,
    "foundation": 6009,
    "chapati": 6010,
    "breakfast": 6011,
    "grid": 6012,
    "pancake": 6013,
    "vegetables": 6014,
    "amon": 6015,
    "cuisines": 6016,
    "iques": 6017,
    "almon": 6018,
    "almonds": 6019,
    "tightly": 6020,
    "biryan": 6021,
    "biryani": 6022,
    "popularity": 6023,
    "prene": 6024,
    "tial": 6025,
    "Champion": 6026,
    "Trop": 6027,
    "Summer": 6028,
    "golds": 6029,
    "occasion": 6030,
    "aram": 6031,
    "historic": 6032,
    "Ga": 6033,
    "experien": 6034,
    "dict": 6035,
    "achievements": 6036,
    "osop": 6037,
    "boost": 6038,
    "chief": 6039,
    "647": 6040,
    "deploy": 6041,
    "provinces": 6042,
    "results": 6043,
    "comment": 6044,
    "expl": 6045,
    "391": 6046,
    "cts": 6047,
    "iven": 6048,
    "hard": 6049,
    "Da": 6050,
    "Grah": 6051,
    "Graham": 6052,
    "Sourcebook": 6053,
    "933": 6054,
    "Defin": 6055,
    "003": 6056,
    "father": 6057,
    "cally": 6058,
    "descendants": 6059,
    "Doniger": 6060,
    "Brer": 6061,
    "Brereton": 6062,
    "note": 6063,
    "particularly": 6064,
    "participating": 6065,
    "Michaels": 6066,
    "least": 6067,
    "Ald": 6068,
    "Rowl": 6069,
    "Rowlatt": 6070,
    "novel": 6071,
    "ultim": 6072,
    "requ": 6073,
    "Moral": 6074,
    "ticism": 6075,
    "Transi": 6076,
    "Transitive": 6077,
    "Noun": 6078,
    "Nouns": 6079,
    "Adjectives": 6080,
    "879": 6081,
    "879357": 6082,
    "tell": 6083,
    "dity": 6084,
    "Understanding": 6085,
    "istics": 6086,
    "Acti": 6087,
    "Activi": 6088,
    "Activities": 6089,
    "Markets": 6090,
    "Case": 6091,
    "Hong": 6092,
    "97813": 6093,
    "bs": 6094,
    "cing": 6095,
    "conditions": 6096,
    "wherever": 6097,
    "othills": 6098,
    "giving": 6099,
    "Nature": 6100,
    "represented": 6101,
    "detailed": 6102,
    "Comparative": 6103,
    "Sak": 6104,
    "Semn": 6105,
    "Semnop": 6106,
    "Semnopi": 6107,
    "Semnopithecus": 6108,
    "Diw": 6109,
    "Diwakar": 6110,
    "Forum": 6111,
    "Jü": 6112,
    "Jür": 6113,
    "Jürgen": 6114,
    "1927": 6115,
    "LCCN": 6116,
    "whole": 6117,
    "possible": 6118,
    "RC": 6119,
    "ensu": 6120,
    "ariat": 6121,
    "conscious": 6122,
    "facto": 6123,
    "Sumit": 6124,
    "stance": 6125,
    "Pew": 6126,
    "Gap": 6127,
    "Blue": 6128,
    "rele": 6129,
    "ception": 6130,
    "Practices": 6131,
    "Do": 6132,
    "Doing": 6133,
    "870": 6134,
    "Eff": 6135,
    "Contexts": 6136,
    "Smi": 6137,
    "Smith": 6138,
    "Progress": 6139,
    "gory": 6140,
    "rick": 6141,
    "Work": 6142,
    "analysis": 6143,
    "Rich": 6144,
    "Richard": 6145,
    "Action": 6146,
    "DE": 6147,
    "Fundamental": 6148,
    "Pers": 6149,
    "Academic": 6150,
    "separation": 6151,
    "Fi": 6152,
    "Field": 6153,
    "ental": 6154,
    "Rit": 6155,
    "usion": 6156,
    "certainly": 6157,
    "536": 6158,
    "zing": 6159,
    "obi": 6160,
    "Foc": 6161,
    "Focus": 6162,
    "links": 6163,
    "Rah": 6164,
    "Khamiri": 6165,
    "dough": 6166,
    "breads": 6167,
    "009": 6168,
    "ald": 6169,
    "4051": 6170,
    "Contin": 6171,
    "Special": 6172,
    "2645": 6173,
    "2645149": 6174,
    "Manorama": 6175,
    "Texts": 6176,
    "ensorship": 6177,
    "உண": 6178,
    "தட": 6179,
    "गम": 6180,
    "टल": 6181,
    "महत": 6182,
    "uses": 6183,
    "Thail": 6184,
    "Thailand": 6185,
    "isolation": 6186,
    "hunter": 6187,
    "gather": 6188,
    "gatherers": 6189,
    "archa": 6190,
    "archaic": 6191,
    "diffused": 6192,
    "suppl": 6193,
    "supplanted": 6194,
    "aris": 6195,
    "arisen": 6196,
    "claiming": 6197,
    "linked": 6198,
    "heredity": 6199,
    "knit": 6200,
    "creati": 6201,
    "creativity": 6202,
    "writing": 6203,
    "declin": 6204,
    "untouchability": 6205,
    "exported": 6206,
    "pts": 6207,
    "Christianity": 6208,
    "Jud": 6209,
    "Zoroastrianism": 6210,
    "coasts": 6211,
    "Sultanate": 6212,
    "Vijayan": 6213,
    "Vijayanag": 6214,
    "Vijayanagara": 6215,
    "lasting": 6216,
    "peace": 6217,
    "nonviolent": 6218,
    "factor": 6219,
    "dominions": 6220,
    "dominion": 6221,
    "multilingual": 6222,
    "nominal": 6223,
    "neigh": 6224,
    "neighb": 6225,
    "unresol": 6226,
    "unresolved": 6227,
    "gender": 6228,
    "megadiverse": 6229,
    "hotspots": 6230,
    "Ety": 6231,
    "Etym": 6232,
    "Etymology": 6233,
    "mons": 6234,
    "Acha": 6235,
    "Achaemen": 6236,
    "etry": 6237,
    "endering": 6238,
    "applied": 6239,
    "native": 6240,
    "Manuscript": 6241,
    "fashion": 6242,
    "rine": 6243,
    "och": 6244,
    "anatomic": 6245,
    "anatomically": 6246,
    "eri": 6247,
    "igar": 6248,
    "characteristic": 6249,
    "standar": 6250,
    "standardis": 6251,
    "standardised": 6252,
    "terrac": 6253,
    "terracot": 6254,
    "terracotta": 6255,
    "ettes": 6256,
    "towns": 6257,
    "villages": 6258,
    "ining": 6259,
    "fires": 6260,
    "settlement": 6261,
    "lav": 6262,
    "vide": 6263,
    "mainly": 6264,
    "emer": 6265,
    "Aṣ": 6266,
    "Aṣṭ": 6267,
    "dhy": 6268,
    "dhyā": 6269,
    "dhyāy": 6270,
    "dhyāyī": 6271,
    "Pā": 6272,
    "Pāṇ": 6273,
    "Pāṇini": 6274,
    "register": 6275,
    "differenti": 6276,
    "ethical": 6277,
    "sacrifices": 6278,
    "fixed": 6279,
    "beginn": 6280,
    "beginnings": 6281,
    "geographically": 6282,
    "briefly": 6283,
    "hubs": 6284,
    "notable": 6285,
    "subsequently": 6286,
    "promote": 6287,
    "duct": 6288,
    "welf": 6289,
    "welfare": 6290,
    "illing": 6291,
    "wild": 6292,
    "dest": 6293,
    "histori": 6294,
    "historians": 6295,
    "ethos": 6296,
    "flowering": 6297,
    "literature": 6298,
    "Cholas": 6299,
    "respec": 6300,
    "respective": 6301,
    "Kaver": 6302,
    "Kaveri": 6303,
    "Pandy": 6304,
    "Pandyas": 6305,
    "favour": 6306,
    "replaced": 6307,
    "extensively": 6308,
    "ruler": 6309,
    "clear": 6310,
    "cleared": 6311,
    "accomm": 6312,
    "accommod": 6313,
    "ruling": 6314,
    "temples": 6315,
    "capital": 6316,
    "zes": 6317,
    "8th": 6318,
    "9th": 6319,
    "ects": 6320,
    "merchants": 6321,
    "scholars": 6322,
    "swi": 6323,
    "swift": 6324,
    "caval": 6325,
    "cavalry": 6326,
    "united": 6327,
    "repe": 6328,
    "repeated": 6329,
    "repeatedly": 6330,
    "establishment": 6331,
    "raid": 6332,
    "devast": 6333,
    "ders": 6334,
    "arti": 6335,
    "artists": 6336,
    "artisans": 6337,
    "building": 6338,
    "reign": 6339,
    "rulers": 6340,
    "mobility": 6341,
    "Instead": 6342,
    "administrative": 6343,
    "systematic": 6344,
    "bond": 6345,
    "bonds": 6346,
    "taxes": 6347,
    "larger": 6348,
    "literary": 6349,
    "coher": 6350,
    "coherent": 6351,
    "Rajpu": 6352,
    "Rajputs": 6353,
    "commerce": 6354,
    "18th": 6355,
    "enab": 6356,
    "provin": 6357,
    "provincial": 6358,
    "affairs": 6359,
    "notably": 6360,
    "company": 6361,
    "access": 6362,
    "manu": 6363,
    "lying": 6364,
    "onset": 6365,
    "reform": 6366,
    "Mahat": 6367,
    "Mahatma": 6368,
    "Calcut": 6369,
    "Calcutta": 6370,
    "Chandi": 6371,
    "Chandigarh": 6372,
    "commissioned": 6373,
    "appo": 6374,
    "essential": 6375,
    "railways": 6376,
    "asive": 6377,
    "rebellion": 6378,
    "unitary": 6379,
    "safeguard": 6380,
    "future": 6381,
    "rush": 6382,
    "backs": 6383,
    "dependent": 6384,
    "borne": 6385,
    "alled": 6386,
    "relief": 6387,
    "helped": 6388,
    "repres": 6389,
    "repressive": 6390,
    "1930s": 6391,
    "participation": 6392,
    "final": 6393,
    "advent": 6394,
    "liberalisation": 6395,
    "transformed": 6396,
    "cies": 6397,
    "separati": 6398,
    "territorial": 6399,
    "accoun": 6400,
    "bulk": 6401,
    "geolog": 6402,
    "supercontinent": 6403,
    "Gondwana": 6404,
    "Eurasian": 6405,
    "obstru": 6406,
    "layer": 6407,
    "ountain": 6408,
    "Tibetan": 6409,
    "rapidly": 6410,
    "sedi": 6411,
    "sediment": 6412,
    "extends": 6413,
    "survives": 6414,
    "Satpura": 6415,
    "ranges": 6416,
    "chains": 6417,
    "coal": 6418,
    "flank": 6419,
    "Major": 6420,
    "substantially": 6421,
    "Import": 6422,
    "Kosi": 6423,
    "extremely": 6424,
    "gradi": 6425,
    "length": 6426,
    "beach": 6427,
    "shores": 6428,
    "marsh": 6429,
    "marshy": 6430,
    "Sund": 6431,
    "Sundarb": 6432,
    "Sundarbans": 6433,
    "del": 6434,
    "shared": 6435,
    "volcan": 6436,
    "aks": 6437,
    "Nanda": 6438,
    "Devi": 6439,
    "behind": 6440,
    "Yar": 6441,
    "Yarl": 6442,
    "Yarlung": 6443,
    "asar": 6444,
    "Himalaya": 6445,
    "myth": 6446,
    "Have": 6447,
    "strongly": 6448,
    "winter": 6449,
    "wind": 6450,
    "winds": 6451,
    "climatic": 6452,
    "Fall": 6453,
    "bird": 6454,
    "endemism": 6455,
    "ifer": 6456,
    "deci": 6457,
    "decidu": 6458,
    "deciduous": 6459,
    "sal": 6460,
    "indica": 6461,
    "Fic": 6462,
    "Ficus": 6463,
    "religiosa": 6464,
    "canon": 6465,
    "sought": 6466,
    "contrast": 6467,
    "vulnerable": 6468,
    "threatened": 6469,
    "edd": 6470,
    "Cri": 6471,
    "crocodi": 6472,
    "ested": 6473,
    "blackbuck": 6474,
    "response": 6475,
    "expanded": 6476,
    "amendments": 6477,
    "eigh": 6478,
    "reser": 6479,
    "Kad": 6480,
    "Uttarak": 6481,
    "Uttarakhand": 6482,
    "gard": 6483,
    "garden": 6484,
    "politics": 6485,
    "recognised": 6486,
    "comfor": 6487,
    "comfortable": 6488,
    "Shastri": 6489,
    "voted": 6490,
    "lasted": 6491,
    "assass": 6492,
    "assassinated": 6493,
    "succe": 6494,
    "succeeded": 6495,
    "Rajiv": 6496,
    "khar": 6497,
    "Lankan": 6498,
    "seeking": 6499,
    "enge": 6500,
    "intervention": 6501,
    "winn": 6502,
    "winning": 6503,
    "serving": 6504,
    "Vaj": 6505,
    "Vajpay": 6506,
    "Vajpayee": 6507,
    "mandate": 6508,
    "Elections": 6509,
    "Alli": 6510,
    "Alliance": 6511,
    "President": 6512,
    "1976": 6513,
    "uncommon": 6514,
    "uous": 6515,
    "exer": 6516,
    "hous": 6517,
    "houses": 6518,
    "Lok": 6519,
    "deleg": 6520,
    "delegates": 6521,
    "ayat": 6522,
    "distinctions": 6523,
    "Articles": 6524,
    "inted": 6525,
    "committee": 6526,
    "headed": 6527,
    "comprising": 6528,
    "juris": 6529,
    "jurisdiction": 6530,
    "cases": 6531,
    "involving": 6532,
    "vene": 6533,
    "Administrative": 6534,
    "divisions": 6535,
    "Territory": 6536,
    "bodies": 6537,
    "city": 6538,
    "distri": 6539,
    "cursions": 6540,
    "596": 6541,
    "produ": 6542,
    "produce": 6543,
    "prehen": 6544,
    "discriminat": 6545,
    "discriminatory": 6546,
    "developing": 6547,
    "redi": 6548,
    "cooperation": 6549,
    "civilian": 6550,
    "restrictions": 6551,
    "econom": 6552,
    "economies": 6553,
    "output": 6554,
    "fastest": 6555,
    "historically": 6556,
    "pread": 6557,
    "crisis": 6558,
    "free": 6559,
    "emphas": 6560,
    "service": 6561,
    "ninth": 6562,
    "contribution": 6563,
    "calend": 6564,
    "aging": 6565,
    "consumer": 6566,
    "workforce": 6567,
    "woman": 6568,
    "surpass": 6569,
    "includes": 6570,
    "biote": 6571,
    "biotech": 6572,
    "rical": 6573,
    "gig": 6574,
    "gigaw": 6575,
    "gigawatts": 6576,
    "renewable": 6577,
    "greenhouse": 6578,
    "Incre": 6579,
    "Increasing": 6580,
    "contributes": 6581,
    "tour": 6582,
    "Gate": 6583,
    "rink": 6584,
    "skilled": 6585,
    "Medical": 6586,
    "adv": 6587,
    "decre": 6588,
    "decreasing": 6589,
    "compared": 6590,
    "mort": 6591,
    "mortality": 6592,
    "births": 6593,
    "whereas": 6594,
    "females": 6595,
    "males": 6596,
    "Fem": 6597,
    "Female": 6598,
    "foetic": 6599,
    "foeticide": 6600,
    "Kolk": 6601,
    "Kolkata": 6602,
    "camp": 6603,
    "protag": 6604,
    "protagon": 6605,
    "protagonists": 6606,
    "prefer": 6607,
    "preferred": 6608,
    "associate": 6609,
    "resolution": 6610,
    "heritage": 6611,
    "Gujarati": 6612,
    "Kannada": 6613,
    "Oriya": 6614,
    "Telug": 6615,
    "Telugu": 6616,
    "Sindhi": 6617,
    "Nepali": 6618,
    "Dog": 6619,
    "Dogri": 6620,
    "Sant": 6621,
    "paper": 6622,
    "listed": 6623,
    "prominently": 6624,
    "adher": 6625,
    "sis": 6626,
    "Preamble": 6627,
    "expression": 6628,
    "worship": 6629,
    "Sarna": 6630,
    "Ni": 6631,
    "ior": 6632,
    "thura": 6633,
    "agen": 6634,
    "points": 6635,
    "Bhim": 6636,
    "Dalit": 6637,
    "rang": 6638,
    "formerly": 6639,
    "1847": 6640,
    "construction": 6641,
    "Canal": 6642,
    "case": 6643,
    "ections": 6644,
    "account": 6645,
    "infection": 6646,
    "pul": 6647,
    "pollut": 6648,
    "polluted": 6649,
    "breathing": 6650,
    "smo": 6651,
    "Gender": 6652,
    "uniqu": 6653,
    "uniquely": 6654,
    "endogamy": 6655,
    "marrying": 6656,
    "label": 6657,
    "occupational": 6658,
    "choice": 6659,
    "abol": 6660,
    "abolished": 6661,
    "formally": 6662,
    "discrimination": 6663,
    "gregation": 6664,
    "bride": 6665,
    "marries": 6666,
    "married": 6667,
    "rite": 6668,
    "recourse": 6669,
    "exchanged": 6670,
    "Thousand": 6671,
    "civilisation": 6672,
    "carved": 6673,
    "exc": 6674,
    "excav": 6675,
    "excavated": 6676,
    "thereafter": 6677,
    "Mauryan": 6678,
    "sculpt": 6679,
    "reliefs": 6680,
    "mix": 6681,
    "mixture": 6682,
    "artistic": 6683,
    "dominance": 6684,
    "bronze": 6685,
    "achievement": 6686,
    "Nataraja": 6687,
    "paintings": 6688,
    "start": 6689,
    "mini": 6690,
    "everyday": 6691,
    "Hor": 6692,
    "manuscript": 6693,
    "Bakh": 6694,
    "Bakhsh": 6695,
    "Bakhshali": 6696,
    "Aryab": 6697,
    "Aryabh": 6698,
    "Aryabhata": 6699,
    "Brahmag": 6700,
    "Brahmagupta": 6701,
    "cosine": 6702,
    "Srinivasa": 6703,
    "sitar": 6704,
    "counter": 6705,
    "pop": 6706,
    "Subra": 6707,
    "Subraman": 6708,
    "playing": 6709,
    "contexts": 6710,
    "determined": 6711,
    "perform": 6712,
    "adasis": 6713,
    "curr": 6714,
    "currently": 6715,
    "asw": 6716,
    "Bhangra": 6717,
    "akhi": 6718,
    "asi": 6719,
    "honour": 6720,
    "earth": 6721,
    "chat": 6722,
    "fed": 6723,
    "Kathakali": 6724,
    "adult": 6725,
    "cloth": 6726,
    "shoulder": 6727,
    "irt": 6728,
    "dho": 6729,
    "dhoti": 6730,
    "kur": 6731,
    "kurta": 6732,
    "pically": 6733,
    "pants": 6734,
    "occasions": 6735,
    "shalwar": 6736,
    "rare": 6737,
    "rarely": 6738,
    "allow": 6739,
    "jack": 6740,
    "jackets": 6741,
    "gro": 6742,
    "sport": 6743,
    "shaw": 6744,
    "shawl": 6745,
    "Cuis": 6746,
    "Cuisine": 6747,
    "cere": 6748,
    "cereal": 6749,
    "savour": 6750,
    "savoury": 6751,
    "might": 6752,
    "ander": 6753,
    "stances": 6754,
    "feature": 6755,
    "partially": 6756,
    "preneuri": 6757,
    "preneurial": 6758,
    "ruit": 6759,
    "kho": 6760,
    "Chess": 6761,
    "Cup": 6762,
    "Cups": 6763,
    "field": 6764,
    "hockey": 6765,
    "Olympics": 6766,
    "Gukes": 6767,
    "Gukesh": 6768,
    "Dommar": 6769,
    "Dommaraj": 6770,
    "Dommaraju": 6771,
    "chess": 6772,
    "champion": 6773,
    "Australia": 6774,
    "Sanskri": 6775,
    "Sanskritis": 6776,
    "Sanskritised": 6777,
    "ande": 6778,
    "struggle": 6779,
    "equal": 6780,
    "Writ": 6781,
    "Written": 6782,
    "eighth": 6783,
    "grammar": 6784,
    "yet": 6785,
    "ingen": 6786,
    "meta": 6787,
    "discover": 6788,
    "discoveries": 6789,
    "osophy": 6790,
    "connected": 6791,
    "southwards": 6792,
    "Chal": 6793,
    "Chaluk": 6794,
    "volley": 6795,
    "hier": 6796,
    "hierarchy": 6797,
    "rules": 6798,
    "problem": 6799,
    "jus": 6800,
    "solution": 6801,
    "geometric": 6802,
    "Genetic": 6803,
    "Sek": 6804,
    "Sekher": 6805,
    "978100": 6806,
    "Ṛgveda": 6807,
    "jā": 6808,
    "twent": 6809,
    "twenty": 6810,
    "moral": 6811,
    "leadership": 6812,
    "geni": 6813,
    "genius": 6814,
    "ED": 6815,
    "Mattern": 6816,
    "ancest": 6817,
    "migrated": 6818,
    "Den": 6819,
    "Denis": 6820,
    "End": 6821,
    "Endangered": 6822,
    "Iori": 6823,
    "Elvers": 6824,
    "Elversk": 6825,
    "Elverskog": 6826,
    "Johan": 6827,
    "Footpr": 6828,
    "Footprint": 6829,
    "Philad": 6830,
    "Philadelp": 6831,
    "Philadelphia": 6832,
    "Penn": 6833,
    "Pennsy": 6834,
    "Pennsyl": 6835,
    "Pennsylvan": 6836,
    "Pennsylvania": 6837,
    "8122": 6838,
    "5183": 6839,
    "reas": 6840,
    "declaring": 6841,
    "Consumers": 6842,
    "4324": 6843,
    "inactive": 6844,
    "Wet": 6845,
    "Guar": 6846,
    "Guardian": 6847,
    "Agar": 6848,
    "Agarwal": 6849,
    "Men": 6850,
    "Ul": 6851,
    "fifteen": 6852,
    "providing": 6853,
    "fourteen": 6854,
    "1850": 6855,
    "provisions": 6856,
    "1X": 6857,
    "Draft": 6858,
    "Drafting": 6859,
    "Duncan": 6860,
    "Anti": 6861,
    "2755179": 6862,
    "Kach": 6863,
    "Kachru": 6864,
    "Srid": 6865,
    "Sridhar": 6866,
    "Economics": 6867,
    "Mahapat": 6868,
    "Mahapatra": 6869,
    "legals": 6870,
    "legalser": 6871,
    "legalservice": 6872,
    "legalserviceindia": 6873,
    "exis": 6874,
    "students": 6875,
    "subordinates": 6876,
    "surveyors": 6877,
    "Chau": 6878,
    "Chauhan": 6879,
    "ijm": 6880,
    "ijmr": 6881,
    "NY": 6882,
    "ranked": 6883,
    "Bé": 6884,
    "Béte": 6885,
    "Béteille": 6886,
    "rey": 6887,
    "Castes": 6888,
    "OC": 6889,
    "ense": 6890,
    "Bloomsbury": 6891,
    "Mayer": 6892,
    "sisters": 6893,
    "affirmed": 6894,
    "Filli": 6895,
    "Fillioz": 6896,
    "Filliozat": 6897,
    "If": 6898,
    "Ifrah": 6899,
    "none": 6900,
    "isa": 6901,
    "AD": 6902,
    "Ping": 6903,
    "Pingree": 6904,
    "never": 6905,
    "Pto": 6906,
    "Ptole": 6907,
    "archus": 6908,
    "angle": 6909,
    "displaystyle": 6910,
    "theta": 6911,
    "sin": 6912,
    "Stillwell": 6913,
    "Colle": 6914,
    "worked": 6915,
    "Natali": 6916,
    "Natalie": 6917,
    "priya": 6918,
    "Anj": 6919,
    "Hus": 6920,
    "Huss": 6921,
    "Hussain": 6922,
    "Sajj": 6923,
    "Sajjad": 6924,
    "Ron": 6925,
    "Coh": 6926,
    "Cohen": 6927,
    "log": 6928,
    "Num": 6929,
    "Tectonics": 6930,
    "Heidel": 6931,
    "Heidelberg": 6932,
    "7650": 6933,
    "Taka": 6934,
    "Takao": 6935,
    "றப": 6936,
    "ரண": 6937,
    "கழகப": 6938,
    "इख": 6939,
    "आश": 6940,
    "कसभ": 6941,
    "னம": 6942,
    "வழ": 6943,
    "அற": 6944,
    "णन": 6945,
    "शर": 6946,
    "ধন": 6947,
    "ঘট": 6948,
    "গঠন": 6949,
    "কক": 6950,
    "রজ": 6951,
    "এট": 6952,
    "উপক": 6953,
    "ঐত": 6954,
    "খন": 6955,
    "লত": 6956,
    "মত": 6957,
    "ভক": 6958,
    "বতম": 6959,
    "দল": 6960,
    "রন": 6961,
    "ডল": 6962,
    "सव": 6963,
    "हल": 6964,
    "रन": 6965,
    "वरक": 6966,
    "லங": 6967,
    "றக": 6968,
    "१९७": 6969,
    "रचन": 6970,
    "२००": 6971,
    "enth": 6972,
    "461": 6973,
    "चळ": 6974,
    "अगस": 6975,
    "उख": 6976,
    "உட": 6977,
    "ஒன": 6978,
    "மல": 6979,
    "दशक": 6980,
    "శక": 6981,
    "రహద": 6982,
    "శత": 6983,
    "అభ": 6984,
    "ఇన": 6985,
    "రల": 6986,
    "టణ": 6987,
    "నగర": 6988,
    "షణ": 6989,
    "తల": 6990,
    "రజల": 6991,
    "కమ": 6992,
    "आढ": 6993,
    "सध": 6994,
    "कण": 6995,
    "जण": 6996,
    "भय": 6997,
    "आन": 6998,
    "एश": 6999,
    "जनत": 7000,
    "நகர": 7001,
    "अथव": 7002,
    "आम": 7003,
    "नच": 7004,
    "author": 7005,
    "यसभ": 7006,
    "बई": 7007,
    "तव": 7008,
    "esh": 7009,
    "उम": 7010,
    "৫৬": 7011,
    "৪৪": 7012,
    "৪৫": 7013,
    "সল": 7014,
    "আজ": 7015,
    "পক": 7016,
    "১৯৭": 7017,
    "লভ": 7018,
    "আদ": 7019,
    "গণত": 7020,
    "অত": 7021,
    "তথ": 7022,
    "আব": 7023,
    "আগ": 7024,
    "উপর": 7025,
    "জল": 7026,
    "হক": 7027,
    "২০০৮": 7028,
    "ষর": 7029,
    "घटन": 7030,
    "Bomb": 7031,
    "80904": 7032,
    "१७": 7033,
    "धक": 7034,
    "भव": 7035,
    "डर": 7036,
    "जत": 7037,
    "month": 7038,
    "बखत": 7039,
    "पछ": 7040,
    "ड़क": 7041,
    "नस": 7042,
    "जप": 7043,
    "अपड़": 7044,
    "Cyn": 7045,
    "Cynth": 7046,
    "Cynthia": 7047,
    "तच": 7048,
    "शल": 7049,
    "षय": 7050,
    "cite": 7051,
    "archive": 7052,
    "1977": 7053,
    "1300": 7054,
    "लर": 7055,
    "चर": 7056,
    "யங": 7057,
    "தவ": 7058,
    "பன": 7059,
    "ணப": 7060,
    "Cinema": 7061,
    "मश": 7062,
    "192": 7063,
    "वण": 7064,
    "ळन": 7065,
    "दख": 7066,
    "कह": 7067,
    "8829": 7068,
    "882905": 7069,
    "11162": 7070,
    "074": 7071,
    "7000": 7072,
    "१५": 7073,
    "थग": 7074,
    "कच": 7075,
    "उपस": 7076,
    "ஓர": 7077,
    "கங": 7078,
    "தக": 7079,
    "இட": 7080,
    "அவ": 7081,
    "இம": 7082,
    "एस": 7083,
    "जनस": 7084,
    "१२": 7085,
    "50th": 7086,
    "website": 7087,
    "Natural": 7088,
    "colour": 7089,
    "उर": 7090,
    "धरत": 7091,
    "ऋत": 7092,
    "गई": 7093,
    "पडल": 7094,
    "धल": 7095,
    "हणज": 7096,
    "ओळखल": 7097,
    "गणल": 7098,
    "शतक": 7099,
    "घल": 7100,
    "आपल": 7101,
    "चळवळ": 7102,
    "कभ": 7103,
    "तलक": 7104,
    "कव": 7105,
    "पव": 7106,
    "मई": 7107,
    "णद": 7108,
    "ळक": 7109,
    "कश": 7110,
    "अमर": 7111,
    "২৮": 7112,
    "১৪": 7113,
    "ইল": 7114,
    "যত": 7115,
    "আধ": 7116,
    "উচ": 7117,
    "পন": 7118,
    "রচল": 7119,
    "সফ": 7120,
    "আইন": 7121,
    "হর": 7122,
    "যতম": 7123,
    "নমন": 7124,
    "এস": 7125,
    "রপত": 7126,
    "ইট": 7127,
    "২০০৭": 7128,
    "বই": 7129,
    "இச": 7130,
    "ஏற": 7131,
    "உய": 7132,
    "ओर": 7133,
    "जह": 7134,
    "ems": 7135,
    "టర": 7136,
    "వన": 7137,
    "షర": 7138,
    "తన": 7139,
    "టమ": 7140,
    "దల": 7141,
    "నత": 7142,
    "గత": 7143,
    "ఆఫ": 7144,
    "దగ": 7145,
    "పల": 7146,
    "వడ": 7147,
    "వగ": 7148,
    "యల": 7149,
    "ఆక": 7150,
    "ధత": 7151,
    "వరణ": 7152,
    "నప": 7153,
    "గమ": 7154,
    "కట": 7155,
    "డల": 7156,
    "Minority": 7157,
    "abase": 7158,
    "Provisions": 7159,
    "Summar": 7160,
    "Summaries": 7161,
    "Of": 7162,
    "319": 7163,
    "गड": 7164,
    "Earli": 7165,
    "Earliest": 7166,
    "Verl": 7167,
    "Verlag": 7168,
    "275": 7169,
    "வம": 7170,
    "இதன": 7171,
    "இண": 7172,
    "றனர": 7173,
    "चह": 7174,
    "गढ़": 7175,
    "कप": 7176,
    "Statis": 7177,
    "standards": 7178,
    "driving": 7179,
    "1857": 7180,
    "060": 7181,
    "973": 7182,
    "Related": 7183,
    "Enum": 7184,
    "Enumeration": 7185,
    "Decad": 7186,
    "Decadal": 7187,
    "Vari": 7188,
    "Variation": 7189,
    "Database": 7190,
    "Gini": 7191,
    "गठ": 7192,
    "ऊन": 7193,
    "112": 7194,
    "dex": 7195,
    "1956": 7196,
    "Khan": 7197,
    "Lear": 7198,
    "Chhat": 7199,
    "Chhattis": 7200,
    "174": 7201,
    "ஆய": 7202,
    "அளவ": 7203,
    "२६": 7204,
    "Mas": 7205,
    "sey": 7206,
    "We": 7207,
    "छय": 7208,
    "कख": 7209,
    "5196": 7210,
    "02": 7211,
    "2542": 7212,
    "dialect": 7213,
    "Date": 7214,
    "notation": 7215,
    "आब": 7216,
    "आपस": 7217,
    "जबक": 7218,
    "आकर": 7219,
    "लम": 7220,
    "546": 7221,
    "Learning": 7222,
    "खक": 7223,
    "ரரச": 7224,
    "ரணம": 7225,
    "ஆட": 7226,
    "ball": 7227,
    "Mah": 7228,
    "xiii": 7229,
    "चक": 7230,
    "ओड": 7231,
    "लगभग": 7232,
    "कथग": 7233,
    "वनस": 7234,
    "content": 7235,
    "1010": 7236,
    "1206": 7237,
    "XV": 7238,
    "XVII": 7239,
    "Rab": 7240,
    "Rabind": 7241,
    "Rabindran": 7242,
    "Rabindranath": 7243,
    "Tagore": 7244,
    "News18": 7245,
    "Simons": 7246,
    "Gary": 7247,
    "Fenn": 7248,
    "Fennig": 7249,
    "IM": 7250,
    "IMF": 7251,
    "ffici": 7252,
    "fficient": 7253,
    "900461": 7254,
    "Chapter": 7255,
    "08": 7256,
    "जनज": 7257,
    "Kenne": 7258,
    "Kenneth": 7259,
    "বব": 7260,
    "যব": 7261,
    "৩৩": 7262,
    "কত": 7263,
    "৩৫": 7264,
    "কন": 7265,
    "উড": 7266,
    "কয": 7267,
    "বঙ": 7268,
    "খণ": 7269,
    "ণত": 7270,
    "১৯৫০": 7271,
    "বভ": 7272,
    "ষরত": 7273,
    "শব": 7274,
    "ইউ": 7275,
    "ইউর": 7276,
    "চলগ": 7277,
    "আঞ": 7278,
    "শহর": 7279,
    "সদস": 7280,
    "যথ": 7281,
    "বয": 7282,
    "কম": 7283,
    "জলব": 7284,
    "ইউন": 7285,
    "আস": 7286,
    "উৎসব": 7287,
    "अव": 7288,
    "95": 7289,
    "495": 7290,
    "மர": 7291,
    "னங": 7292,
    "சட": 7293,
    "மண": 7294,
    "ஒக": 7295,
    "unication": 7296,
    "Read": 7297,
    "Ke": 7298,
    "Wash": 7299,
    "हथ": 7300,
    "Go": 7301,
    "Goa": 7302,
    "CS": 7303,
    "CS1": 7304,
    "link": 7305,
    "purpos": 7306,
    "purposes": 7307,
    "१६": 7308,
    "११": 7309,
    "atch": 7310,
    "Coningh": 7311,
    "Coningham": 7312,
    "Youn": 7313,
    "Young": 7314,
    "Posse": 7315,
    "Possehl": 7316,
    "आव": 7317,
    "deaths": 7318,
    "Memorial": 7319,
    "टव": 7320,
    "Different": 7321,
    "differing": 7322,
    "terms": 7323,
    "grouped": 7324,
    "exact": 7325,
    "consensus": 7326,
    "discussion": 7327,
    "RATI": 7328,
    "HA": 7329,
    "शव": 7330,
    "उनक": 7331,
    "सऱ": 7332,
    "आणल": 7333,
    "जवळ": 7334,
    "बनल": 7335,
    "ळव": 7336,
    "खनच": 7337,
    "ece": 7338,
    "thehindu": 7339,
    "இக": 7340,
    "நடத": 7341,
    "அதன": 7342,
    "சந": 7343,
    "सज": 7344,
    "ulsing": 7345,
    "Lal": 7346,
    "Narrative": 7347,
    "Football": 7348,
    "Reader": 7349,
    "Love": 7350,
    "Recogn": 7351,
    "Play": 7352,
    "समर": 7353,
    "igns": 7354,
    "Americana": 7355,
    "IR": 7356,
    "Denn": 7357,
    "ges": 7358,
    "Bhag": 7359,
    "IC": 7360,
    "02649": 7361,
    "34549": 7362,
    "नय": 7363,
    "367": 7364,
    "408": 7365,
    "index": 7366,
    "vices": 7367,
    "हस": 7368,
    "Tit": 7369,
    "spee": 7370,
    "speech": 7371,
    "birthplace": 7372,
    "instru": 7373,
    "phe": 7374,
    "Our": 7375,
    "news": 7376,
    "page": 7377,
    "466": 7378,
    "ஆச": 7379,
    "अगर": 7380,
    "पतर": 7381,
    "गणर": 7382,
    "Ἰνδί": 7383,
    "Ἰνδία": 7384,
    "Ἰνδό": 7385,
    "Ἰνδός": 7386,
    "ˈb": 7387,
    "ˈbʱ": 7388,
    "ˈbʱaː": 7389,
    "ˈbʱaːɾ": 7390,
    "ˈbʱaːɾə": 7391,
    "ˈbʱaːɾət": 7392,
    "324": 7393,
    "Burton": 7394,
    "annel": 7395,
    "acre": 7396,
    "Bird": 7397,
    "xiv": 7398,
    "Mark": 7399,
    "dependence": 7400,
    "Antholog": 7401,
    "Association": 7402,
    "Are": 7403,
    "Area": 7404,
    "Washing": 7405,
    "Washington": 7406,
    "Origins": 7407,
    "revis": 7408,
    "revised": 7409,
    "Viol": 7410,
    "Violence": 7411,
    "Living": 7412,
    "Weather": 7413,
    "Digest": 7414,
    "Animals": 7415,
    "Thak": 7416,
    "Thakur": 7417,
    "Hun": 7418,
    "१०": 7419,
    "१३": 7420,
    "उष": 7421,
    "లమ": 7422,
    "డమ": 7423,
    "పశ": 7424,
    "కరణ": 7425,
    "అవ": 7426,
    "లజ": 7427,
    "నట": 7428,
    "చబడ": 7429,
    "కత": 7430,
    "రసత": 7431,
    "షన": 7432,
    "యవ": 7433,
    "అమ": 7434,
    "థక": 7435,
    "పత": 7436,
    "జమ": 7437,
    "దన": 7438,
    "లర": 7439,
    "ఫర": 7440,
    "మద": 7441,
    "జనగణ": 7442,
    "ఇస": 7443,
    "నన": 7444,
    "రయ": 7445,
    "శమ": 7446,
    "టక": 7447,
    "పతక": 7448,
    "డర": 7449,
    "fire": 7450,
    "wat": 7451,
    "monsoon": 7452,
    "Chhattisgarh": 7453,
    "Meghal": 7454,
    "Meghalay": 7455,
    "Meghalaya": 7456,
    "Tripura": 7457,
    "Daman": 7458,
    "Diu": 7459,
    "sug": 7460,
    "suggest": 7461,
    "रग": 7462,
    "इक": 7463,
    "Coun": 7464,
    "Ill": 7465,
    "586": 7466,
    "ib": 7467,
    "Nai": 7468,
    "Au": 7469,
    "312": 7470,
    "Balak": 7471,
    "Balakrish": 7472,
    "Balakrishn": 7473,
    "Balakrishnan": 7474,
    "Kalpan": 7475,
    "Kalpana": 7476,
    "Burden": 7477,
    "Dise": 7478,
    "Disease": 7479,
    "e26": 7480,
    "e39": 7481,
    "S2542": 7482,
    "30261": 7483,
    "30528": 7484,
    "30528905": 7485,
    "407": 7486,
    "एन": 7487,
    "131": 7488,
    "191": 7489,
    "206": 7490,
    "valid": 7491,
    "lob": 7492,
    "multiple": 7493,
    "392": 7494,
    "399": 7495,
    "tag": 7496,
    "Hu": 7497,
    "dow": 7498,
    "ளம": 7499,
    "भगव": 7500,
    "गन": 7501,
    "Salim": 7502,
    "alter": 7503,
    "ila": 7504,
    "erle": 7505,
    "Koh": 7506,
    "Kohli": 7507,
    "Production": 7508,
    "Dill": 7509,
    "Dillon": 7510,
    "Perci": 7511,
    "Percival": 7512,
    "जनवर": 7513,
    "इनर": 7514,
    "वरल": 7515,
    "सकन": 7516,
    "खबर": 7517,
    "चय": 7518,
    "ळद": 7519,
    "224": 7520,
    "Council": 7521,
    "eding": 7522,
    "359": 7523,
    "try": 7524,
    "stated": 7525,
    "imf": 7526,
    "aly": 7527,
    "scholar": 7528,
    "Glenn": 7529,
    "Brum": 7530,
    "Brummel": 7531,
    "Brummelen": 7532,
    "Ari": 7533,
    "Arithmetic": 7534,
    "Glick": 7535,
    "Steven": 7536,
    "Liv": 7537,
    "Livese": 7538,
    "Livesey": 7539,
    "Wallis": 7540,
    "Medic": 7541,
    "Medicine": 7542,
    "4593": 7543,
    "45932": 7544,
    "Marshall": 7545,
    "Illust": 7546,
    "Illustrated": 7547,
    "00254": 7548,
    "Plet": 7549,
    "Pletcher": 7550,
    "Pin": 7551,
    "Piny": 7552,
    "Pinyin": 7553,
    "Aksay": 7554,
    "Aksayq": 7555,
    "Aksayqin": 7556,
    "Bos": 7557,
    "Bosworth": 7558,
    "Jeff": 7559,
    "Jeffers": 7560,
    "Jefferson": 7561,
    "Scholas": 7562,
    "Scholastic": 7563,
    "KA": 7564,
    "KAS": 7565,
    "KASH": 7566,
    "KASHM": 7567,
    "KASHMIR": 7568,
    "Jit": 7569,
    "Jitendra": 7570,
    "Denny": 7571,
    "Ramadas": 7572,
    "Nirup": 7573,
    "Nirupama": 7574,
    "Malnutrition": 7575,
    "1057": 7576,
    "s41": 7577,
    "s41271": 7578,
    "018": 7579,
    "0149": 7580,
    "30353": 7581,
    "30353132": 7582,
    "Dey": 7583,
    "Sagn": 7584,
    "Sagnik": 7585,
    "Mys": 7586,
    "Govt": 7587,
    "Fa": 7588,
    "Raghb": 7589,
    "Raghbendra": 7590,
    "Fac": 7591,
    "Facets": 7592,
    "95342": 7593,
    "termed": 7594,
    "ün": 7595,
    "Away": 7596,
    "withdraw": 7597,
    "Summit": 7598,
    "uti": 7599,
    "Sex": 7600,
    "Cities": 7601,
    "lakh": 7602,
    "recognized": 7603,
    "ni": 7604,
    "RD": 7605,
    "Tamang": 7606,
    "Royal": 7607,
    "older": 7608,
    "oks": 7609,
    "XII": 7610,
    "5562": 7611,
    "Ull": 7612,
    "Ullas": 7613,
    "Rajesh": 7614,
    "ecology": 7615,
    "Rosie": 7616,
    "Woodr": 7617,
    "Woodrof": 7618,
    "Woodroffe": 7619,
    "Thir": 7620,
    "Thirgood": 7621,
    "Rabin": 7622,
    "Rabinow": 7623,
    "Rabinowitz": 7624,
    "Conflict": 7625,
    "53203": 7626,
    "Legisl": 7627,
    "Twentieth": 7628,
    "rong": 7629,
    "ecurity": 7630,
    "Services": 7631,
    "Gyan": 7632,
    "Matter": 7633,
    "Matters": 7634,
    "660": 7635,
    "উপমহ": 7636,
    "গড": 7637,
    "দশ": 7638,
    "৪৭": 7639,
    "সমত": 7640,
    "ধনশ": 7641,
    "মস": 7642,
    "চলচ": 7643,
    "ণব": 7644,
    "গতভ": 7645,
    "করণ": 7646,
    "টক": 7647,
    "দর": 7648,
    "রগ": 7649,
    "নগর": 7650,
    "হন": 7651,
    "১৮": 7652,
    "১৯৯০": 7653,
    "৬৫": 7654,
    "১৯৯৮": 7655,
    "যস": 7656,
    "উপদ": 7657,
    "২৩": 7658,
    "মক": 7659,
    "ষদ": 7660,
    "৯৮": 7661,
    "उपय": 7662,
    "ऋषभ": 7663,
    "ढल": 7664,
    "लव": 7665,
    "सहय": 7666,
    "partitioned": 7667,
    "elite": 7668,
    "vals": 7669,
    "236": 7670,
    "240": 7671,
    "dio": 7672,
    "296": 7673,
    "800": 7674,
    "403": 7675,
    "ja": 7676,
    "440": 7677,
    "nations": 7678,
    "communication": 7679,
    "comparative": 7680,
    "524": 7681,
    "bn": 7682,
    "Life": 7683,
    "poor": 7684,
    "ecess": 7685,
    "464": 7686,
    "Dw": 7687,
    "Dwyer": 7688,
    "Histor": 7689,
    "ky": 7690,
    "lization": 7691,
    "496": 7692,
    "Experi": 7693,
    "Experience": 7694,
    "Ech": 7695,
    "Echever": 7696,
    "Echeverri": 7697,
    "Gent": 7698,
    "Gled": 7699,
    "Gledh": 7700,
    "Gledhill": 7701,
    "Haw": 7702,
    "jun": 7703,
    "Poverty": 7704,
    "Yale": 7705,
    "Educational": 7706,
    "9937": 7707,
    "ki": 7708,
    "Clin": 7709,
    "journals": 7710,
    "Scienti": 7711,
    "Fut": 7712,
    "அழ": 7713,
    "பரப": 7714,
    "தனர": 7715,
    "டவ": 7716,
    "எத": 7717,
    "பயன": 7718,
    "உணவ": 7719,
    "थक": 7720,
    "मरण": 7721,
    "CITEREFSingh": 7722,
    "CITEREFSingh2009": 7723,
    "CITEREFStein": 7724,
    "CITEREFStein1998": 7725,
    "रगत": 7726,
    "चव": 7727,
    "घरव": 7728,
    "उज": 7729,
    "दय": 7730,
    "बग": 7731,
    "मनख": 7732,
    "तरप": 7733,
    "उच": 7734,
    "seven": 7735,
    "Sett": 7736,
    "1900": 7737,
    "Harappa": 7738,
    "issued": 7739,
    "authority": 7740,
    "lock": 7741,
    "Cres": 7742,
    "Chief": 7743,
    "Andh": 7744,
    "Andhra": 7745,
    "threat": 7746,
    "agreement": 7747,
    "ceeding": 7748,
    "21st": 7749,
    "gives": 7750,
    "Bod": 7751,
    "joint": 7752,
    "lora": 7753,
    "promoted": 7754,
    "Edition": 7755,
    "Lanc": 7756,
    "Lancet": 7757,
    "Planetary": 7758,
    "firm": 7759,
    "firmly": 7760,
    "Multilingual": 7761,
    "Dani": 7762,
    "described": 7763,
    "sw": 7764,
    "AN": 7765,
    "Sher": 7766,
    "Martin": 7767,
    "ipedia": 7768,
    "1921": 7769,
    "छत": 7770,
    "थर": 7771,
    "तह": 7772,
    "movements": 7773,
    "spok": 7774,
    "spoken": 7775,
    "roughly": 7776,
    "emergence": 7777,
    "1848": 7778,
    "tle": 7779,
    "166": 7780,
    "094": 7781,
    "canop": 7782,
    "canopy": 7783,
    "205": 7784,
    "207": 7785,
    "1957": 7786,
    "229": 7787,
    "aking": 7788,
    "258": 7789,
    "PPP": 7790,
    "hour": 7791,
    "282": 7792,
    "Taj": 7793,
    "Mahal": 7794,
    "306": 7795,
    "940": 7796,
    "1981": 7797,
    "332": 7798,
    "1911": 7799,
    "Ray": 7800,
    "348": 7801,
    "354": 7802,
    "return": 7803,
    "surviving": 7804,
    "express": 7805,
    "need": 7806,
    "381": 7807,
    "11th": 7808,
    "393": 7809,
    "perha": 7810,
    "perhaps": 7811,
    "432": 7812,
    "Champ": 7813,
    "Champions": 7814,
    "team": 7815,
    "221": 7816,
    "Desk": 7817,
    "dn": 7818,
    "515": 7819,
    "creation": 7820,
    "sometime": 7821,
    "emig": 7822,
    "bands": 7823,
    "opinion": 7824,
    "Rgveda": 7825,
    "Yaj": 7826,
    "Yajur": 7827,
    "Sama": 7828,
    "tharva": 7829,
    "pal": 7830,
    "take": 7831,
    "eman": 7832,
    "manif": 7833,
    "manifest": 7834,
    "ix": 7835,
    "692": 7836,
    "watered": 7837,
    "Trib": 7838,
    "Tribune": 7839,
    "unal": 7840,
    "5677": 7841,
    "Hugh": 7842,
    "Julie": 7843,
    "Harappan": 7844,
    "Near": 7845,
    "urs": 7846,
    "4443": 7847,
    "Biju": 7848,
    "Dutta": 7849,
    "Vas": 7850,
    "Fro": 7851,
    "Frost": 7852,
    "Darrel": 7853,
    "Amp": 7854,
    "Amphibian": 7855,
    "Version": 7856,
    "Lov": 7857,
    "Lovet": 7858,
    "Lovette": 7859,
    "Fitz": 7860,
    "Fitzpatri": 7861,
    "Fitzpatrick": 7862,
    "599": 7863,
    "2340": 7864,
    "Wins": 7865,
    "Results": 7866,
    "478": 7867,
    "Brill": 7868,
    "hop": 7869,
    "Perceptions": 7870,
    "760": 7871,
    "contest": 7872,
    "ques": 7873,
    "Inde": 7874,
    "Indeed": 7875,
    "Corpor": 7876,
    "Corporation": 7877,
    "hit": 7878,
    "100bn": 7879,
    "FD": 7880,
    "FDI": 7881,
    "beats": 7882,
    "Foundation": 7883,
    "Sector": 7884,
    "Total": 7885,
    "Cross": 7886,
    "Justin": 7887,
    "UNE": 7888,
    "Girls": 7889,
    "Mehta": 7890,
    "Partition": 7891,
    "personal": 7892,
    "eterminants": 7893,
    "S00": 7894,
    "quota": 7895,
    "pes": 7896,
    "cele": 7897,
    "aspor": 7898,
    "aspora": 7899,
    "location": 7900,
    "484": 7901,
    "dated": 7902,
    "Rach": 7903,
    "Rachel": 7904,
    "Sen": 7905,
    "Great": 7906,
    "eating": 7907,
    "Consumption": 7908,
    "Seng": 7909,
    "Sengupta": 7910,
    "Historical": 7911,
    "Kam": 7912,
    "Inn": 7913,
    "Kabaddi": 7914,
    "444": 7915,
    "chang": 7916,
    "changing": 7917,
    "856": 7918,
    "Thi": 7919,
    "Thiem": 7920,
    "Thieme": 7921,
    "Partic": 7922,
    "Partici": 7923,
    "Participles": 7924,
    "Rigvedic": 7925,
    "100505": 7926,
    "Rigveda": 7927,
    "Civi": 7928,
    "Civilization": 7929,
    "12th": 7930,
    "Upan": 7931,
    "sci": 7932,
    "Phys": 7933,
    "Bu": 7934,
    "Building": 7935,
    "Movements": 7936,
    "Baner": 7937,
    "Banerj": 7938,
    "Banerjee": 7939,
    "Chander": 7940,
    "Quarter": 7941,
    "Quarterly": 7942,
    "998": 7943,
    "Briefing": 7944,
    "510": 7945,
    "2003a": 7946,
    "Cabinet": 7947,
    "Whear": 7948,
    "Wheare": 7949,
    "Alford": 7950,
    "Beher": 7951,
    "Behera": 7952,
    "let": 7953,
    "Migl": 7954,
    "Miglani": 7955,
    "Ambig": 7956,
    "craft": 7957,
    "imports": 7958,
    "amid": 7959,
    "amidst": 7960,
    "modest": 7961,
    "hike": 7962,
    "budget": 7963,
    "Amb": 7964,
    "Sis": 7965,
    "Sisodi": 7966,
    "Sisodia": 7967,
    "Naidu": 7968,
    "Hawks": 7969,
    "Hawksworth": 7970,
    "Tiwar": 7971,
    "Tiwari": 7972,
    "2050": 7973,
    "Opportunities": 7974,
    "452": 7975,
    "Schw": 7976,
    "Schwab": 7977,
    "Competi": 7978,
    "Competiti": 7979,
    "Competitiveness": 7980,
    "Sheth": 7981,
    "Members": 7982,
    "Ob": 7983,
    "Obser": 7984,
    "Distribution": 7985,
    "Dhar": 7986,
    "Dharw": 7987,
    "Dharwad": 7988,
    "Dharwadker": 7989,
    "Pasts": 7990,
    "Problems": 7991,
    "Past": 7992,
    "Drè": 7993,
    "Drèze": 7994,
    "20180": 7995,
    "Malli": 7996,
    "Mallikar": 7997,
    "Mallikarjun": 7998,
    "Ot": 7999,
    "Otten": 8000,
    "Ottenhe": 8001,
    "Ottenheim": 8002,
    "Ottenheimer": 8003,
    "459": 8004,
    "471": 8005,
    "Reality": 8006,
    "Cultures": 8007,
    "Chic": 8008,
    "Chicago": 8009,
    "வடக": 8010,
    "தற": 8011,
    "றம": 8012,
    "ஆன": 8013,
    "வப": 8014,
    "लद": 8015,
    "ळण": 8016,
    "सदस": 8017,
    "कद": 8018,
    "ऑब": 8019,
    "रई": 8020,
    "करल": 8021,
    "टण": 8022,
    "खड़": 8023,
    "बगत": 8024,
    "१९८": 8025,
    "१४": 8026,
    "सफ": 8027,
    "slowly": 8028,
    "istance": 8029,
    "unpre": 8030,
    "unpreced": 8031,
    "unprecedent": 8032,
    "unprecedented": 8033,
    "601": 8034,
    "proper": 8035,
    "noun": 8036,
    "ɦɪ": 8037,
    "ɦɪnd": 8038,
    "ɦɪndʊ": 8039,
    "ɦɪndʊˈ": 8040,
    "ɦɪndʊˈst": 8041,
    "ɦɪndʊˈstaː": 8042,
    "ɦɪndʊˈstaːn": 8043,
    "1650": 8044,
    "Ramayana": 8045,
    "plants": 8046,
    "evolved": 8047,
    "extensive": 8048,
    "alism": 8049,
    "peop": 8050,
    "peoples": 8051,
    "gence": 8052,
    "La": 8053,
    "nomadi": 8054,
    "nomadic": 8055,
    "ethnicity": 8056,
    "visited": 8057,
    "learned": 8058,
    "Sha": 8059,
    "afterwards": 8060,
    "peas": 8061,
    "peasants": 8062,
    "frag": 8063,
    "lines": 8064,
    "seas": 8065,
    "1765": 8066,
    "1820": 8067,
    "tailed": 8068,
    "tele": 8069,
    "telegraph": 8070,
    "133": 8071,
    "gradual": 8072,
    "144": 8073,
    "litt": 8074,
    "little": 8075,
    "150": 8076,
    "153": 8077,
    "154": 8078,
    "155": 8079,
    "emerging": 8080,
    "tribut": 8081,
    "tributaries": 8082,
    "steep": 8083,
    "175": 8084,
    "entirely": 8085,
    "drive": 8086,
    "182": 8087,
    "glaci": 8088,
    "glaciers": 8089,
    "host": 8090,
    "213": 8091,
    "214": 8092,
    "Network": 8093,
    "217": 8094,
    "218": 8095,
    "wing": 8096,
    "Domin": 8097,
    "lack": 8098,
    "228": 8099,
    "sent": 8100,
    "Secular": 8101,
    "describes": 8102,
    "exclusive": 8103,
    "definition": 8104,
    "panch": 8105,
    "234": 8106,
    "Any": 8107,
    "judiciary": 8108,
    "admin": 8109,
    "241": 8110,
    "quarter": 8111,
    "259": 8112,
    "glob": 8113,
    "globally": 8114,
    "dai": 8115,
    "daily": 8116,
    "522": 8117,
    "labour": 8118,
    "stood": 8119,
    "273": 8120,
    "2030": 8121,
    "278": 8122,
    "731": 8123,
    "Nil": 8124,
    "284": 8125,
    "285": 8126,
    "288": 8127,
    "290": 8128,
    "291": 8129,
    "294": 8130,
    "297": 8131,
    "raised": 8132,
    "298": 8133,
    "299": 8134,
    "663": 8135,
    "fas": 8136,
    "faster": 8137,
    "311": 8138,
    "sharp": 8139,
    "oppo": 8140,
    "opposi": 8141,
    "opposition": 8142,
    "320": 8143,
    "322": 8144,
    "323": 8145,
    "ith": 8146,
    "326": 8147,
    "Chur": 8148,
    "Church": 8149,
    "1891": 8150,
    "334": 8151,
    "335": 8152,
    "reserved": 8153,
    "337": 8154,
    "health": 8155,
    "341": 8156,
    "342": 8157,
    "344": 8158,
    "dden": 8159,
    "Each": 8160,
    "355": 8161,
    "tat": 8162,
    "1928": 8163,
    "distinct": 8164,
    "precise": 8165,
    "366": 8166,
    "368": 8167,
    "369": 8168,
    "stone": 8169,
    "376": 8170,
    "378": 8171,
    "379": 8172,
    "suk": 8173,
    "386": 8174,
    "388": 8175,
    "1775": 8176,
    "1785": 8177,
    "395": 8178,
    "401": 8179,
    "ray": 8180,
    "spl": 8181,
    "split": 8182,
    "Iyer": 8183,
    "drawn": 8184,
    "arose": 8185,
    "1525": 8186,
    "412": 8187,
    "quite": 8188,
    "414": 8189,
    "416": 8190,
    "417": 8191,
    "419": 8192,
    "About": 8193,
    "425": 8194,
    "427": 8195,
    "430": 8196,
    "Rice": 8197,
    "months": 8198,
    "Sports": 8199,
    "Sport": 8200,
    "435": 8201,
    "436": 8202,
    "Viswana": 8203,
    "Viswanathan": 8204,
    "437": 8205,
    "1936": 8206,
    "441": 8207,
    "def": 8208,
    "inally": 8209,
    "ISO": 8210,
    "Gaṇ": 8211,
    "Gaṇar": 8212,
    "Gaṇarā": 8213,
    "Gaṇarāj": 8214,
    "Gaṇarājya": 8215,
    "considers": 8216,
    "meted": 8217,
    "Chandal": 8218,
    "Chandalas": 8219,
    "experienced": 8220,
    "periods": 8221,
    "contradict": 8222,
    "assertions": 8223,
    "reaction": 8224,
    "millennia": 8225,
    "606": 8226,
    "assigns": 8227,
    "hotspot": 8228,
    "bio": 8229,
    "biogeographical": 8230,
    "MP": 8231,
    "MPs": 8232,
    "433": 8233,
    "Statist": 8234,
    "Statista": 8235,
    "Essential": 8236,
    "51287": 8237,
    "512873": 8238,
    "Graç": 8239,
    "Graça": 8240,
    "Heads": 8241,
    "6577": 8242,
    "65771": 8243,
    "Rhind": 8244,
    "Form": 8245,
    "Formats": 8246,
    "93326": 8247,
    "Bradn": 8248,
    "Bradnoc": 8249,
    "Bradnock": 8250,
    "40511": 8251,
    "Compact": 8252,
    "7566": 8253,
    "985": 8254,
    "9859": 8255,
    "877": 8256,
    "87779": 8257,
    "Officially": 8258,
    "Compl": 8259,
    "Complete": 8260,
    "Defini": 8261,
    "Definitive": 8262,
    "View": 8263,
    "DK": 8264,
    "4654": 8265,
    "5528": 8266,
    "Worldwide": 8267,
    "Intergovernment": 8268,
    "Intergovernmental": 8269,
    "Organiz": 8270,
    "Organizations": 8271,
    "CQ": 8272,
    "726": 8273,
    "4522": 8274,
    "Even": 8275,
    "eradi": 8276,
    "eradic": 8277,
    "eradicating": 8278,
    "securing": 8279,
    "struct": 8280,
    "structures": 8281,
    "governance": 8282,
    "sustaining": 8283,
    "singular": 8284,
    "idea": 8285,
    "forged": 8286,
    "representative": 8287,
    "endeavour": 8288,
    "endeavours": 8289,
    "fathers": 8290,
    "Pate": 8291,
    "Patel": 8292,
    "labours": 8293,
    "embodied": 8294,
    "rein": 8295,
    "reinforced": 8296,
    "regular": 8297,
    "assemb": 8298,
    "assemblies": 8299,
    "underp": 8300,
    "underpin": 8301,
    "underpinned": 8302,
    "fundament": 8303,
    "fundamentally": 8304,
    "anom": 8305,
    "anomaly": 8306,
    "apparent": 8307,
    "dura": 8308,
    "durability": 8309,
    "dynast": 8310,
    "dynasty": 8311,
    "periodi": 8312,
    "periodically": 8313,
    "occasionally": 8314,
    "pun": 8315,
    "punc": 8316,
    "punctu": 8317,
    "punctuated": 8318,
    "remark": 8319,
    "remarkable": 8320,
    "commit": 8321,
    "commitment": 8322,
    "Mt": 8323,
    "colonization": 8324,
    "originating": 8325,
    "Coalescence": 8326,
    "beings": 8327,
    "Then": 8328,
    "tiny": 8329,
    "virtually": 8330,
    "Schol": 8331,
    "Scholars": 8332,
    "Pen": 8333,
    "Penins": 8334,
    "Peninsula": 8335,
    "prior": 8336,
    "unsuccessful": 8337,
    "emigrations": 8338,
    "extended": 8339,
    "habitable": 8340,
    "encoun": 8341,
    "encountered": 8342,
    "channel": 8343,
    "warm": 8344,
    "productive": 8345,
    "Gul": 8346,
    "Gulf": 8347,
    "Event": 8348,
    "Eventually": 8349,
    "028": 8350,
    "crafted": 8351,
    "poetic": 8352,
    "intended": 8353,
    "recital": 8354,
    "invoc": 8355,
    "invocation": 8356,
    "scholarly": 8357,
    "agrees": 8358,
    "Mitann": 8359,
    "Mitanni": 8360,
    "Syri": 8361,
    "Syria": 8362,
    "Iraq": 8363,
    "1450": 8364,
    "1350": 8365,
    "unbroken": 8366,
    "student": 8367,
    "formalised": 8368,
    "ensured": 8369,
    "impec": 8370,
    "impecc": 8371,
    "impeccable": 8372,
    "something": 8373,
    "tap": 8374,
    "tape": 8375,
    "tonal": 8376,
    "accent": 8377,
    "Japanese": 8378,
    "RV": 8379,
    "massive": 8380,
    "Chronology": 8381,
    "Atharva": 8382,
    "Knowledge": 8383,
    "Verses": 8384,
    "seeds": 8385,
    "Gods": 8386,
    "Rudra": 8387,
    "roles": 8388,
    "lesser": 8389,
    "principal": 8390,
    "gvedic": 8391,
    "Indra": 8392,
    "dimin": 8393,
    "diminished": 8394,
    "meaningfully": 8395,
    "denote": 8396,
    "sacrificial": 8397,
    "belonging": 8398,
    "involve": 8399,
    "offering": 8400,
    "receiving": 8401,
    "bles": 8402,
    "blessing": 8403,
    "poly": 8404,
    "polytheism": 8405,
    "adhere": 8406,
    "mono": 8407,
    "monotheism": 8408,
    "emanations": 8409,
    "manifestations": 8410,
    "initiation": 8411,
    "rites": 8412,
    "passage": 8413,
    "dras": 8414,
    "drastically": 8415,
    "shortened": 8416,
    "priestly": 8417,
    "continuity": 8418,
    "resource": 8419,
    "individuals": 8420,
    "developments": 8421,
    "Si": 8422,
    "Sie": 8423,
    "Sievers": 8424,
    "Rest": 8425,
    "Restoring": 8426,
    "21267": 8427,
    "Miles": 8428,
    "Georgi": 8429,
    "Georgians": 8430,
    "Prince": 8431,
    "Aldrish": 8432,
    "McC": 8433,
    "McCre": 8434,
    "McCreery": 8435,
    "Cind": 8436,
    "Cindy": 8437,
    "Crowns": 8438,
    "Colon": 8439,
    "Colonies": 8440,
    "Monarchi": 8441,
    "Monarchies": 8442,
    "Overse": 8443,
    "Overseas": 8444,
    "0088": 8445,
    "Embree": 8446,
    "Ains": 8447,
    "Ainslie": 8448,
    "Stephen": 8449,
    "Bary": 8450,
    "Theod": 8451,
    "Theodore": 8452,
    "Takes": 8453,
    "Root": 8454,
    "Moderates": 8455,
    "Sources": 8456,
    "064": 8457,
    "06414": 8458,
    "arise": 8459,
    "Chiri": 8460,
    "Chiriy": 8461,
    "Chiriyank": 8462,
    "Chiriyankand": 8463,
    "Chiriyankandath": 8464,
    "58620": 8465,
    "forem": 8466,
    "foremost": 8467,
    "Chel": 8468,
    "cat": 8469,
    "7172": 8470,
    "0139": 8471,
    "scription": 8472,
    "required": 8473,
    "Dwi": 8474,
    "Dwij": 8475,
    "Dwijendra": 8476,
    "Rethin": 8477,
    "Rethinking": 8478,
    "49034": 8479,
    "Paturi": 8480,
    "Hare": 8481,
    "Hod": 8482,
    "Hodge": 8483,
    "Bodi": 8484,
    "Bodie": 8485,
    "Cults": 8486,
    "Moralistic": 8487,
    "Mythical": 8488,
    "Mysticism": 8489,
    "Leaf": 8490,
    "890": 8491,
    "89051": 8492,
    "occurs": 8493,
    "Later": 8494,
    "Hindū": 8495,
    "alternative": 8496,
    "Americas": 8497,
    "decreed": 8498,
    "confl": 8499,
    "terri": 8500,
    "terrible": 8501,
    "ninete": 8502,
    "nineteenth": 8503,
    "relu": 8504,
    "reluct": 8505,
    "reluctant": 8506,
    "regim": 8507,
    "regime": 8508,
    "deployed": 8509,
    "technical": 8510,
    "exper": 8511,
    "experts": 8512,
    "Entre": 8513,
    "Marsh": 8514,
    "Les": 8515,
    "Leslie": 8516,
    "fest": 8517,
    "festy": 8518,
    "bold": 8519,
    "boldy": 8520,
    "defines": 8521,
    "semi": 8522,
    "Probably": 8523,
    "prevented": 8524,
    "aridity": 8525,
    "noteworth": 8526,
    "noteworthy": 8527,
    "gaps": 8528,
    "sand": 8529,
    "topography": 8530,
    "Ranges": 8531,
    "folded": 8532,
    "metam": 8533,
    "metamor": 8534,
    "metamorph": 8535,
    "metamorphosed": 8536,
    "Archaean": 8537,
    "rocks": 8538,
    "inho": 8539,
    "inhosp": 8540,
    "inhospit": 8541,
    "inhospitable": 8542,
    "promising": 8543,
    "corrid": 8544,
    "corridor": 8545,
    "foothills": 8546,
    "Mountains": 8547,
    "chok": 8548,
    "choke": 8549,
    "sat": 8550,
    "streams": 8551,
    "running": 8552,
    "spur": 8553,
    "flowed": 8554,
    "Jum": 8555,
    "Jumna": 8556,
    "eleph": 8557,
    "elephant": 8558,
    "intersected": 8559,
    "capitals": 8560,
    "Vib": 8561,
    "Vibha": 8562,
    "Average": 8563,
    "temperature": 8564,
    "degrees": 8565,
    "Cel": 8566,
    "Celsi": 8567,
    "Celsius": 8568,
    "Seth": 8569,
    "Sethi": 8570,
    "Nit": 8571,
    "Nitin": 8572,
    "warming": 8573,
    "heat": 8574,
    "Vive": 8575,
    "Vivek": 8576,
    "Mano": 8577,
    "Manoj": 8578,
    "Inves": 8579,
    "Investi": 8580,
    "Investigation": 8581,
    "spati": 8582,
    "spatiot": 8583,
    "spatiotem": 8584,
    "spatiotempor": 8585,
    "spatiotemporal": 8586,
    "mesos": 8587,
    "mesoscale": 8588,
    "drought": 8589,
    "scenari": 8590,
    "scenario": 8591,
    "Hydr": 8592,
    "Hydrology": 8593,
    "2018J": 8594,
    "2018JHyd": 8595,
    "489G": 8596,
    "jhyd": 8597,
    "jhydrol": 8598,
    "012": 8599,
    "Megadiverse": 8600,
    "Discoveries": 8601,
    "Records": 8602,
    "Puri": 8603,
    "iis": 8604,
    "iisc": 8605,
    "ernet": 8606,
    "Verteb": 8607,
    "Vertebrate": 8608,
    "Faunal": 8609,
    "6605": 8610,
    "Cover": 8611,
    "UTs": 8612,
    "rain": 8613,
    "shadow": 8614,
    "avail": 8615,
    "availability": 8616,
    "soil": 8617,
    "Much": 8618,
    "sav": 8619,
    "savann": 8620,
    "savannah": 8621,
    "Anup": 8622,
    "Anupam": 8623,
    "Conci": 8624,
    "Concili": 8625,
    "Conciliation": 8626,
    "567710": 8627,
    "successfully": 8628,
    "medicinal": 8629,
    "knowledge": 8630,
    "Hughes": 8631,
    "Kingdoms": 8632,
    "07480": 8633,
    "leafy": 8634,
    "abund": 8635,
    "abundance": 8636,
    "Mew": 8637,
    "Mewari": 8638,
    "landscap": 8639,
    "landscape": 8640,
    "refinements": 8641,
    "unattain": 8642,
    "unattainable": 8643,
    "Let": 8644,
    "Letting": 8645,
    "Pic": 8646,
    "Pictur": 8647,
    "Pictures": 8648,
    "Speak": 8649,
    "Image": 8650,
    "Appro": 8651,
    "Approach": 8652,
    "Mythological": 8653,
    "Imager": 8654,
    "Imagery": 8655,
    "Costel": 8656,
    "Costello": 8657,
    "Kielt": 8658,
    "Greg": 8659,
    "Gregg": 8660,
    "Jar": 8661,
    "Jarmer": 8662,
    "Seals": 8663,
    "Seal": 8664,
    "Sealing": 8665,
    "Ae": 8666,
    "Aege": 8667,
    "Aegean": 8668,
    "17351": 8669,
    "centa": 8670,
    "centaurs": 8671,
    "wavy": 8672,
    "horizon": 8673,
    "horizontal": 8674,
    "horn": 8675,
    "horns": 8676,
    "markhor": 8677,
    "heavy": 8678,
    "appears": 8679,
    "bov": 8680,
    "bovine": 8681,
    "goat": 8682,
    "depic": 8683,
    "depicted": 8684,
    "arbour": 8685,
    "Gw": 8686,
    "Gwyn": 8687,
    "Gwynne": 8688,
    "6005": 8689,
    "Sakyam": 8690,
    "Sakyamuni": 8691,
    "peepal": 8692,
    "Molur": 8693,
    "Fis": 8694,
    "Fischer": 8695,
    "Johann": 8696,
    "ITIS": 8697,
    "Rav": 8698,
    "Ravich": 8699,
    "Ravichand": 8700,
    "Ravichandran": 8701,
    "Vasude": 8702,
    "Vasudevan": 8703,
    "Vijayak": 8704,
    "Vijayakumar": 8705,
    "Srinivas": 8706,
    "Srinivasul": 8707,
    "Srinivasulu": 8708,
    "Dasaram": 8709,
    "Dasaramji": 8710,
    "assess": 8711,
    "assessment": 8712,
    "T54584A86": 8713,
    "T54584A8654": 8714,
    "T54584A865439": 8715,
    "T54584A86543952": 8716,
    "T54584A11": 8717,
    "T54584A1115": 8718,
    "T54584A111554": 8719,
    "T54584A11155448": 8720,
    "Gün": 8721,
    "Günther": 8722,
    "1876": 8723,
    "Ir": 8724,
    "Irby": 8725,
    "Biology": 8726,
    "29105": 8727,
    "inten": 8728,
    "intensively": 8729,
    "explo": 8730,
    "exploited": 8731,
    "interspers": 8732,
    "interspersed": 8733,
    "rolling": 8734,
    "milli": 8735,
    "millions": 8736,
    "predator": 8737,
    "Always": 8738,
    "keen": 8739,
    "hunters": 8740,
    "Mogh": 8741,
    "Moghul": 8742,
    "tame": 8743,
    "cheetahs": 8744,
    "chase": 8745,
    "exists": 8746,
    "Sites": 8747,
    "Revi": 8748,
    "Reviving": 8749,
    "Roar": 8750,
    "Sá": 8751,
    "Sáez": 8752,
    "Lawrence": 8753,
    "Aseem": 8754,
    "Aseema": 8755,
    "cycles": 8756,
    "s000": 8757,
    "s00071": 8758,
    "s000712340": 8759,
    "s00071234099": 8760,
    "s0007123409990": 8761,
    "s0007123409990226": 8762,
    "Passes": 8763,
    "Mash": 8764,
    "Mashal": 8765,
    "Muji": 8766,
    "Mujib": 8767,
    "Term": 8768,
    "Clos": 8769,
    "Closer": 8770,
    "Expected": 8771,
    "Din": 8772,
    "Dink": 8773,
    "Dinkel": 8774,
    "Genes": 8775,
    "Genesis": 8776,
    "33613": 8777,
    "Guy": 8778,
    "Guyot": 8779,
    "Rech": 8780,
    "Rechard": 8781,
    "Beren": 8782,
    "Berenice": 8783,
    "Shad": 8784,
    "Shadow": 8785,
    "1910": 8786,
    "17679": 8787,
    "invad": 8788,
    "invading": 8789,
    "NEF": 8790,
    "NEFA": 8791,
    "PRC": 8792,
    "recognise": 8793,
    "possession": 8794,
    "hoped": 8795,
    "once": 8796,
    "shadowing": 8797,
    "compe": 8798,
    "competition": 8799,
    "Chub": 8800,
    "Chubb": 8801,
    "Andrew": 8802,
    "Gol": 8803,
    "Golley": 8804,
    "Jane": 8805,
    "Ja": 8806,
    "Jaiv": 8807,
    "Jaivan": 8808,
    "Lind": 8809,
    "Linda": 8810,
    "Strange": 8811,
    "76046": 8812,
    "ensuing": 8813,
    "escal": 8814,
    "escalation": 8815,
    "culminated": 8816,
    "Zed": 8817,
    "Zedong": 8818,
    "unil": 8819,
    "unilater": 8820,
    "unilaterally": 8821,
    "withdrawing": 8822,
    "underline": 8823,
    "insult": 8824,
    "cas": 8825,
    "casual": 8826,
    "casualties": 8827,
    "quo": 8828,
    "unf": 8829,
    "unfav": 8830,
    "unfavou": 8831,
    "unfavourable": 8832,
    "controls": 8833,
    "nationalistic": 8834,
    "commentariat": 8835,
    "vivid": 8836,
    "consciousness": 8837,
    "Lint": 8838,
    "Lintner": 8839,
    "Bertil": 8840,
    "Collision": 8841,
    "Course": 8842,
    "Roof": 8843,
    "909": 8844,
    "909163": 8845,
    "Lin": 8846,
    "Bia": 8847,
    "Biao": 8848,
    "charge": 8849,
    "ultimate": 8850,
    "ultra": 8851,
    "lef": 8852,
    "leftist": 8853,
    "whate": 8854,
    "whatever": 8855,
    "voices": 8856,
    "purges": 8857,
    "silent": 8858,
    "Medcalf": 8859,
    "Rory": 8860,
    "5077": 8861,
    "perspective": 8862,
    "shoc": 8863,
    "shocking": 8864,
    "betra": 8865,
    "betrayal": 8866,
    "principles": 8867,
    "surprise": 8868,
    "personally": 8869,
    "broke": 8870,
    "Portents": 8871,
    "Hop": 8872,
    "Hope": 8873,
    "Woodrow": 8874,
    "Wil": 8875,
    "Wilson": 8876,
    "655": 8877,
    "65566": 8878,
    "suff": 8879,
    "suffered": 8880,
    "debac": 8881,
    "debacle": 8882,
    "hands": 8883,
    "outcome": 8884,
    "conflict": 8885,
    "consequences": 8886,
    "inflic": 8887,
    "inflicted": 8888,
    "question": 8889,
    "deeply": 8890,
    "precepts": 8891,
    "Ragha": 8892,
    "Raghavan": 8893,
    "Srinath": 8894,
    "Miss": 8895,
    "Missed": 8896,
    "Opportunity": 8897,
    "Zhou": 8898,
    "Enlai": 8899,
    "Bhagav": 8900,
    "Bhagavan": 8901,
    "Manu": 8902,
    "Carol": 8903,
    "Carolina": 8904,
    "4696": 8905,
    "5117": 8906,
    "forward": 8907,
    "undertaken": 8908,
    "mistaken": 8909,
    "cauti": 8910,
    "cautious": 8911,
    "dealing": 8912,
    "Mos": 8913,
    "Mosc": 8914,
    "Moscow": 8915,
    "proxim": 8916,
    "proximity": 8917,
    "misj": 8918,
    "misjud": 8919,
    "misjudg": 8920,
    "misjudgments": 8921,
    "culminate": 8922,
    "Chell": 8923,
    "Chellane": 8924,
    "Chellaney": 8925,
    "Jugg": 8926,
    "Juggern": 8927,
    "Juggernaut": 8928,
    "acknow": 8929,
    "acknowled": 8930,
    "acknowledg": 8931,
    "acknowledgement": 8932,
    "purpo": 8933,
    "purpose": 8934,
    "facilit": 8935,
    "facilitating": 8936,
    "vertig": 8937,
    "vertigin": 8938,
    "vertiginous": 8939,
    "Nath": 8940,
    "Nathu": 8941,
    "bloody": 8942,
    "artill": 8943,
    "artillery": 8944,
    "duels": 8945,
    "beat": 8946,
    "attacking": 8947,
    "xxv": 8948,
    "Koch": 8949,
    "Kochhar": 8950,
    "Rakes": 8951,
    "Rakesh": 8952,
    "pandemic": 8953,
    "shrin": 8954,
    "shrinks": 8955,
    "spreads": 8956,
    "sees": 8957,
    "Remitt": 8958,
    "Remittances": 8959,
    "Expor": 8960,
    "Exporters": 8961,
    "Get": 8962,
    "Wider": 8963,
    "Reach": 8964,
    "House": 8965,
    "Household": 8966,
    "Households": 8967,
    "NPIS": 8968,
    "NPISH": 8969,
    "NPISHs": 8970,
    "Rana": 8971,
    "dair": 8972,
    "dairy": 8973,
    "livelihood": 8974,
    "Nearly": 8975,
    "marginal": 8976,
    "milching": 8977,
    "Nass": 8978,
    "Nasscom": 8979,
    "Pharma": 8980,
    "Brand": 8981,
    "Equity": 8982,
    "briefing": 8983,
    "utki": 8984,
    "biosp": 8985,
    "biospect": 8986,
    "biospectrum": 8987,
    "Differd": 8988,
    "Differding": 8989,
    "Capacity": 8990,
    "Crosses": 8991,
    "GW": 8992,
    "NDT": 8993,
    "NDTV": 8994,
    "USA": 8995,
    "USAID": 8996,
    "Greenhouse": 8997,
    "Gas": 8998,
    "UNEP": 8999,
    "Garof": 9000,
    "Garofoli": 9001,
    "Gi": 9002,
    "Gio": 9003,
    "Gioac": 9004,
    "Gioacchin": 9005,
    "Gioacchino": 9006,
    "Ground": 9007,
    "Clust": 9008,
    "Clusters": 9009,
    "Regions": 9010,
    "Economies": 9011,
    "984": 9012,
    "98422": 9013,
    "survey_": 9014,
    "Mudi": 9015,
    "Mudit": 9016,
    "Sham": 9017,
    "Shamika": 9018,
    "fourfold": 9019,
    "mere": 9020,
    "merely": 9021,
    "reflection": 9022,
    "wors": 9023,
    "dang": 9024,
    "danger": 9025,
    "dangerous": 9026,
    "trend": 9027,
    "gone": 9028,
    "statistically": 9029,
    "officials": 9030,
    "say": 9031,
    "skew": 9032,
    "skewed": 9033,
    "better": 9034,
    "medical": 9035,
    "boys": 9036,
    "released": 9037,
    "Mond": 9038,
    "Monday": 9039,
    "stop": 9040,
    "children": 9041,
    "girl": 9042,
    "Trived": 9043,
    "Trivedi": 9044,
    "Missing": 9045,
    "abortion": 9046,
    "fu": 9047,
    "fuels": 9048,
    "patriarchy": 9049,
    "abuse": 9050,
    "doctors": 9051,
    "disclose": 9052,
    "fet": 9053,
    "fetus": 9054,
    "Conception": 9055,
    "Natal": 9056,
    "Diagn": 9057,
    "Diagnos": 9058,
    "Diagnostic": 9059,
    "Techniques": 9060,
    "ease": 9061,
    "ordering": 9062,
    "portable": 9063,
    "ultras": 9064,
    "ultrasound": 9065,
    "mach": 9066,
    "machines": 9067,
    "alive": 9068,
    "Agglomerations": 9069,
    "mala": 9070,
    "ities": 9071,
    "Christo": 9072,
    "Christoph": 9073,
    "Christopher": 9074,
    "jit": 9075,
    "Kh": 9076,
    "morn": 9077,
    "morning": 9078,
    "alai": 9079,
    "465": 9080,
    "469": 9081,
    "belie": 9082,
    "believed": 9083,
    "You": 9084,
    "Fe": 9085,
    "Pathan": 9086,
    "Pathania": 9087,
    "Rajni": 9088,
    "bang": 9089,
    "bangladesh": 9090,
    "bangladeshsoci": 9091,
    "bangladeshsociology": 9092,
    "Sociology": 9093,
    "Natarajan": 9094,
    "Dandap": 9095,
    "Dandapani": 9096,
    "Extra": 9097,
    "Extracts": 9098,
    "Reports": 9099,
    "Determinants": 9100,
    "Schooling": 9101,
    "S00220": 9102,
    "S0022050": 9103,
    "S0022050709": 9104,
    "S0022050709000": 9105,
    "S0022050709000400": 9106,
    "studyin": 9107,
    "studyinindia": 9108,
    "HRD": 9109,
    "varsities": 9110,
    "implement": 9111,
    "category": 9112,
    "UD": 9113,
    "UDIS": 9114,
    "UDISE": 9115,
    "Dashboard": 9116,
    "dashboard": 9117,
    "udise": 9118,
    "udiseplus": 9119,
    "achieves": 9120,
    "Jay": 9121,
    "Jayap": 9122,
    "Jayapal": 9123,
    "Jayapalan": 9124,
    "Distribut": 9125,
    "Distributors": 9126,
    "7156": 9127,
    "substantial": 9128,
    "Chan": 9129,
    "Margar": 9130,
    "Margaret": 9131,
    "celebrates": 9132,
    "review": 9133,
    "CR": 9134,
    "unique": 9135,
    "ABC": 9136,
    "Ritual": 9137,
    "Corn": 9138,
    "wise": 9139,
    "characteristics": 9140,
    "necess": 9141,
    "oper": 9142,
    "Hal": 9143,
    "sides": 9144,
    "Dawn": 9145,
    "revision": 9146,
    "nu": 9147,
    "Arts": 9148,
    "diaspora": 9149,
    "Alka": 9150,
    "Alkaz": 9151,
    "Alkazi": 9152,
    "Rosh": 9153,
    "Roshen": 9154,
    "Costume": 9155,
    "Rahman": 9156,
    "Abd": 9157,
    "Abdur": 9158,
    "Interaction": 9159,
    "565": 9160,
    "565789": 9161,
    "1272": 9162,
    "774": 9163,
    "Platts": 9164,
    "Thomp": 9165,
    "Thompson": 9166,
    "1884": 9167,
    "dictionary": 9168,
    "updated": 9169,
    "Shuk": 9170,
    "Shukla": 9171,
    "Prav": 9172,
    "Pravina": 9173,
    "Grace": 9174,
    "Moons": 9175,
    "Adorn": 9176,
    "Adornment": 9177,
    "Body": 9178,
    "021": 9179,
    "02121": 9180,
    "Reak": 9181,
    "Reaktion": 9182,
    "780": 9183,
    "78023": 9184,
    "Panjab": 9185,
    "Panjabi": 9186,
    "Camel": 9187,
    "Camellia": 9188,
    "Curries": 9189,
    "Schust": 9190,
    "Schuster": 9191,
    "80383": 9192,
    "naan": 9193,
    "Chapatis": 9194,
    "milled": 9195,
    "wheat": 9196,
    "atta": 9197,
    "rolled": 9198,
    "rounds": 9199,
    "fat": 9200,
    "oil": 9201,
    "sli": 9202,
    "slightly": 9203,
    "curved": 9204,
    "griddle": 9205,
    "tav": 9206,
    "tava": 9207,
    "Fle": 9208,
    "Fleet": 9209,
    "Yeas": 9210,
    "Yeasts": 9211,
    "Fer": 9212,
    "Fermented": 9213,
    "Foods": 9214,
    "Bever": 9215,
    "Beverages": 9216,
    "Satyan": 9217,
    "Satyanar": 9218,
    "Satyanarayana": 9219,
    "Kun": 9220,
    "Kunze": 9221,
    "Yeast": 9222,
    "Applic": 9223,
    "Applications": 9224,
    "8292": 9225,
    "acid": 9226,
    "bacter": 9227,
    "bacterial": 9228,
    "fermentation": 9229,
    "coar": 9230,
    "coarse": 9231,
    "coarsely": 9232,
    "deh": 9233,
    "dehul": 9234,
    "dehulled": 9235,
    "cakes": 9236,
    "soft": 9237,
    "spong": 9238,
    "spongy": 9239,
    "desi": 9240,
    "desirable": 9241,
    "flavour": 9242,
    "Dosa": 9243,
    "grounded": 9244,
    "thinner": 9245,
    "fried": 9246,
    "crisp": 9247,
    "Jhal": 9248,
    "Jhala": 9249,
    "Angma": 9250,
    "Patronage": 9251,
    "Aes": 9252,
    "Aesthe": 9253,
    "Aesthetics": 9254,
    "Princely": 9255,
    "31657": 9256,
    "Turkic": 9257,
    "manner": 9258,
    "merged": 9259,
    "signature": 9260,
    "fusion": 9261,
    "pilau": 9262,
    "spice": 9263,
    "stew": 9264,
    "Rogan": 9265,
    "Josh": 9266,
    "modes": 9267,
    "Such": 9268,
    "newer": 9269,
    "trends": 9270,
    "condi": 9271,
    "condiments": 9272,
    "pastries": 9273,
    "quince": 9274,
    "jams": 9275,
    "alongside": 9276,
    "achars": 9277,
    "swe": 9278,
    "sweet": 9279,
    "limes": 9280,
    "curds": 9281,
    "relish": 9282,
    "relishes": 9283,
    "Mughlai": 9284,
    "meals": 9285,
    "Sahak": 9286,
    "Sahakian": 9287,
    "Marly": 9288,
    "Marlyne": 9289,
    "Salom": 9290,
    "Saloma": 9291,
    "Cz": 9292,
    "Czar": 9293,
    "Czarina": 9294,
    "Erk": 9295,
    "Erkman": 9296,
    "Suren": 9297,
    "pattern": 9298,
    "patterns": 9299,
    "31050": 9300,
    "Colling": 9301,
    "Collingham": 9302,
    "Eliz": 9303,
    "Eliza": 9304,
    "Elizabe": 9305,
    "Elizabeth": 9306,
    "Tale": 9307,
    "Cooks": 9308,
    "Conqu": 9309,
    "Conquer": 9310,
    "Conquerors": 9311,
    "532001": 9312,
    "Jayan": 9313,
    "Jayanta": 9314,
    "Freed": 9315,
    "Freedman": 9316,
    "Chaplin": 9317,
    "Joyce": 9318,
    "Albal": 9319,
    "Albala": 9320,
    "Place": 9321,
    "27745": 9322,
    "Nandy": 9323,
    "Ashis": 9324,
    "Preli": 9325,
    "Prelimin": 9326,
    "Preliminary": 9327,
    "1177": 9328,
    "02627": 9329,
    "0262728": 9330,
    "026272800": 9331,
    "026272800404": 9332,
    "0262728004042760": 9333,
    "Candi": 9334,
    "Candidates": 9335,
    "R13": 9336,
    "Draw": 9337,
    "Draws": 9338,
    "Clinch": 9339,
    "Clinches": 9340,
    "Rematch": 9341,
    "Carls": 9342,
    "Carlsen": 9343,
    "Shores": 9344,
    "Lori": 9345,
    "Teens": 9346,
    "Compass": 9347,
    "Point": 9348,
    "7565": 9349,
    "2063": 9350,
    "craz": 9351,
    "crazy": 9352,
    "Hoc": 9353,
    "Hockey": 9354,
    "Bibli": 9355,
    "8444": 9356,
    "0833": 9357,
    "Robins": 9358,
    "Robinson": 9359,
    "Nam": 9360,
    "Naming": 9361,
    "names": 9362,
    "0856": 9363,
    "0856400": 9364,
    "08564003": 9365,
    "08564003200": 9366,
    "0856400320000": 9367,
    "08564003200006": 9368,
    "0856400320000639": 9369,
    "085640032000063977": 9370,
    "Two": 9371,
    "Multidisciplinary": 9372,
    "samaj": 9373,
    "3717": 9374,
    "sindu": 9375,
    "Iranian": 9376,
    "Mary": 9377,
    "Boyce": 9378,
    "Ily": 9379,
    "Ilya": 9380,
    "Ger": 9381,
    "Gersh": 9382,
    "Gershev": 9383,
    "Gershevitch": 9384,
    "Henn": 9385,
    "Henning": 9386,
    "Lund": 9387,
    "Humph": 9388,
    "Humphries": 9389,
    "85331": 9390,
    "51750": 9391,
    "8731": 9392,
    "873113": 9393,
    "Robin": 9394,
    "Ruth": 9395,
    "6500": 9396,
    "846": 9397,
    "84697": 9398,
    "Unmaking": 9399,
    "38173": 9400,
    "Wend": 9401,
    "Wendy": 9402,
    "936009": 9403,
    "43878": 9404,
    "32920": 9405,
    "Syntax": 9406,
    "Seman": 9407,
    "Semantics": 9408,
    "Adjectival": 9409,
    "Verb": 9410,
    "Forms": 9411,
    "68225": 9412,
    "31738": 9413,
    "1053": 9414,
    "105322": 9415,
    "Stephani": 9416,
    "Stephanie": 9417,
    "Joel": 9418,
    "0633": 9419,
    "063339": 9420,
    "Ax": 9421,
    "Axel": 9422,
    "Patrick": 9423,
    "Oli": 9424,
    "Olivel": 9425,
    "Olivelle": 9426,
    "Donald": 9427,
    "Davis": 9428,
    "Dharma": 9429,
    "Dharmaś": 9430,
    "Dharmaśā": 9431,
    "Dharmaśāstra": 9432,
    "100709": 9433,
    "88286": 9434,
    "evolution": 9435,
    "Populations": 9436,
    "Biological": 9437,
    "Linguis": 9438,
    "Linguistics": 9439,
    "Gene": 9440,
    "Genetics": 9441,
    "Rowman": 9442,
    "Alt": 9443,
    "Altami": 9444,
    "Altamira": 9445,
    "7591": 9446,
    "0172": 9447,
    "69129": 9448,
    "90425": 9449,
    "Stone": 9450,
    "1677": 9451,
    "98128": 9452,
    "1978": 9453,
    "Toward": 9454,
    "Constitutionalism": 9455,
    "Look": 9456,
    "Looking": 9457,
    "Back": 9458,
    "Ahead": 9459,
    "9509": 9460,
    "Upani": 9461,
    "Upaniș": 9462,
    "Upanișads": 9463,
    "companion": 9464,
    "21535": 9465,
    "5166": 9466,
    "516678": 9467,
    "Urbanism": 9468,
    "Reviews": 9469,
    "2005E": 9470,
    "2005ESR": 9471,
    "2005ESRv": 9472,
    "169A": 9473,
    "earsci": 9474,
    "earscire": 9475,
    "earscirev": 9476,
    "005": 9477,
    "Mahu": 9478,
    "Mahua": 9479,
    "Savar": 9480,
    "Savarim": 9481,
    "Savarimuth": 9482,
    "Savarimuthu": 9483,
    "Fundament": 9484,
    "Fundamentals": 9485,
    "87051": 9486,
    "1967Ge": 9487,
    "1967Geo": 9488,
    "1967GeoR": 9489,
    "1967GeoRv": 9490,
    "373C": 9491,
    "Amendments": 9492,
    "Made": 9493,
    "Holmes": 9494,
    "Princi": 9495,
    "Principles": 9496,
    "Physical": 9497,
    "Geology": 9498,
    "7487": 9499,
    "4381": 9500,
    "Afforest": 9501,
    "Afforestation": 9502,
    "Arid": 9503,
    "Zones": 9504,
    "3352": 9505,
    "Sanil": 9506,
    "Pathak": 9507,
    "Ped": 9508,
    "Pedne": 9509,
    "Pednekar": 9510,
    "Raju": 9511,
    "Gowth": 9512,
    "Gowthaman": 9513,
    "530": 9514,
    "Sean": 9515,
    "Lu": 9516,
    "Lucy": 9517,
    "Kent": 9518,
    "Kentley": 9519,
    "Palmer": 9520,
    "Colin": 9521,
    "Boats": 9522,
    "43130": 9523,
    "1423": 9524,
    "89577": 9525,
    "625": 9526,
    "Giri": 9527,
    "Holoc": 9528,
    "Holocene": 9529,
    "Tectonic": 9530,
    "Stress": 9531,
    "Plains": 9532,
    "Ishwar": 9533,
    "Vertebrates": 9534,
    "Biogeography": 9535,
    "bv": 9536,
    "2333": 9537,
    "Bot": 9538,
    "Botan": 9539,
    "Botanical": 9540,
    "Account": 9541,
    "Est": 9542,
    "Establish": 9543,
    "Establishment": 9544,
    "Palae": 9545,
    "Palaeobi": 9546,
    "Palaeobiogeography": 9547,
    "Ordo": 9548,
    "Ordovic": 9549,
    "Ordovician": 9550,
    "Mesozoic": 9551,
    "Cen": 9552,
    "Cenozoic": 9553,
    "Radi": 9554,
    "Radiations": 9555,
    "Publication": 9556,
    "86239": 9557,
    "Gondwan": 9558,
    "Gondwanan": 9559,
    "Origin": 9560,
    "Tropical": 9561,
    "Biota": 9562,
    "792": 9563,
    "71106": 9564,
    "711062": 9565,
    "8317": 9566,
    "0194": 9567,
    "Suman": 9568,
    "Sumanta": 9569,
    "Civilising": 9570,
    "3116": 9571,
    "3119": 9572,
    "Ship": 9573,
    "Shipra": 9574,
    "85402": 9575,
    "Resili": 9576,
    "Resilience": 9577,
    "Persistent": 9578,
    "Dura": 9579,
    "Durable": 9580,
    "Ide": 9581,
    "Idea": 9582,
    "7146": 9583,
    "8026": 9584,
    "Win": 9585,
    "Crowning": 9586,
    "Glory": 9587,
    "Ascend": 9588,
    "Ascendancy": 9589,
    "Coalition": 9590,
    "092": 9591,
    "Effective": 9592,
    "Space": 9593,
    "Competition": 9594,
    "Identities": 9595,
    "014": 9596,
    "014365": 9597,
    "014365998": 9598,
    "014365998143": 9599,
    "01436599814325": 9600,
    "Decent": 9601,
    "Decentred": 9602,
    "Polity": 9603,
    "Ayres": 9604,
    "Olden": 9605,
    "Oldenbur": 9606,
    "Oldenburg": 9607,
    "Quick": 9608,
    "Quickening": 9609,
    "Pace": 9610,
    "Sharpe": 9611,
    "7656": 9612,
    "081": 9613,
    "0812": 9614,
    "Recognised": 9615,
    "Laws": 9616,
    "Greenwood": 9617,
    "8371": 9618,
    "2813": 9619,
    "Yog": 9620,
    "Yogendra": 9621,
    "Alternative": 9622,
    "Burt": 9623,
    "Longest": 9624,
    "Doc": 9625,
    "Document": 9626,
    "Judiciary": 9627,
    "Try": 9628,
    "Tryst": 9629,
    "0744": 9630,
    "Parliamentary": 9631,
    "oxford": 9632,
    "oxfordjournals": 9633,
    "a05": 9634,
    "a052755": 9635,
    "Prenti": 9636,
    "Prentice": 9637,
    "Hall": 9638,
    "3246": 9639,
    "Federalism": 9640,
    "147364": 9641,
    "14736480": 9642,
    "14736480490": 9643,
    "1473648049044": 9644,
    "147364804904430": 9645,
    "14736480490443085": 9646,
    "22702": 9647,
    "G8": 9648,
    "Plus": 9649,
    "Equals": 9650,
    "Budgeting": 9651,
    "Analys": 9652,
    "Analyses": 9653,
    "Agrees": 9654,
    "Signs": 9655,
    "Glo": 9656,
    "Globe": 9657,
    "Mail": 9658,
    "Strategic": 9659,
    "Partn": 9660,
    "Partnership": 9661,
    "Europa": 9662,
    "Legislation": 9663,
    "1025": 9664,
    "Morrow": 9665,
    "0505": 9666,
    "050594": 9667,
    "Reforming": 9668,
    "NPT": 9669,
    "Incl": 9670,
    "Include": 9671,
    "Bul": 9672,
    "Bullet": 9673,
    "Bulletin": 9674,
    "Scientists": 9675,
    "Ey": 9676,
    "Eye": 9677,
    "Steps": 9678,
    "Ambiguity": 9679,
    "afsa": 9680,
    "Submar": 9681,
    "Submarine": 9682,
    "Give": 9683,
    "Crucial": 9684,
    "Nu": 9685,
    "Nuke": 9686,
    "Triad": 9687,
    "figh": 9688,
    "fighter": 9689,
    "aircraft": 9690,
    "Strong": 9691,
    "Impact": 9692,
    "23210": 9693,
    "Agree": 9694,
    "Cooperation": 9695,
    "Accord": 9696,
    "Decol": 9697,
    "Decolonization": 9698,
    "Companions": 9699,
    "3563": 9700,
    "35632": 9701,
    "USSR": 9702,
    "Relations": 9703,
    "Ambival": 9704,
    "Ambivalence": 9705,
    "Stead": 9706,
    "Steadfast": 9707,
    "Steadfastness": 9708,
    "7141": 9709,
    "Security": 9710,
    "Dyn": 9711,
    "Dynamic": 9712,
    "Prom": 9713,
    "Promill": 9714,
    "Promilla": 9715,
    "860": 9716,
    "86019": 9717,
    "Agre": 9718,
    "Agreement": 9719,
    "Globalism": 9720,
    "Rival": 9721,
    "Rivalry": 9722,
    "Continuity": 9723,
    "77684": 9724,
    "Move": 9725,
    "Monitor": 9726,
    "Next": 9727,
    "Big": 9728,
    "Spenders": 9729,
    "McK": 9730,
    "McKin": 9731,
    "McKinsey": 9732,
    "Stumb": 9733,
    "Stumbles": 9734,
    "Rush": 9735,
    "Free": 9736,
    "Anm": 9737,
    "Anmol": 9738,
    "Acce": 9739,
    "Acceler": 9740,
    "Accelerating": 9741,
    "Challenges": 9742,
    "Honour": 9743,
    "0452": 9744,
    "Recent": 9745,
    "Trends": 9746,
    "DESA": 9747,
    "Working": 9748,
    "Ou": 9749,
    "Outs": 9750,
    "Outsour": 9751,
    "Outsourcing": 9752,
    "Bright": 9753,
    "Brightens": 9754,
    "ReNew": 9755,
    "Gets": 9756,
    "Million": 9757,
    "Goldman": 9758,
    "Fast": 9759,
    "Fastest": 9760,
    "Growing": 9761,
    "Auto": 9762,
    "Comtrade": 9763,
    "Rub": 9764,
    "Rubies": 9765,
    "Poly": 9766,
    "Polyester": 9767,
    "Shir": 9768,
    "Shirts": 9769,
    "Exports": 9770,
    "Surge": 9771,
    "Measuring": 9772,
    "Undern": 9773,
    "Undernour": 9774,
    "Undernourished": 9775,
    "Call": 9776,
    "BP": 9777,
    "BPO": 9778,
    "SC": 9779,
    "Observers": 9780,
    "Update": 9781,
    "Canning": 9782,
    "Postle": 9783,
    "Postlewa": 9784,
    "Postlewait": 9785,
    "Iow": 9786,
    "Iowa": 9787,
    "587": 9788,
    "58729": 9789,
    "Mid": 9790,
    "Meals": 9791,
    "Baru": 9792,
    "7829": 9793,
    "873": 9794,
    "Urbanisation": 9795,
    "Retro": 9796,
    "Retrosp": 9797,
    "Retrospect": 9798,
    "Cass": 9799,
    "Casses": 9800,
    "928": 9801,
    "928382": 9802,
    "9781316": 9803,
    "97813162760": 9804,
    "9781316276044": 9805,
    "20180216": 9806,
    "2018021693": 9807,
    "Mob": 9808,
    "Mobili": 9809,
    "Mobilizing": 9810,
    "Infrastructure": 9811,
    "Ceng": 9812,
    "Cengage": 9813,
    "5088": 9814,
    "50884": 9815,
    "Interface": 9816,
    "Hunger": 9817,
    "1027": 9818,
    "Notification": 9819,
    "9780": 9820,
    "Playing": 9821,
    "Real": 9822,
    "Game": 9823,
    "Theory": 9824,
    "5300": 9825,
    "530057": 9826,
    "39189": 9827,
    "concise": 9828,
    "20302": 9829,
    "3789": 9830,
    "378951": 9831,
    "37895110": 9832,
    "Traffic": 9833,
    "Trafficking": 9834,
    "Infob": 9835,
    "Infobase": 9836,
    "8160": 9837,
    "7545": 9838,
    "ston": 9839,
    "062": 9840,
    "06217": 9841,
    "tying": 9842,
    "Knot": 9843,
    "Ideal": 9844,
    "Sing": 9845,
    "Singap": 9846,
    "Singapore": 9847,
    "1428": 9848,
    "40215": 9849,
    "615": 9850,
    "61530": 9851,
    "Adams": 9852,
    "5986": 9853,
    "59869": 9854,
    "Versus": 9855,
    "Arranged": 9856,
    "Hamon": 9857,
    "Ingolds": 9858,
    "Ingoldsby": 9859,
    "7619": 9860,
    "2592": 9861,
    "20337": 9862,
    "514": 9863,
    "1800": 9864,
    "Ben": 9865,
    "Benjam": 9866,
    "Benjamin": 9867,
    "568": 9868,
    "78976": 9869,
    "Crow": 9870,
    "Crowned": 9871,
    "Travel": 9872,
    "Wikim": 9873,
    "Wikimedia": 9874,
    "Key": 9875,
    "Forec": 9876,
    "Forecasts": 9877,
    "Futures": 9878,
    "Air": 9879,
    "Censorship": 9880,
    "Intern": 9881,
    "Internet": 9882,
    "Scand": 9883,
    "Scandals": 9884,
    "யரச": 9885,
    "அந": 9886,
    "இடத": 9887,
    "தந": 9888,
    "லப": 9889,
    "ரங": 9890,
    "கணக": 9891,
    "मग": 9892,
    "आठ": 9893,
    "चम": 9894,
    "आढळत": 9895,
    "घडल": 9896,
    "पडत": 9897,
    "तळ": 9898,
    "दह": 9899,
    "ऑस": 9900,
    "पसम": 9901,
    "हणत": 9902,
    "असण": 9903,
    "रपटस": 9904,
    "वडण": 9905,
    "थल": 9906,
    "_of": 9907,
    "_of_": 9908,
    "अण": 9909,
    "ईश": 9910,
    "परद": 9911,
    "उल": 9912,
    "तज": 9913,
    "जध": 9914,
    "यटन": 9915,
    "ठक": 9916,
    "disamb": 9917,
    "disambig": 9918,
    "disambigu": 9919,
    "disambiguation": 9920,
    "officially": 9921,
    "seventh": 9922,
    "Bound": 9923,
    "Bounded": 9924,
    "southwest": 9925,
    "southeast": 9926,
    "shares": 9927,
    "mari": 9928,
    "maritime": 9929,
    "arri": 9930,
    "arrived": 9931,
    "predominant": 9932,
    "predominantly": 9933,
    "Settled": 9934,
    "evolving": 9935,
    "dawn": 9936,
    "dawnings": 9937,
    "proclaiming": 9938,
    "orders": 9939,
    "unlinked": 9940,
    "consolidations": 9941,
    "flourish": 9942,
    "flourishing": 9943,
    "declined": 9944,
    "scripts": 9945,
    "Juda": 9946,
    "Judaism": 9947,
    "cosm": 9948,
    "cosmop": 9949,
    "cosmopol": 9950,
    "cosmopolit": 9951,
    "cosmopolitan": 9952,
    "networks": 9953,
    "compos": 9954,
    "composite": 9955,
    "reject": 9956,
    "rejecting": 9957,
    "institutional": 9958,
    "institutionalised": 9959,
    "ushered": 9960,
    "architec": 9961,
    "architectur": 9962,
    "architectural": 9963,
    "legacy": 9964,
    "Gradu": 9965,
    "Gradually": 9966,
    "consolidated": 9967,
    "promised": 9968,
    "gran": 9969,
    "granted": 9970,
    "technological": 9971,
    "root": 9972,
    "Noted": 9973,
    "resistance": 9974,
    "1920": 9975,
    "governed": 9976,
    "plural": 9977,
    "pluralistic": 9978,
    "ranks": 9979,
    "neighbours": 9980,
    "socio": 9981,
    "challenges": 9982,
    "faces": 9983,
    "malnutrition": 9984,
    "viewed": 9985,
    "toler": 9986,
    "tolerance": 9987,
    "habitats": 9988,
    "derives": 9989,
    "loosely": 9990,
    "stret": 9991,
    "stretching": 9992,
    "Further": 9993,
    "etymons": 9994,
    "Hell": 9995,
    "Hellen": 9996,
    "Hellenistic": 9997,
    "Indos": 9998,
    "Achaemenian": 9999
  },
  "merges": [
    "t h",
    "a n",
    "i n",
    "e r",
    "o n",
    "th e",
    "a l",
    "e d",
    "a r",
    "o r",
    "e n",
    "t i",
    "e s",
    "d i",
    "2 0",
    "o f",
    "I n",
    "an d",
    "i s",
    "a s",
    "In di",
    "a t",
    "r i",
    "o m",
    "ti on",
    "r e",
    "Indi a",
    "c h",
    "in g",
    "i t",
    "o u",
    "en t",
    "t o",
    "20 1",
    "e t",
    "i c",
    "s t",
    "l e",
    "T h",
    "l y",
    "1 9",
    "r a",
    "v ed",
    "l i",
    "a m",
    "v er",
    "a tion",
    "u r",
    "e m",
    "Th e",
    "f or",
    "e c",
    "20 0",
    "t er",
    "o l",
    "r om",
    "i g",
    "r o",
    "u l",
    "c e",
    "i l",
    "f rom",
    "g e",
    "a d",
    "u s",
    "v e",
    "r es",
    "7 8",
    "is t",
    "s i",
    "u n",
    "p p",
    "i r",
    "ti c",
    "b er",
    "o p",
    "c on",
    "t e",
    "I S",
    "9 78",
    "Indi an",
    "it y",
    "d e",
    "20 2",
    "IS B",
    "ISB N",
    "h i",
    "A r",
    "ri e",
    "1 0",
    "an g",
    "b y",
    "rie ved",
    "m a",
    "o w",
    "R et",
    "t u",
    "Ret rieved",
    "d u",
    "a y",
    "s e",
    "m ent",
    "in al",
    "a c",
    "or ig",
    "b e",
    "ch i",
    "ar y",
    "s h",
    "orig inal",
    "es t",
    "u m",
    "w i",
    "res s",
    "i on",
    "at e",
    "c i",
    "0 0",
    "l d",
    "o d",
    "chi ved",
    "a b",
    "Ar chived",
    "a g",
    "th er",
    "U n",
    "t s",
    "wi th",
    "e l",
    "e x",
    "s u",
    "o ver",
    "ver s",
    "w as",
    "i m",
    "C h",
    "a k",
    "201 1",
    "e ar",
    "as t",
    "on g",
    "g h",
    "र त",
    "u t",
    "vers ity",
    "H in",
    "o t",
    "1 7",
    "1 8",
    "e p",
    "o g",
    "a in",
    "c l",
    "i d",
    "19 9",
    "ou r",
    "em ber",
    "c om",
    "ar e",
    "ou n",
    "s o",
    "or ld",
    "2 6",
    "er e",
    "c al",
    "P ress",
    "1 6",
    "w hi",
    "i versity",
    "e w",
    "or y",
    "r u",
    "p er",
    "p l",
    "a ge",
    "p ar",
    "ang u",
    "whi ch",
    "m e",
    "Un iversity",
    "2 3",
    "1 5",
    "th at",
    "h a",
    "an s",
    "h as",
    "on s",
    "s p",
    "is h",
    "en d",
    "u d",
    "al ly",
    "p ri",
    "en ce",
    "con t",
    "f f",
    "ter n",
    "1 3",
    "A n",
    "r y",
    "A si",
    "1 4",
    "c ent",
    "ation al",
    "o s",
    "it s",
    "ti tu",
    "2 8",
    "as s",
    "2 5",
    "p ro",
    "in e",
    "d er",
    "a v",
    "m o",
    "al l",
    "for m",
    "क र",
    "Hin du",
    "g ion",
    "प र",
    "ou th",
    "2 1",
    "w h",
    "J u",
    "l ed",
    "at ed",
    "over n",
    "t ed",
    "i es",
    "w e",
    "u b",
    "201 0",
    "l angu",
    "m il",
    "ou t",
    "2 4",
    "a p",
    "র ত",
    "2 7",
    "ist ory",
    "u st",
    "ri t",
    "w ere",
    "ic al",
    "E n",
    "is m",
    "l o",
    "Ju ly",
    "for d",
    "cal f",
    "h ar",
    "c tion",
    "overn ment",
    "l ar",
    "M et",
    "Met calf",
    "P D",
    "PD F",
    "x ford",
    "5 0",
    "er s",
    "d o",
    "M ar",
    "4 0",
    "O xford",
    "op ul",
    "i al",
    "ou s",
    "or t",
    "am e",
    "3 0",
    "ou gh",
    "m ar",
    "202 1",
    "c es",
    "m an",
    "ec on",
    "c o",
    "க ள",
    "or e",
    "W orld",
    "o k",
    "201 8",
    "tu re",
    "v i",
    "Asi a",
    "c ul",
    "an ce",
    "ti ve",
    "m in",
    "o c",
    "C om",
    "2 9",
    "om e",
    "H istory",
    "C ons",
    "ed it",
    "t ra",
    "g en",
    "औ र",
    "titu tion",
    "c y",
    "201 9",
    "ri d",
    "S outh",
    "ub l",
    "201 4",
    "u p",
    "b o",
    "200 7",
    "f ic",
    "ag es",
    "y ear",
    "p h",
    "C E",
    "f ter",
    "19 6",
    "आ ह",
    "व र",
    "l ow",
    "w ar",
    "ation s",
    "i a",
    "er n",
    "at es",
    "ol og",
    "om ic",
    "c t",
    "q u",
    "R e",
    "2 2",
    "ir st",
    "as te",
    "ur ing",
    "p o",
    "b ec",
    "f e",
    "O c",
    "Oc to",
    "Octo ber",
    "200 6",
    "ro w",
    "s y",
    "ర త",
    "ep t",
    "A pri",
    "Apri l",
    "n or",
    "su b",
    "ve l",
    "ur y",
    "l and",
    "di tion",
    "अ र",
    "t y",
    "e v",
    "N ew",
    "p an",
    "ha ve",
    "1 1",
    "M a",
    "or d",
    "od ern",
    "in to",
    "b ut",
    "S ept",
    "Sept ember",
    "tic s",
    "t a",
    "al s",
    "at er",
    "re gion",
    "oun d",
    "f irst",
    "am b",
    "u g",
    "त र",
    "en s",
    "ti es",
    "mo st",
    "ig h",
    "ci al",
    "o ther",
    "or k",
    "A l",
    "w orld",
    "opul ation",
    "cont in",
    "ud d",
    "J an",
    "i v",
    "o v",
    "स म",
    "li on",
    "b et",
    "con s",
    "l es",
    "Ch in",
    "n ot",
    "en g",
    "c re",
    "3 6",
    "m er",
    "oun t",
    "st em",
    "4 7",
    "3 8",
    "langu age",
    "A ug",
    "Aug ust",
    "sy stem",
    "the ir",
    "201 2",
    "in s",
    "m ore",
    "ig n",
    "3 5",
    "M ay",
    "rid ge",
    "we en",
    "tic al",
    "si on",
    "un e",
    "al so",
    "u c",
    "r an",
    "year s",
    "c a",
    "202 3",
    "d ec",
    "a fter",
    "c aste",
    "re li",
    "g an",
    "t ur",
    "E con",
    "s on",
    "ubl ic",
    "i k",
    "19 7",
    "er al",
    "3 9",
    "k e",
    "ar d",
    "cl ass",
    "d uring",
    "g overnment",
    "amb ridge",
    "200 8",
    "C ambridge",
    "th is",
    "a j",
    "Mar ch",
    "an t",
    "r al",
    "t w",
    "ए क",
    "ar i",
    "200 9",
    "ec t",
    "e le",
    "s s",
    "J une",
    "a ti",
    "is ter",
    "p e",
    "p or",
    "be en",
    "on e",
    "C ent",
    "D ec",
    "201 7",
    "bet ween",
    "e b",
    "m p",
    "g ra",
    "P l",
    "ol d",
    "3 7",
    "p r",
    "cent ury",
    "do i",
    "el l",
    "h e",
    "un d",
    "vel op",
    "Cons titution",
    "I t",
    "ac k",
    "re e",
    "om y",
    "h ad",
    "h er",
    "8 1",
    "00 0",
    "S te",
    "S t",
    "4 6",
    "a ch",
    "n ow",
    "ed s",
    "as h",
    "is e",
    "th ough",
    "olog y",
    "Jan u",
    "Janu ary",
    "ப ட",
    "for e",
    "B ri",
    "us ed",
    "o b",
    "th an",
    "P ro",
    "c ri",
    "f l",
    "l ish",
    "g est",
    "o se",
    "ar tic",
    "N ational",
    "201 5",
    "in cl",
    "contin ent",
    "C ong",
    "Cong ress",
    "E ur",
    "n um",
    "an n",
    "n e",
    "m is",
    "இ ந",
    "tra dition",
    "201 6",
    "B CE",
    "ther n",
    "8 0",
    "s er",
    "di s",
    "ist an",
    "A sh",
    "es tern",
    "o h",
    "h um",
    "li m",
    "स र",
    "S ans",
    "i re",
    "em ent",
    "Sans k",
    "the ma",
    "ar t",
    "a w",
    "20 20",
    "as ed",
    "F eb",
    "in ce",
    "1 2",
    "lar gest",
    "Feb ru",
    "Febru ary",
    "tw o",
    "p re",
    "o od",
    "langu ages",
    "bec ame",
    "202 2",
    "ti m",
    "d es",
    "c ed",
    "ed i",
    "a ir",
    "M an",
    "d us",
    "t en",
    "m on",
    "l ong",
    "al i",
    "ti sh",
    "Hin di",
    "B i",
    "Bri tish",
    "202 5",
    "at a",
    "G overnment",
    "Sansk rit",
    "es s",
    "t r",
    "b an",
    "b ot",
    "m odern",
    "u re",
    "su ch",
    "201 3",
    "ens us",
    "a i",
    "4 9",
    "v en",
    "200 3",
    "par t",
    "en ti",
    "p res",
    "og ra",
    "ogra ph",
    "Chin a",
    "n o",
    "P o",
    "g re",
    "com p",
    "un der",
    "l ater",
    "led ge",
    "200 4",
    "ad e",
    "D e",
    "im al",
    "প র",
    "per i",
    "En g",
    "ma in",
    "a pp",
    "ther e",
    "it ed",
    "Eur op",
    "of fic",
    "num ber",
    "B udd",
    "es e",
    "g row",
    "Ash er",
    "R ep",
    "F or",
    "M ain",
    "200 1",
    "ri es",
    "3 3",
    "f er",
    "C on",
    "Ste in",
    "g r",
    "on d",
    "mil lion",
    "min ister",
    "8 5",
    "am ent",
    "Europ e",
    "f i",
    "T al",
    "S e",
    "S ch",
    "ter m",
    "o y",
    "t ro",
    "f t",
    "tion s",
    "v is",
    "o te",
    "om en",
    "p ec",
    "R out",
    "Rout ledge",
    "ak istan",
    "le ar",
    "t ri",
    "M in",
    "म न",
    "P akistan",
    "Dec ember",
    "Tal bot",
    "sub continent",
    "j or",
    "n on",
    "il l",
    "ज न",
    "ff ic",
    "P er",
    "y a",
    "c ord",
    "ক র",
    "ab le",
    "अ स",
    "Hindu ism",
    "n a",
    "an a",
    "nor thern",
    "k et",
    "the m",
    "T im",
    "b al",
    "man y",
    "d om",
    "ul t",
    "sp ec",
    "econ omic",
    "li fe",
    "wh o",
    "h ist",
    "c ount",
    "V ed",
    "in cre",
    "le y",
    "M us",
    "g et",
    "artic le",
    "os ed",
    "g i",
    "ti me",
    "ex t",
    "or s",
    "H ar",
    "ou ld",
    "P opulation",
    "il d",
    "6 0",
    "E mp",
    "M u",
    "li tical",
    "म ध",
    "ci ent",
    "19 50",
    "ang es",
    "lar ge",
    "am ong",
    "ma jor",
    "199 4",
    "రత ద",
    "19 47",
    "so cial",
    "N ov",
    "Nov ember",
    "en n",
    "te x",
    "l ing",
    "em oc",
    "emoc ra",
    "ur es",
    "st ate",
    "l ine",
    "s ome",
    "an k",
    "O ffic",
    "e ver",
    "v ing",
    "r ed",
    "mis sion",
    "is ation",
    "I s",
    "Eng lish",
    "D y",
    "a th",
    "at ing",
    "S o",
    "c ur",
    "r ough",
    "19 8",
    "bo th",
    "uc lear",
    "अ न",
    "de velop",
    "D el",
    "offic ial",
    "ma thema",
    "har ma",
    "200 5",
    "n ational",
    "p ort",
    "us e",
    "L angu",
    "3 1",
    "in di",
    "an ge",
    "S h",
    "n ew",
    "re l",
    "p le",
    "202 4",
    "nor th",
    "b le",
    "ra c",
    "a u",
    "ow er",
    "e as",
    "am i",
    "op le",
    "Econ omic",
    "7 7",
    "5 1",
    "A f",
    "వ ర",
    "A c",
    "incl ud",
    "4 5",
    "प ण",
    "হ য",
    "p opulation",
    "ह म",
    "pri me",
    "it e",
    "Asi an",
    "tern ational",
    "र क",
    "K ash",
    "Kash m",
    "it er",
    "Com pan",
    "gh t",
    "the y",
    "4 8",
    "5 5",
    "i z",
    "cul ture",
    "c an",
    "Tim es",
    "d le",
    "tr ans",
    "Dy son",
    "N e",
    "Emp ire",
    "re ad",
    "er g",
    "v al",
    "w estern",
    "b u",
    "Del hi",
    "peri od",
    "su pp",
    "ele ction",
    "उ न",
    "class ical",
    "s outh",
    "Mu gh",
    "d ance",
    "र म",
    "ol ic",
    "J oh",
    "A m",
    "P r",
    "er ation",
    "R aj",
    "r is",
    "G u",
    "M odern",
    "p end",
    "du ction",
    "Y ork",
    "10 0",
    "B eng",
[...]
