{
  "version": "1.0",
  "truncation": null,
  "padding": null,
  "added_tokens": [
    {
      "id": 0,
      "content": "[UNK]",
      "single_word": false,
      "lstrip": false,
      "rstrip": false,
      "normalized": false,
      "special": true
    }
  ],
  "normalizer": {
    "type": "NFKC"
  },
  "pre_tokenizer": {
    "type": "Metaspace",
    "replacement": "▁",
    "prepend_scheme": "never",
    "split": true
  },
  "post_processor": null,
  "decoder": {
    "type": "Metaspace",
    "replacement": "▁",
    "prepend_scheme": "never",
    "split": true
  },
  "model": {
    "type": "BPE",
    "dropout": null,
    "unk_token": "[UNK]",
    "continuing_subword_prefix": null,
    "end_of_word_suffix": null,
    "fuse_unk": false,
    "byte_fallback": false,
    "ignore_merges": false,
    "vocab": {
      "[UNK]": 0,
      "\n": 1,
      "!": 2,
      "\"": 3,
      "#": 4,
      "$": 5,
      "%": 6,
      "&": 7,
      "'": 8,
      "(": 9,
      ")": 10,
      "*": 11,
      "+": 12,
      ",": 13,
      "-": 14,
      ".": 15,
      "/": 16,
      "0": 17,
      "1": 18,
      "2": 19,
      "3": 20,
      "4": 21,
      "5": 22,
      "6": 23,
      "7": 24,
      "8": 25,
      "9": 26,
      ":": 27,
      ";": 28,
      "<": 29,
      "=": 30,
      ">": 31,
      "?": 32,
      "A": 33,
      "B": 34,
      "C": 35,
      "D": 36,
      "E": 37,
      "F": 38,
      "G": 39,
      "H": 40,
      "I": 41,
      "J": 42,
      "K": 43,
      "L": 44,
      "M": 45,
      "N": 46,
      "O": 47,
      "P": 48,
      "Q": 49,
      "R": 50,
      "S": 51,
      "T": 52,
      "U": 53,
      "V": 54,
      "W": 55,
      "X": 56,
      "Y": 57,
      "Z": 58,
      "[": 59,
      "\\": 60,
      "]": 61,
      "^": 62,
      "_": 63,
      "`": 64,
      "a": 65,
      "b": 66,
      "c": 67,
      "d": 68,
      "e": 69,
      "f": 70,
      "g": 71,
      "h": 72,
      "i": 73,
      "j": 74,
      "k": 75,
      "l": 76,
      "m": 77,
      "n": 78,
      "o": 79,
      "p": 80,
      "q": 81,
      "r": 82,
      "s": 83,
      "t": 84,
      "u": 85,
      "v": 86,
      "w": 87,
      "x": 88,
      "y": 89,
      "z": 90,
      "{": 91,
      "|": 92,
      "}": 93,
      "~": 94,
      "°": 95,
      "·": 96,
      "Ö": 97,
      "á": 98,
      "â": 99,
      "æ": 100,
      "ç": 101,
      "è": 102,
      "é": 103,
      "í": 104,
      "ñ": 105,
      "ö": 106,
      "ü": 107,
      "ā": 108,
      "ī": 109,
      "İ": 110,
      "Ś": 111,
      "ś": 112,
      "ū": 113,
      "ș": 114,
      "ə": 115,
      "ɦ": 116,
      "ɪ": 117,
      "ɾ": 118,
      "ʊ": 119,
      "ʼ": 120,
      "ˈ": 121,
      "ː": 122,
      "ί": 123,
      "α": 124,
      "δ": 125,
      "θ": 126,
      "ν": 127,
      "π": 128,
      "ς": 129,
      "ό": 130,
      "ँ": 131,
      "ं": 132,
      "ः": 133,
      "अ": 134,
      "आ": 135,
      "इ": 136,
      "ई": 137,
      "उ": 138,
      "ऊ": 139,
      "ऋ": 140,
      "ऍ": 141,
      "ए": 142,
      "ऐ": 143,
      "ऑ": 144,
      "ओ": 145,
      "औ": 146,
      "क": 147,
      "ख": 148,
      "ग": 149,
      "घ": 150,
      "ङ": 151,
      "च": 152,
      "छ": 153,
      "ज": 154,
      "झ": 155,
      "ञ": 156,
      "ट": 157,
      "ठ": 158,
      "ड": 159,
      "ढ": 160,
      "ण": 161,
      "त": 162,
      "थ": 163,
      "द": 164,
      "ध": 165,
      "न": 166,
      "ऩ": 167,
      "प": 168,
      "फ": 169,
      "ब": 170,
      "भ": 171,
      "म": 172,
      "य": 173,
      "र": 174,
      "ल": 175,
      "ळ": 176,
      "व": 177,
      "श": 178,
      "ष": 179,
      "स": 180,
      "ह": 181,
      "ऻ": 182,
      "़": 183,
      "ऽ": 184,
      "ा": 185,
      "ि": 186,
      "ी": 187,
      "ु": 188,
      "ू": 189,
      "ृ": 190,
      "े": 191,
      "ै": 192,
      "ॉ": 193,
      "ॊ": 194,
      "ो": 195,
      "ौ": 196,
      "्": 197,
      "॔": 198,
      "।": 199,
      "०": 200,
      "१": 201,
      "२": 202,
      "३": 203,
      "४": 204,
      "५": 205,
      "६": 206,
      "७": 207,
      "८": 208,
      "९": 209,
      "॰": 210,
      "ం": 211,
      "ః": 212,
      "అ": 213,
      "ఆ": 214,
      "ఇ": 215,
      "ఈ": 216,
      "ఉ": 217,
      "ఋ": 218,
      "ఎ": 219,
      "ఏ": 220,
      "ఐ": 221,
      "ఒ": 222,
      "ఓ": 223,
      "ఔ": 224,
      "క": 225,
      "ఖ": 226,
      "గ": 227,
      "ఘ": 228,
      "చ": 229,
      "ఛ": 230,
      "జ": 231,
      "ఞ": 232,
      "ట": 233,
      "ఠ": 234,
      "డ": 235,
      "ఢ": 236,
      "ణ": 237,
      "త": 238,
      "థ": 239,
      "ద": 240,
      "ధ": 241,
      "న": 242,
      "ప": 243,
      "ఫ": 244,
      "బ": 245,
      "భ": 246,
      "మ": 247,
      "య": 248,
      "ర": 249,
      "ల": 250,
      "ళ": 251,
      "వ": 252,
      "శ": 253,
      "ష": 254,
      "స": 255,
      "హ": 256,
      "ా": 257,
      "ి": 258,
      "ీ": 259,
      "ు": 260,
      "ూ": 261,
      "ృ": 262,
      "ె": 263,
      "ే": 264,
      "ై": 265,
      "ొ": 266,
      "ో": 267,
      "ౌ": 268,
      "్": 269,
      "ṅ": 270,
      "ṇ": 271,
      "Ṛ": 272,
      "ṣ": 273,
      "ṭ": 274,
      "Ἰ": 275,
      "‌": 276,
      "‍": 277,
      "‎": 278,
      "–": 279,
      "—": 280,
      "‘": 281,
      "’": 282,
      "“": 283,
      "”": 284,
      "†": 285,
      "•": 286,
      "′": 287,
      "‹": 288,
      "›": 289,
      "⁡": 290,
      "₹": 291,
      "↑": 292,
      "−": 293,
      "▁": 294,
      "﻿": 295,
      "wi": 296,
      "ki": 297,
      "wiki": 298,
      "di": 299,
      "dia": 300,
      "or": 301,
      "ht": 302,
      "tp": 303,
      ":/": 304,
      "http": 305,
      "://": 306,
      "](": 307,
      "pe": 308,
      "](http": 309,
      "s://": 310,
      "](https://": 311,
      "g/": 312,
      ".or": 313,
      ".org/": 314,
      "pedia": 315,
      ".wiki": 316,
      ".org/wiki": 317,
      ".org/wiki/": 318,
      ".wikipedia": 319,
      ".wikipedia.org/wiki/": 320,
      "▁[": 321,
      "▁\"": 322,
      "te": 323,
      "\")": 324,
      "en": 325,
      "in": 326,
      "hi": 327,
      "an": 328,
      "ार": 329,
      "on": 330,
      "▁क": 331,
      "](https://hi": 332,
      "](https://hi.wikipedia.org/wiki/": 333,
      "ti": 334,
      "्र": 335,
      "In": 336,
      "20": 337,
      "ar": 338,
      "th": 339,
      "er": 340,
      "al": 341,
      "India": 342,
      "](https://en": 343,
      "](https://en.wikipedia.org/wiki/": 344,
      "▁|": 345,
      "re": 346,
      "भार": 347,
      "भारत": 348,
      "▁स": 349,
      "ci": 350,
      "es": 351,
      "of": 352,
      "▁म": 353,
      "्य": 354,
      "tion": 355,
      "▁-": 356,
      "te_": 357,
      "▁(": 358,
      "the": 359,
      "रा": 360,
      "▁प": 361,
      "#ci": 362,
      "#cite_": 363,
      "om": 364,
      "and": 365,
      "is": 366,
      "ान": 367,
      "▁of": 368,
      "▁the": 369,
      "్ర": 370,
      "र्": 371,
      "201": 372,
      "as": 373,
      "ें": 374,
      "ri": 375,
      "**": 376,
      "ou": 377,
      "](https://te": 378,
      "](https://te.wikipedia.org/wiki/": 379,
      "्त": 380,
      "▁के": 381,
      "](https://hi.wikipedia.org/wiki/भारत": 382,
      "no": 383,
      "▁ह": 384,
      "19": 385,
      "le": 386,
      "OT": 387,
      "](https://en.wikipedia.org/wiki/India": 388,
      "ార": 389,
      "या": 390,
      "200": 391,
      "▁India": 392,
      "oo": 393,
      "िक": 394,
      "ate": 395,
      "\\_": 396,
      "ed": 397,
      "-0": 398,
      "ac": 399,
      "-1": 400,
      "ीय": 401,
      "si": 402,
      "▁in": 403,
      "▁अ": 404,
      "et": 405,
      "at": 406,
      "▁में": 407,
      "li": 408,
      "ent": 409,
      "am": 410,
      "ation": 411,
      "▁p": 412,
      "▁and": 413,
      "▁C": 414,
      "st": 415,
      "ref": 416,
      "id": 417,
      "ag": 418,
      "](https://en.wikipedia.org/wiki/India#cite_": 419,
      "note": 420,
      "ों": 421,
      "वि": 422,
      "ाल": 423,
      "्ष": 424,
      "ాల": 425,
      "[[": 426,
      "ing": 427,
      "िया": 428,
      "▁ज": 429,
      "ना": 430,
      "न्": 431,
      "▁A": 432,
      ").": 433,
      "ref-": 434,
      "note-": 435,
      "▁द": 436,
      "fi": 437,
      "▁c": 438,
      "ेश": 439,
      "ad": 440,
      "_क": 441,
      "▁S": 442,
      "▁s": 443,
      "్య": 444,
      "▁है": 445,
      "त्र": 446,
      "ang": 447,
      "▁t": 448,
      "ook": 449,
      "राज": 450,
      "78": 451,
      "](https://hi.wikipedia.org/wiki/भारत#cite_": 452,
      "ve": 453,
      "भा": 454,
      "భార": 455,
      "lin": 456,
      "\"),": 457,
      "భారత": 458,
      "దే": 459,
      "we": 460,
      "lo": 461,
      "దేశ": 462,
      "స్": 463,
      "dit": 464,
      "्व": 465,
      "ww": 466,
      "ur": 467,
      "com": 468,
      "▁ब": 469,
      "ma": 470,
      "ंग": 471,
      "ला": 472,
      "और": 473,
      "▁भारत": 474,
      "▁प्र": 475,
      "▁**": 476,
      "▁1": 477,
      "▁b": 478,
      "ni": 479,
      "um": 480,
      "▁ప": 481,
      "▁|\n": 482,
      "ति": 483,
      "IS": 484,
      "red": 485,
      "▁की": 486,
      "▁[↑": 487,
      "▁न": 488,
      "▁P": 489,
      "ता": 490,
      "▁f": 491,
      "FO": 492,
      "సా": 493,
      "NOT": 494,
      "OTNOT": 495,
      "FOOTNOT": 496,
      "FOOTNOTE": 497,
      "▁से": 498,
      "_स": 499,
      "he": 500,
      "्ट": 501,
      "▁201": 502,
      "link": 503,
      "978": 504,
      "=1": 505,
      "BN": 506,
      "ory": 507,
      "ul": 508,
      "ర్": 509,
      "ISBN": 510,
      ".\n": 511,
      "्रे": 512,
      "edit": 513,
      "action": 514,
      "▁और": 515,
      "ce": 516,
      "us": 517,
      "action=": 518,
      "ver": 519,
      "action=edit": 520,
      "న్": 521,
      "&red": 522,
      "?action=edit": 523,
      "link=1": 524,
      "&redlink=1": 525,
      "?action=edit&redlink=1": 526,
      "▁का": 527,
      "of_": 528,
      "ch": 529,
      "ra": 530,
      "_of_": 531,
      "21": 532,
      "00": 533,
      "web": 534,
      "ist": 535,
      "ter": 536,
      "▁•": 537,
      "स्त": 538,
      "▁\"भारत": 539,
      "षा": 540,
      "it": 541,
      "enti": 542,
      "ro": 543,
      "न्द": 544,
      "ित": 545,
      "·**": 546,
      "▁**·**": 547,
      "▁व": 548,
      "राज्य": 549,
      "cal": 550,
      "chi": 551,
      "-0)": 552,
      "क्ष": 553,
      "ons": 554,
      "▁आ": 555,
      "▁m": 556,
      "),": 557,
      "▁M": 558,
      "identi": 559,
      "fier": 560,
      "identifier": 561,
      "▁T": 562,
      "ास": 563,
      "cial": 564,
      "identifier)": 565,
      "भाषा": 566,
      "▁w": 567,
      "లు": 568,
      "our": 569,
      "pg": 570,
      "age": 571,
      "రా": 572,
      "un": 573,
      ".j": 574,
      "mp": 575,
      "book": 576,
      "▁R": 577,
      "पु": 578,
      "]](https://en.wikipedia.org/wiki/India#cite_": 579,
      "25": 580,
      "▁त": 581,
      "](https://en.wikipedia.org/wiki/India#cite_ref-": 582,
      "]](https://en.wikipedia.org/wiki/India#cite_note-": 583,
      ".g": 584,
      "स्": 585,
      ")\n": 586,
      "10": 587,
      "देश": 588,
      "il": 589,
      "భారతదేశ": 590,
      "_(": 591,
      "▁to": 592,
      "26": 593,
      "books": 594,
      "IT": 595,
      ".com": 596,
      ".శ": 597,
      ".శ.": 598,
      "లో": 599,
      "23": 600,
      "मा": 601,
      "▁B": 602,
      "సా.శ.": 603,
      "ol": 604,
      "ER": 605,
      "ss": 606,
      "री": 607,
      "es/": 608,
      "EF": 609,
      "ची": 610,
      "ITER": 611,
      ".com/": 612,
      "tic": 613,
      "णी": 614,
      "था": 615,
      "▁ग": 616,
      "india": 617,
      "de": 618,
      "ITEREF": 619,
      "24": 620,
      "angu": 621,
      "▁క": 622,
      "▁D": 623,
      "ment": 624,
      "ड़": 625,
      "▁को": 626,
      "err": 627,
      "ष्ट": 628,
      "▁a": 629,
      "త్ర": 630,
      "]](https://hi.wikipedia.org/wiki/भारत#cite_": 631,
      "▁उ": 632,
      "▁*": 633,
      "▁19": 634,
      "ాలు": 635,
      "ाद": 636,
      "▁ए": 637,
      "me": 638,
      "▁e": 639,
      "రి": 640,
      "ic": 641,
      "ty": 642,
      "క్": 643,
      "error": 644,
      "28": 645,
      "▁पर": 646,
      "ष्ट्र": 647,
      "ంద": 648,
      "_S": 649,
      "ateg": 650,
      "श्रे": 651,
      "▁[म": 652,
      "ay": 653,
      "का": 654,
      "श्रेणी": 655,
      "ategory": 656,
      "ని": 657,
      "▁వ": 658,
      "▁सं": 659,
      "▁l": 660,
      "\")\n": 661,
      "ategory:": 662,
      "▁है।": 663,
      "श्रेणी:": 664,
      "▁E": 665,
      "_म": 666,
      "ने": 667,
      "www": 668,
      "fn": 669,
      "▁श": 670,
      "ir": 671,
      "प्र": 672,
      "िल": 673,
      "ेत्र": 674,
      "Har": 675,
      "archi": 676,
      "▁\"S": 677,
      "_के": 678,
      "▁200": 679,
      "mai": 680,
      "ct": 681,
      "हि": 682,
      "](https://mai": 683,
      "म्": 684,
      "](https://mai.wikipedia.org/wiki/": 685,
      "du": 686,
      "11": 687,
      "ly": 688,
      "ig": 689,
      "ले": 690,
      "▁वि": 691,
      "up": 692,
      "--": 693,
      "sh": 694,
      "ల్": 695,
      "#C": 696,
      "\").": 697,
      "▁---": 698,
      "con": 699,
      "archive": 700,
      "978-0": 701,
      "భారతదేశం": 702,
      ".in": 703,
      "_India": 704,
      "www.": 705,
      "50": 706,
      "#CITEREF": 707,
      "▁[↑](https://en.wikipedia.org/wiki/India#cite_ref-": 708,
      "्या": 709,
      "pecial": 710,
      "ld": 711,
      "▁इ": 712,
      "_in": 713,
      "ourc": 714,
      "सं": 715,
      "िय": 716,
      "](https://hi.wikipedia.org/wiki/भारत#cite_ref-": 717,
      "]](https://hi.wikipedia.org/wiki/भारत#cite_note-": 718,
      "978-0-": 719,
      "ంగ": 720,
      "oun": 721,
      "Uni": 722,
      "▁స": 723,
      "▁H": 724,
      "ew": 725,
      "सा": 726,
      "▁.": 727,
      "▁र": 728,
      "30": 729,
      "▁మ": 730,
      "pecial:": 731,
      "22": 732,
      "op": 733,
      "_के_": 734,
      "-8": 735,
      "anguage": 736,
      "त्त": 737,
      "▁G": 738,
      "▁h": 739,
      "▁N": 740,
      "for": 741,
      "ी](https://hi.wikipedia.org/wiki/": 742,
      "▁India\")": 743,
      "outh": 744,
      "rom": 745,
      "్రా": 746,
      "archive.org/": 747,
      "ved": 748,
      "ज़": 749,
      ".jpg": 750,
      "199": 751,
      "ber": 752,
      "▁re": 753,
      "▁20": 754,
      "▁([": 755,
      "Book": 756,
      "राष्ट्र": 757,
      "र्व": 758,
      "ources/": 759,
      "-4": 760,
      "_A": 761,
      "calf": 762,
      "▁भाषा": 763,
      "errors": 764,
      "Sources/": 765,
      "ీయ": 766,
      "pecial:Book": 767,
      "pecial:BookSources/": 768,
      "▁./": 769,
      "etcalf": 770,
      "_1": 771,
      "-3": 772,
      "ational": 773,
      "▁[\"": 774,
      "Harv": 775,
      "्षेत्र": 776,
      "ండ": 777,
      "web.": 778,
      "](https://web.": 779,
      "arg": 780,
      "/http": 781,
      "el": 782,
      "web/": 783,
      "archive.org/web/": 784,
      "](https://web.archive.org/web/": 785,
      "29": 786,
      "ng": 787,
      "िस": 788,
      "▁\"म": 789,
      "▁सा": 790,
      "ary": 791,
      "ress": 792,
      "▁on": 793,
      "mpl": 794,
      "gi": 795,
      "ी_": 796,
      "rit": 797,
      "ंड": 798,
      "ov": 799,
      "జ్య": 800,
      "18": 801,
      "ub": 802,
      "▁చ": 803,
      "ab": 804,
      "जा": 805,
      "पा": 806,
      "▁ल": 807,
      "tu": 808,
      "sia": 809,
      "मन": 810,
      "▁g": 811,
      "ak": 812,
      "चि": 813,
      "ूची": 814,
      "▁राज्य": 815,
      "_and": 816,
      "తా": 817,
      "▁(identifier)": 818,
      "_(identifier)": 819,
      "▁(identifier)\")": 820,
      "ry": 821,
      "ము": 822,
      "The": 823,
      "నా": 824,
      "ी\")": 825,
      "se": 826,
      "▁[S": 827,
      "తి": 828,
      "్ట": 829,
      "▁p.": 830,
      "गर": 831,
      "ish": 832,
      "s/": 833,
      "▁F": 834,
      "27": 835,
      "कार": 836,
      "▁भ": 837,
      "▁य": 838,
      "विश": 839,
      "श्रेणी:Harv": 840,
      "40": 841,
      "13": 842,
      ".[[": 843,
      "हा": 844,
      "](https://en.wikipedia.org/wiki/India#CITEREF": 845,
      "Metcalf": 846,
      "ther": 847,
      "▁हैं": 848,
      "▁L": 849,
      "est": 850,
      "సి": 851,
      "umb": 852,
      "▁or": 853,
      "_of_India": 854,
      "##": 855,
      "_P": 856,
      "कि": 857,
      "हिन्द": 858,
      "gle": 859,
      "త్": 860,
      "▁n": 861,
      "978-1": 862,
      ".in/": 863,
      "orld": 864,
      "क्त": 865,
      ".gov": 866,
      "ep": 867,
      "ंग्रे": 868,
      "▁J": 869,
      "oogle": 870,
      "over": 871,
      "ोल": 872,
      "ast": 873,
      "?id": 874,
      "versi": 875,
      "मी": 876,
      "ort": 877,
      "▁[↑](https://hi.wikipedia.org/wiki/भारत#cite_ref-": 878,
      "mons": 879,
      "px": 880,
      "पर": 881,
      "स्तान": 882,
      "15": 883,
      "▁for": 884,
      "▁[*": 885,
      "ेला": 886,
      "▁क्षेत्र": 887,
      "?id=": 888,
      "▁(సా.శ.": 889,
      ".google": 890,
      "books.google": 891,
      ".com/books": 892,
      "books.google.com/books": 893,
      "▁d": 894,
      "▁from": 895,
      "books.google.com/books?id=": 896,
      "ted": 897,
      "]](https://en.wikipedia.org/wiki/India#cite_note-FOOTNOTE": 898,
      "ount": 899,
      "with": 900,
      "ge": 901,
      "యా": 902,
      "im": 903,
      "धान": 904,
      "per": 905,
      "▁[ISBN": 906,
      "▁by": 907,
      "ులు": 908,
      "▁రా": 909,
      "AA": 910,
      "द्": 911,
      "िर": 912,
      "ेल": 913,
      "▁कर": 914,
      "▁\"ISBN": 915,
      "ISBN_(identifier)": 916,
      "ेष": 917,
      "▁In": 918,
      "र्म": 919,
      "–సా.శ.": 920,
      "ृत": 921,
      "▁అ": 922,
      "्रा": 923,
      "▁अन": 924,
      "media": 925,
      "▁O": 926,
      "versity": 927,
      "ి.": 928,
      "ot": 929,
      "_C": 930,
      "-7": 931,
      "वा": 932,
      "श्": 933,
      "से": 934,
      "List": 935,
      "har": 936,
      "-9": 937,
      "ंध": 938,
      "ीप": 939,
      "](https://hi.wikipedia.org/wiki/म": 940,
      "14": 941,
      "▁ప్ర": 942,
      "ut": 943,
      "tein": 944,
      "*.": 945,
      "▁is": 946,
      "ిక": 947,
      "▁[A": 948,
      "▁[अ": 949,
      "ाना": 950,
      "](https://books.google.com/books?id=": 951,
      "ap": 952,
      "िण": 953,
      "▁१": 954,
      "a](https://en.wikipedia.org/wiki/": 955,
      "▁ar": 956,
      "తం": 957,
      "load": 958,
      "do": 959,
      "em": 960,
      "av": 961,
      "hin": 962,
      "धार": 963,
      "ोत": 964,
      "▁\"अ": 965,
      "templ": 966,
      "17": 967,
      "▁Indian": 968,
      "commons": 969,
      "ain": 970,
      "▁W": 971,
      ".wikimedia": 972,
      "p.": 973,
      "upload": 974,
      "conom": 975,
      "-2": 976,
      "▁\"C": 977,
      "![": 978,
      "16": 979,
      "भि": 980,
      "▁[भारत": 981,
      "thumb": 982,
      "ीय_": 983,
      "▁ने": 984,
      "pedia/": 985,
      ".org/wikipedia/": 986,
      ".wikimedia.org/wikipedia/": 987,
      "upload.wikimedia.org/wikipedia/": 988,
      "](https://upload.wikimedia.org/wikipedia/": 989,
      ".p": 990,
      "ిన": 991,
      "▁be": 992,
      "జ్యం": 993,
      "](http://": 994,
      "/thumb": 995,
      "/thumb/": 996,
      "](https://upload.wikimedia.org/wikipedia/commons": 997,
      "▁\"क": 998,
      "▁\"स": 999,
      "ens": 1000,
      "क्षिण": 1001,
      "▁एक": 1002,
      "PA": 1003,
      "▁pp.": 1004,
      "inal": 1005,
      "arget": 1006,
      "](https://upload.wikimedia.org/wikipedia/commons/thumb/": 1007,
      "జా": 1008,
      "▁Category:": 1009,
      "px-": 1010,
      "▁K": 1011,
      "ूल": 1012,
      "▁ति": 1013,
      "लेख": 1014,
      ")[[": 1015,
      "](https://web.archive.org/web/201": 1016,
      "der": 1017,
      "ంచ": 1018,
      "కు": 1019,
      "ोग": 1020,
      "▁[स": 1021,
      "▁पु": 1022,
      "विशेष": 1023,
      "'s": 1024,
      "-10": 1025,
      "_in_India": 1026,
      "47": 1027,
      "%20": 1028,
      "](https://te.wikipedia.org/wiki/భారతదేశం": 1029,
      "ंद": 1030,
      "ंत्र": 1031,
      "University": 1032,
      "s](https://en.wikipedia.org/wiki/": 1033,
      "ను": 1034,
      "పూ": 1035,
      "▁प्रदेश": 1036,
      "विशेष:": 1037,
      "1.": 1038,
      "_D": 1039,
      "▁[C": 1040,
      "&pg": 1041,
      "थि": 1042,
      "▁[क": 1043,
      "&pg=": 1044,
      "▁th": 1045,
      "0%": 1046,
      "35": 1047,
      "భా": 1048,
      "\"))": 1049,
      "यु": 1050,
      "▁The": 1051,
      "%2": 1052,
      "ib": 1053,
      "s,": 1054,
      "ప్ర": 1055,
      "nic": 1056,
      "ong": 1057,
      "जन": 1058,
      "ద్": 1059,
      "ింద": 1060,
      "▁\"भारतीय": 1061,
      "-5": 1062,
      "_M": 1063,
      "ance": 1064,
      "▁no": 1065,
      "धिक": 1066,
      "▁\"ब": 1067,
      "](https://hi.wikipedia.org/wiki/क": 1068,
      "&pg=PA": 1069,
      "2.": 1070,
      "90": 1071,
      "Category:": 1072,
      "▁ఉ": 1073,
      "नी": 1074,
      "्री": 1075,
      "▁जन": 1076,
      "▁देश": 1077,
      "ke": 1078,
      "ం:": 1079,
      "▁\"M": 1080,
      "गमन": 1081,
      "▁ख": 1082,
      "▁तिथि": 1083,
      "_T": 1084,
      "nd": 1085,
      "ys": 1086,
      "ingh": 1087,
      "ru": 1088,
      "ensus": 1089,
      "दी": 1090,
      "द्य": 1091,
      "ी_स": 1092,
      "ूर्व": 1093,
      "▁ఆ": 1094,
      "▁भारतीय": 1095,
      "▁तथा": 1096,
      "▁st": 1097,
      ".jp": 1098,
      "36": 1099,
      "ages": 1100,
      "ँच": 1101,
      "ून": 1102,
      "umm": 1103,
      "ud": 1104,
      "Stein": 1105,
      "ata": 1106,
      "ढ़": 1107,
      "त्": 1108,
      "▁च": 1109,
      "](S": 1110,
      "▁[ब": 1111,
      "stan": 1112,
      "▁तिथि:": 1113,
      "ow": 1114,
      "▁ర": 1115,
      "und": 1116,
      "tern": 1117,
      "ori": 1118,
      "ans": 1119,
      "70": 1120,
      "▁[↑](https://en.wikipedia.org/wiki/India#cite_ref-FOOTNOTE": 1121,
      "opul": 1122,
      "▁de": 1123,
      "-6": 1124,
      "ha": 1125,
      "iginal": 1126,
      "2011": 1127,
      ".jpg)": 1128,
      "धर्म": 1129,
      "मान": 1130,
      "िट": 1131,
      "्ल": 1132,
      "మా": 1133,
      "▁సా": 1134,
      "▁अभि": 1135,
      "భారతీయ": 1136,
      "pecial:BookSources/978-0-": 1137,
      "▁अभिगमन": 1138,
      "oli": 1139,
      "▁[M": 1140,
      "2006": 1141,
      "ction": 1142,
      "log": 1143,
      "48": 1144,
      "వా": 1145,
      "ती": 1146,
      "वं": 1147,
      "्रोत": 1148,
      "2018": 1149,
      ".jpg/": 1150,
      "/http://": 1151,
      "gh": 1152,
      "-t": 1153,
      "రు": 1154,
      "ence": 1155,
      "38": 1156,
      "ज्": 1157,
      "हर": 1158,
      "स्क": 1159,
      "▁हैं।": 1160,
      "द्ध": 1161,
      "all": 1162,
      "*](https://books.google.com/books?id=": 1163,
      "गु": 1164,
      "रकार": 1165,
      "हास": 1166,
      "िश": 1167,
      "▁as": 1168,
      "▁राज": 1169,
      "rie": 1170,
      "पुर": 1171,
      "म्ब": 1172,
      "వి": 1173,
      "ష్ట": 1174,
      "ార్": 1175,
      "పూ.": 1176,
      "_N": 1177,
      "og": 1178,
      "cy": 1179,
      "](https://en.wikipedia.org/wiki/S": 1180,
      "िका": 1181,
      "▁जा": 1182,
      "स्तक": 1183,
      "पुस्तक": 1184,
      "క్ష": 1185,
      "राष्ट्रीय": 1186,
      "▁original": 1187,
      "विशेष:पुस्तक": 1188,
      "्रोत/": 1189,
      "60": 1190,
      "ll": 1191,
      "▁[B": 1192,
      "▁Press": 1193,
      "](https://en.wikipedia.org/wiki/ISBN_(identifier)": 1194,
      "స్థ": 1195,
      "రిత్ర": 1196,
      "▁[ISBN](https://en.wikipedia.org/wiki/ISBN_(identifier)": 1197,
      "▁\"B": 1198,
      "▁स्": 1199,
      "ana": 1200,
      "esh": 1201,
      "gion": 1202,
      "overn": 1203,
      "opulation": 1204,
      "other": 1205,
      "हार": 1206,
      "](https://hi.wikipedia.org/wiki/स": 1207,
      "▁भाषा\")": 1208,
      "rchi": 1209,
      "ates": 1210,
      "aj": 1211,
      "%2C": 1212,
      "os": 1213,
      "omm": 1214,
      "2009": 1215,
      "्स": 1216,
      "▁\"प": 1217,
      "istory": 1218,
      "▁वर्": 1219,
      "▁इस": 1220,
      "land": 1221,
      "htm": 1222,
      "న్న": 1223,
      "ai": 1224,
      "indu": 1225,
      "his": 1226,
      "45": 1227,
      "▁I": 1228,
      "_b": 1229,
      "िव": 1230,
      "ुख": 1231,
      "](https://en.wikipedia.org/wiki/C": 1232,
      "▁मेला": 1233,
      "7.": 1234,
      "▁&": 1235,
      "▁with": 1236,
      "Indian": 1237,
      "▁*[": 1238,
      "▁\"A": 1239,
      "sher": 1240,
      "ुस": 1241,
      "्ड": 1242,
      "रालेख": 1243,
      "र्थ": 1244,
      "eral": 1245,
      "▁Asia": 1246,
      "df": 1247,
      "▁\"P": 1248,
      "▁University": 1249,
      "_भारत": 1250,
      "द्र": 1251,
      "पाल": 1252,
      "ा_": 1253,
      "ोक": 1254,
      "्च": 1255,
      "▁हु": 1256,
      "_की_स": 1257,
      "्वीप": 1258,
      "_में": 1259,
      "/https://": 1260,
      "9.": 1261,
      "titu": 1262,
      "ate_": 1263,
      "dge": 1264,
      "▁Ret": 1265,
      "ध्य": 1266,
      "शिया": 1267,
      "](https://hi.wikipedia.org/wiki/अ": 1268,
      "▁सम": 1269,
      "किस्तान": 1270,
      "ंग्रेज़": 1271,
      "रालेखित": 1272,
      "](https://te.wikipedia.org/wiki/భారతదేశం#cite_": 1273,
      "rieved": 1274,
      "▁Retrieved": 1275,
      "vi": 1276,
      "E0%": 1277,
      "4%": 1278,
      "overnment": 1279,
      "रब": 1280,
      "గా": 1281,
      "▁सूची": 1282,
      "त्तर": 1283,
      "▁भी": 1284,
      "43": 1285,
      "language": 1286,
      "▁di": 1287,
      "ore": 1288,
      "CS": 1289,
      "art": 1290,
      "ంట": 1291,
      "కి": 1292,
      "](https://www.": 1293,
      "46": 1294,
      "थान": 1295,
      "न\")": 1296,
      "चित्र": 1297,
      "_R": 1298,
      "a\")": 1299,
      "cl": 1300,
      "ank": 1301,
      "ue": 1302,
      "మ్రా": 1303,
      "ష్ట్ర": 1304,
      "ummit": 1305,
      "के": 1306,
      "फ़": 1307,
      "मिल": 1308,
      "](https://hi.wikipedia.org/wiki/ब": 1309,
      "▁language": 1310,
      "49": 1311,
      "▁2014": 1312,
      "ంత": 1313,
      "_p": 1314,
      "](https://en.wikipedia.org/wiki/M": 1315,
      "ते": 1316,
      "दक्षिण": 1317,
      "ष्": 1318,
      "ीन": 1319,
      "](https://hi.wikipedia.org/wiki/भारत_में": 1320,
      "▁हि": 1321,
      "▁3": 1322,
      "ali": 1323,
      "ism": 1324,
      "![](https://upload.wikimedia.org/wikipedia/commons/thumb/": 1325,
      "rchived": 1326,
      "▁(P": 1327,
      "_B": 1328,
      "ear": 1329,
      "ure": 1330,
      "मे": 1331,
      "పు": 1332,
      "▁[प": 1333,
      "ani": 1334,
      "▁सरकार": 1335,
      "amb": 1336,
      "ity": 1337,
      "ries": 1338,
      "▁[P": 1339,
      "▁\"T": 1340,
      "AJ": 1341,
      "▁న": 1342,
      "6.": 1343,
      "गण": 1344,
      "रु": 1345,
      "▁घ": 1346,
      "▁2011": 1347,
      "BAJ": 1348,
      "QBAJ": 1349,
      "ficial": 1350,
      "1998": 1351,
      "tim": 1352,
      "india.gov": 1353,
      "_s": 1354,
      "మి": 1355,
      "ాన": 1356,
      "anguages": 1357,
      "▁\"E": 1358,
      "artic": 1359,
      "_प्र": 1360,
      "हु": 1361,
      "ा:": 1362,
      "ूच": 1363,
      "ूप": 1364,
      "ूर": 1365,
      "▁२": 1366,
      "नाम": 1367,
      "ज्ञ": 1368,
      "E0%A": 1369,
      "au": 1370,
      "_G": 1371,
      "పా": 1372,
      "▁ఇ": 1373,
      "▁త": 1374,
      "ine": 1375,
      "భాష": 1376,
      "o-": 1377,
      ".pdf": 1378,
      ".pdf)": 1379,
      "कर": 1380,
      "ont": 1381,
      "श्चि": 1382,
      "▁was": 1383,
      "ard": 1384,
      "▁ex": 1385,
      "1)": 1386,
      "AAQBAJ": 1387,
      "▁are": 1388,
      "33": 1389,
      "new": 1390,
      "DF": 1391,
      "_E": 1392,
      "ण्ड": 1393,
      "ैद": 1394,
      "పాల": 1395,
      "లీ": 1396,
      "▁[978-0-": 1397,
      "](https://en.wikipedia.org/wiki/B": 1398,
      "▁तक": 1399,
      "साँच": 1400,
      "▁an": 1401,
      "ere": 1402,
      "ff": 1403,
      "250": 1404,
      "▁దేశ": 1405,
      "స్తా": 1406,
      ")\")": 1407,
      "ख्या": 1408,
      "जी": 1409,
      "](https://hi.wikipedia.org/wiki/भारतीय_": 1410,
      "न्न": 1411,
      "hel": 1412,
      "count": 1413,
      "s.": 1414,
      "▁–": 1415,
      "ari": 1416,
      "lic": 1417,
      "వర్": 1418,
      "ాయ": 1419,
      "ile": 1420,
      "▁[2": 1421,
      "▁(PDF": 1422,
      "rad": 1423,
      "ust": 1424,
      "सम": 1425,
      "्रिट": 1426,
      "](https://en.wikipedia.org/wiki/P": 1427,
      "ों_की_स": 1428,
      "न्द्र": 1429,
      "4.": 1430,
      "5.": 1431,
      "lish": 1432,
      "onstitu": 1433,
      "mber": 1434,
      "MetcalfMetcalf": 1435,
      "Singh": 1436,
      "-1)": 1437,
      ".nic": 1438,
      "ंब": 1439,
      "ओं": 1440,
      "न्त": 1441,
      "ीं": 1442,
      "\").\n": 1443,
      "](https://hi.wikipedia.org/wiki/प": 1444,
      "\\_S": 1445,
      "चीन": 1446,
      "]](https://hi.wikipedia.org/wiki/भारत#cite_note-FOOTNOTE": 1447,
      "जाब": 1448,
      "39": 1449,
      "\"))\n": 1450,
      "మ్రాజ్యం": 1451,
      "77": 1452,
      "▁V": 1453,
      "ati": 1454,
      "bot": 1455,
      "les": 1456,
      "%E0%A": 1457,
      "sv": 1458,
      "जरा": 1459,
      "▁[उ": 1460,
      "▁\"D": 1461,
      "▁\"List": 1462,
      "▁किया": 1463,
      "▁हो": 1464,
      "దేశ్": 1465,
      "▁नि": 1466,
      "tics": 1467,
      "▁विश": 1468,
      "_के_राज्य": 1469,
      "ंदिर": 1470,
      "udd": 1471,
      "Stein1998": 1472,
      "Singh2009": 1473,
      "ec": 1474,
      "▁it": 1475,
      "aki": 1476,
      "ford": 1477,
      "ం](https://te.wikipedia.org/wiki/": 1478,
      "▁[1": 1479,
      "▁\"G": 1480,
      "2010": 1481,
      "ुल": 1482,
      "ोर": 1483,
      "ations": 1484,
      "▁./श्रेणी:": 1485,
      "ुसार": 1486,
      "ex": 1487,
      "hm": 1488,
      "ated": 1489,
      "-p": 1490,
      "3.": 1491,
      "8.": 1492,
      "fe": 1493,
      "ric": 1494,
      "template": 1495,
      "conomic": 1496,
      "80": 1497,
      "ంబ": 1498,
      "టి": 1499,
      "albot": 1500,
      "ture": 1501,
      "2004": 1502,
      "\\_errors": 1503,
      "help": 1504,
      "ंजाब": 1505,
      "ब्": 1506,
      "वन": 1507,
      "सभ": 1508,
      "▁[G": 1509,
      "ties": 1510,
      "▁खाना": 1511,
      "ों_की_सूची": 1512,
      "Kul": 1513,
      "National": 1514,
      "ts": 1515,
      "xford": 1516,
      "ess": 1517,
      "▁whi": 1518,
      "120": 1519,
      "ంలో": 1520,
      "eng": 1521,
      "sian": 1522,
      ").\n": 1523,
      "స్తాన్": 1524,
      "\"](https://web.archive.org/web/201": 1525,
      "56": 1526,
      "port": 1527,
      "▁errors": 1528,
      "▁([help": 1529,
      "_and_S": 1530,
      "▁errors\"))\n": 1531,
      "Asher": 1532,
      ".jpg)\n": 1533,
      "List_of_": 1534,
      "_भाषा": 1535,
      "चल": 1536,
      "प्त": 1537,
      "बसे": 1538,
      "ेंद्र": 1539,
      "](https://hi.wikipedia.org/wiki/भारत_क": 1540,
      "\\_and": 1541,
      "sion": 1542,
      "ालय": 1543,
      "000": 1544,
      "▁गया": 1545,
      "▁[मूल": 1546,
      "पाकिस्तान": 1547,
      "▁राज्यों": 1548,
      "▁सूची\")": 1549,
      ".nic.in/": 1550,
      "గు": 1551,
      "డు": 1552,
      "నే": 1553,
      "్చ": 1554,
      "to": 1555,
      "indi": 1556,
      "als": 1557,
      "ven": 1558,
      "lop": 1559,
      "mund": 1560,
      "othermund": 1561,
      "ैन": 1562,
      "మూ": 1563,
      "▁\"उ": 1564,
      "ark": 1565,
      "▁मान": 1566,
      "్రీ": 1567,
      "▁प्रा": 1568,
      "स्था": 1569,
      "జాత": 1570,
      "युक्त": 1571,
      "स्कृत": 1572,
      "AAQBAJ&pg=PA": 1573,
      "3)": 1574,
      "gen": 1575,
      ",_": 1576,
      "DP": 1577,
      "_templ": 1578,
      "▁error": 1579,
      "▁template": 1580,
      "no-t": 1581,
      "\\_no-t": 1582,
      "▁Sfn": 1583,
      "▁target": 1584,
      "fn_templ": 1585,
      "fn\\_no-t": 1586,
      "arget\\_errors": 1587,
      "ate_errors": 1588,
      "\\_Sfn\\_no-t": 1589,
      "_and_Sfn_templ": 1590,
      "\\_and\\_Sfn\\_no-t": 1591,
      "▁error:": 1592,
      "▁target:": 1593,
      "arget\\_errors\n": 1594,
      "_and_Sfn_template_errors": 1595,
      "\\_and\\_Sfn\\_no-target\\_errors\n": 1596,
      "12": 1597,
      "4)": 1598,
      "RI": 1599,
      "లా": 1600,
      "omp": 1601,
      "ంగా": 1602,
      "n_": 1603,
      "▁7": 1604,
      "▁सबसे": 1605,
      "ाली": 1606,
      "ियों": 1607,
      "▁पुरालेखित": 1608,
      "चित्र:": 1609,
      "्रिटिश": 1610,
      "Kulke": 1611,
      "▁पुरालेखित।": 1612,
      "ire": 1613,
      "▁r": 1614,
      "ame": 1615,
      "85": 1616,
      "](https://en.wikipedia.org/wiki/D": 1617,
      "డ్": 1618,
      "ిల్": 1619,
      "▁జ": 1620,
      "ding": 1621,
      "▁CITEREF": 1622,
      "ublic": 1623,
      "](https://hi.wikipedia.org/wiki/चित्र:": 1624,
      "riti": 1625,
      "याल": 1626,
      "▁अधिक": 1627,
      "ियाँ": 1628,
      "क्ति": 1629,
      "▁१९": 1630,
      "▁[E": 1631,
      "▁sfn": 1632,
      "rou": 1633,
      "uni": 1634,
      "లి": 1635,
      "▁5": 1636,
      "▁at": 1637,
      "ach": 1638,
      "స్త్ర": 1639,
      "pecial:BookSources/978-1": 1640,
      "na": 1641,
      "▁[D": 1642,
      "आई": 1643,
      "ज्य": 1644,
      "म्रा": 1645,
      "वरी": 1646,
      "शास": 1647,
      "ेव": 1648,
      "्ला": 1649,
      "।[[": 1650,
      "▁कि": 1651,
      "▁जिस": 1652,
      "स्थान": 1653,
      "▁De": 1654,
      "▁उप": 1655,
      "▁199": 1656,
      "श्मी": 1657,
      "conomy": 1658,
      "%E0%A4%": 1659,
      "కా": 1660,
      "ణా": 1661,
      "దక్ష": 1662,
      "ధిక": 1663,
      "▁ma": 1664,
      "▁ప్రా": 1665,
      "▁వి": 1666,
      "సియా": 1667,
      "times": 1668,
      "జాతీయ": 1669,
      "census": 1670,
      "oc": 1671,
      "html": 1672,
      "521": 1673,
      "ik": 1674,
      "iki": 1675,
      "▁South": 1676,
      "hy": 1677,
      "uc": 1678,
      "एस": 1679,
      "की": 1680,
      "च्च": 1681,
      "तमिल": 1682,
      "दा": 1683,
      "बंध": 1684,
      "వం": 1685,
      "▁धर्म": 1686,
      "▁\"R": 1687,
      "](https://hi.wikipedia.org/wiki/भारत#CITEREF": 1688,
      "्वर": 1689,
      "तिहास": 1690,
      "▁आधार": 1691,
      "▁संघ": 1692,
      "▁है।\n": 1693,
      "▁సం": 1694,
      "▁साथ": 1695,
      "▁చరిత్ర": 1696,
      "▁[भारतीय": 1697,
      "](https://hi.wikipedia.org/wiki/भारत_में_": 1698,
      "म्राज्य": 1699,
      "74": 1700,
      "▁which": 1701,
      "62": 1702,
      "](https://en.wikipedia.org/wiki/E": 1703,
      "ase": 1704,
      "ass": 1705,
      "ridge": 1706,
      "out": 1707,
      "▁History": 1708,
      "res": 1709,
      "ob": 1710,
      "డి": 1711,
      "ree": 1712,
      "_and_": 1713,
      "2)": 1714,
      "a_": 1715,
      "रे": 1716,
      "ागर": 1717,
      "▁था": 1718,
      "▁\"श्रेणी:Harv": 1719,
      "\")*": 1720,
      "](https://hi.wikipedia.org/wiki/श्रेणी:Harv": 1721,
      "▁सि": 1722,
      "िया\")": 1723,
      "▁बाद": 1724,
      "माण": 1725,
      "िल्ल": 1726,
      "▁./श्रेणी:Harv": 1727,
      "▁विश्व": 1728,
      "▁([help](https://hi.wikipedia.org/wiki/श्रेणी:Harv": 1729,
      "_and_Sfn_template_errors?action=edit&redlink=1": 1730,
      "▁./श्रेणी:Harv\\_and\\_Sfn\\_no-target\\_errors\n": 1731,
      "▁([help](https://hi.wikipedia.org/wiki/श्रेणी:Harv_and_Sfn_template_errors?action=edit&redlink=1": 1732,
      "IN": 1733,
      "](https://en.wikipedia.org/wiki/T": 1734,
      "-b": 1735,
      "59": 1736,
      "United": 1737,
      "▁[Archived": 1738,
      "ంధ": 1739,
      "al_": 1740,
      "స్త": 1741,
      "ult": 1742,
      "▁రాజ్యం": 1743,
      "▁సామ్రాజ్యం": 1744,
      "వర్గ": 1745,
      "దక్షి": 1746,
      "▁**[": 1747,
      "[![](https://upload.wikimedia.org/wikipedia/commons/thumb/": 1748,
      "णा": 1749,
      "तंत्र": 1750,
      "मुख": 1751,
      "ोर्": 1752,
      "▁li": 1753,
      "ten": 1754,
      "](https://hi.wikipedia.org/wiki/उ": 1755,
      "्यट": 1756,
      "nolog": 1757,
      "_सं": 1758,
      "▁has": 1759,
      "▁that": 1760,
      "MetcalfMetcalf2006": 1761,
      "దీ": 1762,
      "ange": 1763,
      "▁mo": 1764,
      "ండి": 1765,
      "ambridge": 1766,
      "వర్గం:": 1767,
      "▁[T": 1768,
      "hist": 1769,
      "territ": 1770,
      "cont": 1771,
      "250px-": 1772,
      "od": 1773,
      "गढ़": 1774,
      "वे": 1775,
      "ाट": 1776,
      "ांग": 1777,
      "▁[सं": 1778,
      "▁India's": 1779,
      "क्षेत्र": 1780,
      "▁शास": 1781,
      "▁हिन्द": 1782,
      "श्चिम": 1783,
      "akistan": 1784,
      "mer": 1785,
      "తర": 1786,
      "ది": 1787,
      "▁బ": 1788,
      "▁[R": 1789,
      "▁[978-1": 1790,
      "▁2007": 1791,
      "edi": 1792,
      "vis": 1793,
      "mpire": 1794,
      "05": 1795,
      "▁4": 1796,
      "▁pro": 1797,
      "10.": 1798,
      "ath": 1799,
      "inist": 1800,
      "empl": 1801,
      "धी": 1802,
      "में": 1803,
      "वर्": 1804,
      "ట్": 1805,
      "ిత": 1806,
      "▁थ": 1807,
      "▁कार": 1808,
      "्वार": 1809,
      "▁\"Special:BookSources/978-0-": 1810,
      "](Special:BookSources/978-0-": 1811,
      "गुजरा": 1812,
      "_प्रदेश": 1813,
      "RICS": 1814,
      "-s": 1815,
      "..": 1816,
      "usi": 1817,
      "dition": 1818,
      "ant": 1819,
      "###": 1820,
      "yson": 1821,
      "data": 1822,
      "age/": 1823,
      "elhi": 1824,
      "_చ": 1825,
      "ah": 1826,
      "sland": 1827,
      "ం\")": 1828,
      "▁\"N": 1829,
      "▁\"మ": 1830,
      "ింది.": 1831,
      "-g": 1832,
      "7)": 1833,
      "_और": 1834,
      "एं": 1835,
      "ेर": 1836,
      "▁[न": 1837,
      "velop": 1838,
      "ड़ा": 1839,
      "▁यह": 1840,
      "ज्ञान": 1841,
      "ous": 1842,
      "2007": 1843,
      "amil": 1844,
      "ile:": 1845,
      "onstitution": 1846,
      "Dw": 1847,
      "ers": 1848,
      "\"\n": 1849,
      ".sv": 1850,
      "Rothermund": 1851,
      "oh": 1852,
      "▁ఎ": 1853,
      "▁[మ": 1854,
      "](https://en.wikipedia.org/wiki/A": 1855,
      "196": 1856,
      "ack": 1857,
      "rap": 1858,
      "▁(సా.శ.పూ.": 1859,
      "ght": 1860,
      "ansk": 1861,
      "world": 1862,
      "तर": 1863,
      "भी": 1864,
      "००": 1865,
      "▁2": 1866,
      "▁U": 1867,
      "▁[N": 1868,
      "▁\"विशेष:पुस्तक": 1869,
      "](https://hi.wikipedia.org/wiki/ISBN_(identifier)": 1870,
      "](https://hi.wikipedia.org/wiki/विशेष:पुस्तक": 1871,
      "▁स्रोत/": 1872,
      "▁(201": 1873,
      "▁पा": 1874,
      "](https://hi.wikipedia.org/wiki/भारत_के_": 1875,
      "लाई": 1876,
      "_स्रोत/": 1877,
      "▁रूप": 1878,
      "_के_आ": 1879,
      "_Asia": 1880,
      "ी_भाषा": 1881,
      "▁लि": 1882,
      "▁यु": 1883,
      "▁[ISBN](https://hi.wikipedia.org/wiki/ISBN_(identifier)": 1884,
      "त्प": 1885,
      "साँचा:": 1886,
      "ritish": 1887,
      "ांग्ला": 1888,
      "](https://hi.wikipedia.org/wiki/विशेष:पुस्तक_स्रोत/": 1889,
      "ulture": 1890,
      "](http://www.": 1891,
      "File:": 1892,
      "mb": 1893,
      "ope": 1894,
      "ral": 1895,
      "ధ్య": 1896,
      "▁8": 1897,
      "▁గ": 1898,
      "▁శ": 1899,
      "▁\"In": 1900,
      "ese": 1901,
      "aste": 1902,
      "illi": 1903,
      "ంద్ర": 1904,
      "\")**": 1905,
      "anskrit": 1906,
      "ined": 1907,
      "2005": 1908,
      "KulkeRothermund": 1909,
      "34": 1910,
      "man": 1911,
      "ंप": 1912,
      "काल": 1913,
      "तेल": 1914,
      "बर": 1915,
      "मह": 1916,
      "ली": 1917,
      "सद": 1918,
      "िन": 1919,
      "▁25": 1920,
      "▁26": 1921,
      "▁राष्ट्रीय": 1922,
      "▁नाम": 1923,
      "tical": 1924,
      "▁स्व": 1925,
      "्यव": 1926,
      "omb": 1927,
      "▁जु": 1928,
      "▁दक्षिण": 1929,
      "ेश्वर": 1930,
      "▁है,": 1931,
      "](https://hi.wikipedia.org/wiki/भारत#cite_ref": 1932,
      "▁[↑](https://hi.wikipedia.org/wiki/भारत#cite_ref": 1933,
      "]](https://hi.wikipedia.org/wiki/भारत#cite_note": 1934,
      "ूचना": 1935,
      "velopment": 1936,
      "Edit": 1937,
      "Hindu": 1938,
      "Page/": 1939,
      "ైన": 1940,
      "](https://te.wikipedia.org/wiki/మ": 1941,
      "▁పే": 1942,
      "dern": 1943,
      "EditPage/": 1944,
      "arch": 1945,
      "alay": 1946,
      "ury": 1947,
      "37": 1948,
      "5)": 1949,
      "aw": 1950,
      "ashm": 1951,
      "C&pg=PA": 1952,
      "a,": 1953,
      "▁pe": 1954,
      "▁le": 1955,
      "▁fi": 1956,
      "pend": 1957,
      "ligion": 1958,
      "▁18": 1959,
      "india.gov.in/": 1960,
      "_पर": 1961,
      "एशिया": 1962,
      "पति": 1963,
      "बाद": 1964,
      "रक्ष": 1965,
      "सी": 1966,
      "ाष्ट्र": 1967,
      "ట్ట": 1968,
      "హింద": 1969,
      "▁భారతదేశం": 1970,
      "](File:": 1971,
      "▁[हिन्द": 1972,
      "end": 1973,
      "inent": 1974,
      "▁पूर्व": 1975,
      "िक्ष": 1976,
      "▁अप": 1977,
      "▁cent": 1978,
      "usin": 1979,
      "▁विक": 1980,
      "▁गण": 1981,
      "_मेला": 1982,
      "नेमा": 1983,
      "ంగ్": 1984,
      "धार_पर": 1985,
      "ద్ధ": 1986,
      "द्योग": 1987,
      "हाराष्ट्र": 1988,
      "_के_आधार_पर": 1989,
      "_के_आधार_पर_भारत": 1990,
      "qu": 1991,
      "ood": 1992,
      "/https://www.": 1993,
      "1_": 1994,
      "_F": 1995,
      "dus": 1996,
      "▁\"The": 1997,
      "in-": 1998,
      "](https://en.wikipedia.org/wiki/G": 1999,
      "-m": 2000,
      "▁Re": 2001,
      "1,": 2002,
      "a/": 2003,
      "ించ": 2004,
      "▁ఒ": 2005,
      "▁భాష": 2006,
      "orth": 2007,
      "▁[క": 2008,
      "](https://en.wikipedia.org/wiki/R": 2009,
      "ాల్": 2010,
      "uring": 2011,
      "](https://en.wikipedia.org/wiki/India#cite_ref-FOOTNOTE": 2012,
      "_by": 2013,
      "oi": 2014,
      "pib": 2015,
      "खा": 2016,
      "वाद": 2017,
      "स्ट": 2018,
      "▁\"इ": 2019,
      "ार्": 2020,
      "ार्ट": 2021,
      "▁मंदिर": 2022,
      "विधान": 2023,
      "ंगा": 2024,
      "▁न्या": 2025,
      "▁अनुसार": 2026,
      "do-": 2027,
      "ंग्रेज़ी": 2028,
      "▁पुरालेखित।.": 2029,
      "▁जुलाई": 2030,
      "_के_आधार_पर_भारत_के_राज्य": 2031,
      "val": 2032,
      "wn": 2033,
      "▁te": 2034,
      "▁[![": 2035,
      "on_": 2036,
      "ission": 2037,
      "ril": 2038,
      "▁its": 2039,
      "_L": 2040,
      "lection": 2041,
      ".;": 2042,
      "58": 2043,
      "]](https://te.wikipedia.org/wiki/భారతదేశం#cite_": 2044,
      "చ్చ": 2045,
      "జీ": 2046,
      "ేంద్ర": 2047,
      "▁\"క": 2048,
      "urope": 2049,
      "\"](https://www.": 2050,
      "Oxford": 2051,
      "World": 2052,
      "▁\"K": 2053,
      "▁St": 2054,
      "6)": 2055,
      "PP": 2056,
      "RC": 2057,
      "_अ": 2058,
      "ms": 2059,
      "mar": 2060,
      "जय": 2061,
      "टे": 2062,
      "िन्": 2063,
      "ोन": 2064,
      "▁\"Indian": 2065,
      "▁मु": 2066,
      "▁Comm": 2067,
      "नाग": 2068,
      "▁sub": 2069,
      "नेपाल": 2070,
      "▁[↑](https://hi.wikipedia.org/wiki/भारत#cite_ref-FOOTNOTE": 2071,
      "▁देशों": 2072,
      ".jpg/250px-": 2073,
      "roup": 2074,
      "्यवस्था": 2075,
      "0.": 2076,
      "ef": 2077,
      "tive": 2078,
      "india/": 2079,
      "▁Hindu": 2080,
      "Talbot": 2081,
      "ion": 2082,
      "త్య": 2083,
      "బ్": 2084,
      "మీ": 2085,
      "▁[the": 2086,
      "](https://te.wikipedia.org/wiki/ద": 2087,
      "్యా": 2088,
      "రాష్ట్ర": 2089,
      "▁./వర్గం:": 2090,
      "AsherTalbot": 2091,
      "usic": 2092,
      "65": 2093,
      "ord": 2094,
      "alth": 2095,
      "ome": 2096,
      "2003": 2097,
      "matics": 2098,
      "radesh": 2099,
      "ंक": 2100,
      "क्स": 2101,
      "ल\")": 2102,
      "श्री": 2103,
      "िम": 2104,
      "▁[इ": 2105,
      "▁\"न": 2106,
      "▁\"हिन्द": 2107,
      "arli": 2108,
      "▁count": 2109,
      "▁cont": 2110,
      "_क्षेत्र": 2111,
      "ंगाल": 2112,
      "▁तट": 2113,
      "▁एवं": 2114,
      "▁एशिया": 2115,
      "▁प्रदेश\")": 2116,
      "धिकार": 2117,
      "▁समय": 2118,
      "श्मीर": 2119,
      "fficial": 2120,
      "ంక": 2121,
      "ప్": 2122,
      "యు": 2123,
      "any": 2124,
      "isation": 2125,
      "▁languages": 2126,
      "\").[[": 2127,
      "తంత్ర": 2128,
      "](https://te.wikipedia.org/wiki/భారతదేశం#cite_ref-": 2129,
      "దక్షిణ": 2130,
      "continent": 2131,
      "]](https://te.wikipedia.org/wiki/భారతదేశం#cite_note-": 2132,
      "/c": 2133,
      "_language": 2134,
      "pur": 2135,
      "ran": 2136,
      "uk": 2137,
      "ves": 2138,
      "▁ad": 2139,
      "▁[L": 2140,
      "int": 2141,
      "▁se": 2142,
      "/http://www.": 2143,
      "emplate": 2144,
      "2008": 2145,
      "▁2021": 2146,
      "121": 2147,
      "_స": 2148,
      "ave": 2149,
      "त्य": 2150,
      "दिल्ल": 2151,
      "लोक": 2152,
      "ीस": 2153,
      "ेट": 2154,
      "తము": 2155,
      "వే": 2156,
      "ష్": 2157,
      "ాన్": 2158,
      "▁\"सं": 2159,
      "on-": 2160,
      "▁केंद्र": 2161,
      "](https://en.wikipedia.org/wiki/N": 2162,
      "](https://en.wikipedia.org/wiki/List_of_": 2163,
      "off": 2164,
      "▁मा": 2165,
      "र्द": 2166,
      "ater": 2167,
      "भाग": 2168,
      "స్క": 2169,
      "ड़ी": 2170,
      "संख्या": 2171,
      "राष्ट्रपति": 2172,
      "▁साम्राज्य": 2173,
      "हासागर": 2174,
      "ograp": 2175,
      "ిల్లీ": 2176,
      "शासित": 2177,
      "330": 2178,
      "69": 2179,
      "7-1": 2180,
      "co": 2181,
      "ram": 2182,
      "ament": 2183,
      "s\")": 2184,
      "ug": 2185,
      "▁wh": 2186,
      "rg": 2187,
      "▁un": 2188,
      "▁Ch": 2189,
      "](https://web.archive.org/web/20": 2190,
      "cre": 2191,
      "జి": 2192,
      "ధాన": 2193,
      "బె": 2194,
      "ారు": 2195,
      "▁కా": 2196,
      "▁రాజ": 2197,
      "AARC": 2198,
      "doi": 2199,
      "DwAAQBAJ&pg=PA": 2200,
      "ombined": 2201,
      "iv": 2202,
      "les/": 2203,
      "एँ": 2204,
      "गो": 2205,
      "चे": 2206,
      "धु": 2207,
      "ीत": 2208,
      "ैक": 2209,
      "ोड़": 2210,
      "▁[[": 2211,
      "▁मूल": 2212,
      "्यता": 2213,
      "ान\")": 2214,
      "ाला": 2215,
      "▁जो": 2216,
      "▁बहु": 2217,
      "▁सेना": 2218,
      "▁were": 2219,
      "▁भू": 2220,
      "विश्व": 2221,
      ".jpg)](https://hi.wikipedia.org/wiki/चित्र:": 2222,
      "म्बर": 2223,
      "▁स्थ": 2224,
      "▁वर्ष": 2225,
      "्यटन": 2226,
      "गुजरात": 2227,
      "1/": 2228,
      "▁6": 2229,
      "ace": 2230,
      "nglish": 2231,
      "57": 2232,
      "dust": 2233,
      "sp": 2234,
      "దు": 2235,
      "మ్": 2236,
      "శ్": 2237,
      "](https://te.wikipedia.org/wiki/క": 2238,
      "ames": 2239,
      "్యవ": 2240,
      "▁17": 2241,
      "ంది.": 2242,
      "Stein2010": 2243,
      "_చరిత్ర": 2244,
      "▁this": 2245,
      "une": 2246,
      "-80": 2247,
      "Combined": 2248,
      "air": 2249,
      "डी": 2250,
      "तिक": 2251,
      "भू": 2252,
      "वै": 2253,
      "ील": 2254,
      "ृति": 2255,
      "।\n": 2256,
      "▁ri": 2257,
      "▁\"H": 2258,
      "▁मे": 2259,
      "नाथ": 2260,
      "▁रह": 2261,
      "▁अन्य": 2262,
      "904": 2263,
      "▁2014.\n": 2264,
      "ashmir": 2265,
      "national": 2266,
      "asi": 2267,
      "▁Ap": 2268,
      "isher": 2269,
      "_at": 2270,
      "ail": 2271,
      "ove": 2272,
      "ఢిల్లీ": 2273,
      "పంచ": 2274,
      "▁[K": 2275,
      "▁[In": 2276,
      "▁\"L": 2277,
      "ారి": 2278,
      "▁16": 2279,
      ".jpg)](File:": 2280,
      "మూస": 2281,
      "51": 2282,
      "South": 2283,
      "ces": 2284,
      "aman": 2285,
      "old": 2286,
      "yste": 2287,
      "/p": 2288,
      "73": 2289,
      "bi": 2290,
      "kno": 2291,
      "lang": 2292,
      "yn": 2293,
      "ority": 2294,
      "inistry": 2295,
      ",000": 2296,
      "75": 2297,
      "_the": 2298,
      "टक": 2299,
      "डिया": 2300,
      "णि": 2301,
      "तु": 2302,
      "पी": 2303,
      "रण": 2304,
      "रो": 2305,
      "िस्तान": 2306,
      "ृष्": 2307,
      "▁छ": 2308,
      "▁फ": 2309,
      "▁si": 2310,
      "▁[ज": 2311,
      "▁वा": 2312,
      "▁उत्तर": 2313,
      "म्म": 2314,
      "हिन्दी": 2315,
      "ternational": 2316,
      "वंश": 2317,
      "▁जाता": 2318,
      "र्थिक": 2319,
      "news/": 2320,
      "▁निर्": 2321,
      "तंत्रता": 2322,
      "वेब": 2323,
      "द्योगिक": 2324,
      "8/": 2325,
      "Wiki": 2326,
      "dom": 2327,
      "rary": 2328,
      "వు": 2329,
      "▁\"భారతీయ": 2330,
      "eneral": 2331,
      "▁(PDF)": 2332,
      "/artic": 2333,
      "100": 2334,
      "2014": 2335,
      "ople": 2336,
      "▁2024": 2337,
      "uis": 2338,
      "](https://en.wikipedia.org/wiki/In": 2339,
      "cies": 2340,
      "19-8": 2341,
      "ed.": 2342,
      "▁ch": 2343,
      "ctor": 2344,
      "eb": 2345,
      "▁24": 2346,
      "▁[t": 2347,
      "inis": 2348,
      "rib": 2349,
      "led": 2350,
      "▁2019": 2351,
      "uly": 2352,
      "mple": 2353,
      "ongress": 2354,
      "9)": 2355,
      "sc": 2356,
      "पे": 2357,
      "मार": 2358,
      "मंत्र": 2359,
      "रवरी": 2360,
      "ल्": 2361,
      "िज़": 2362,
      "జన": 2363,
      "టు": 2364,
      "టె": 2365,
      "▁ड": 2366,
      "▁[पु": 2367,
      "▁\"आ": 2368,
      "ley": 2369,
      "▁अग": 2370,
      "विज्ञान": 2371,
      "▁10": 2372,
      "ड़े": 2373,
      "ाद्वीप": 2374,
      "ी](https://hi.wikipedia.org/wiki/अ": 2375,
      "▁చె": 2376,
      "నాయ": 2377,
      "–సా.శ.పూ.": 2378,
      "▁ఆర్": 2379,
      "పాలిత": 2380,
      "यालय": 2381,
      "స్త్రం:": 2382,
      "▁ప్రాంత": 2383,
      "▁[↑](https://hi.wikipedia.org/wiki/भारत#cite_ref-1": 2384,
      "]](https://hi.wikipedia.org/wiki/भारत#cite_note-1": 2385,
      "ేంద్రపాలిత": 2386,
      "](https://te.wikipedia.org/wiki/దస్త్రం:": 2387,
      "▁21": 2388,
      "map": 2389,
      "▁2016": 2390,
      "87": 2391,
      "ili": 2392,
      "shi": 2393,
      "▁v": 2394,
      "▁pl": 2395,
      "▁An": 2396,
      "ign": 2397,
      ".svg": 2398,
      "-d": 2399,
      "-in-": 2400,
      "▁territ": 2401,
      "ork": 2402,
      "2-": 2403,
      "_m": 2404,
      "ఖ్య": 2405,
      "గో": 2406,
      "తో": 2407,
      "బి": 2408,
      "హి": 2409,
      "▁[H": 2410,
      "▁\"F": 2411,
      "▁India:": 2412,
      "▁Asian": 2413,
      "ill": 2414,
      "▁World": 2415,
      "ories": 2416,
      "▁Commission": 2417,
      "స్కృ": 2418,
      "330px-": 2419,
      "/0": 2420,
      "/A": 2421,
      "_न": 2422,
      "_ब": 2423,
      "oci": 2424,
      "गोल": 2425,
      "ङ्": 2426,
      "डु": 2427,
      "द्वीप": 2428,
      "देव": 2429,
      "धि": 2430,
      "िज": 2431,
      "ूर्": 2432,
      "ेस": 2433,
      "▁9": 2434,
      "▁ऊ": 2435,
      "▁ट": 2436,
      "▁[आ": 2437,
      "▁अरब": 2438,
      "नाव": 2439,
      "▁द्वार": 2440,
      "▁15": 2441,
      "माज": 2442,
      "peration": 2443,
      "सेना": 2444,
      "▁चु": 2445,
      "▁हुई": 2446,
      "त्पाद": 2447,
      "▁विकास": 2448,
      "ystem": 2449,
      "-l": 2450,
      "cat": 2451,
      "line": 2452,
      "▁2009": 2453,
      "▁New": 2454,
      "%28": 2455,
      "gar": 2456,
      "▁22": 2457,
      "▁2010": 2458,
      "▁[*A": 2459,
      "\"](https://": 2460,
      "-india": 2461,
      "68": 2462,
      "Dyson": 2463,
      "_ప": 2464,
      "_In": 2465,
      "fter": 2466,
      "hat": 2467,
      "odi": 2468,
      "year": 2469,
      "హా": 2470,
      "ి.\n": 2471,
      "▁ను": 2472,
      "▁జాతీయ": 2473,
      "▁[F": 2474,
      "ature": 2475,
      "entre": 2476,
      "▁con": 2477,
      "%20%20": 2478,
      "india.gov.in": 2479,
      "▁(PDF).": 2480,
      "్యవస్థ": 2481,
      "langoff": 2482,
      "2-0)": 2483,
      "aper": 2484,
      "ta": 2485,
      "cient": 2486,
      "umber": 2487,
      "▁En": 2488,
      "ound": 2489,
      "ower": 2490,
      "71": 2491,
      "_प": 2492,
      "ris": 2493,
      "ंस": 2494,
      "ईसा": 2495,
      "कल": 2496,
      "खाना": 2497,
      "योग": 2498,
      "हित": 2499,
      "ौद्ध": 2500,
      "▁ध": 2501,
      "](https://hi.wikipedia.org/wiki/इ": 2502,
      "्रम": 2503,
      "▁सु": 2504,
      "▁पार्ट": 2505,
      "▁India,": 2506,
      "▁Cambridge": 2507,
      "▁दे": 2508,
      "▁दिया": 2509,
      "▁बढ़": 2510,
      "uman": 2511,
      "_सा": 2512,
      "पुरी": 2513,
      "▁संविधान": 2514,
      "iron": 2515,
      "म्प": 2516,
      "](https://mai.wikipedia.org/wiki/भारत": 2517,
      "▁क्षेत्र\")": 2518,
      "्रीका": 2519,
      "▁हुआ": 2520,
      "फ़रवरी": 2521,
      "गणना": 2522,
      "ंबई": 2523,
      "udden": 2524,
      "▁थी": 2525,
      "▁लिए": 2526,
      "र्दू": 2527,
      "▁April": 2528,
      "ost": 2529,
      "thnolog": 2530,
      "ligi": 2531,
      "▁Pl": 2532,
      "▁Population": 2533,
      "▁Empire": 2534,
      "history": 2535,
      "thnologue": 2536,
      "rst": 2537,
      "డా": 2538,
      "దా": 2539,
      "బడ": 2540,
      "మే": 2541,
      "రణ": 2542,
      "▁లో": 2543,
      "annic": 2544,
      "1947": 2545,
      "radition": 2546,
      "230": 2547,
      "▁కూ": 2548,
      "ాలు,": 2549,
      "ritannic": 2550,
      ".gov.in/": 2551,
      "imes": 2552,
      "▁రాష్ట్ర": 2553,
      "olitical": 2554,
      "కిస్తాన్": 2555,
      "countries": 2556,
      "▁చరిత్ర\")": 2557,
      "ution": 2558,
      "act": 2559,
      "lim": 2560,
      "entral": 2561,
      "%2C_": 2562,
      ".html": 2563,
      "79": 2564,
      "Vi": 2565,
      "_%28": 2566,
      "tar": 2567,
      "ugh": 2568,
      "van": 2569,
      "viron": 2570,
      "ledge": 2571,
      "sid": 2572,
      "▁Sh": 2573,
      "low": 2574,
      "akh": 2575,
      "▁not": 2576,
      "usiness": 2577,
      "Dyson2018": 2578,
      "vironment": 2579,
      "76": 2580,
      "_आ": 2581,
      "ck": 2582,
      "las": 2583,
      "pt": 2584,
      "ंति": 2585,
      "न](https://hi.wikipedia.org/wiki/": 2586,
      "निक": 2587,
      "नगर": 2588,
      "फल": 2589,
      "रेल": 2590,
      "वार": 2591,
      "▁[W": 2592,
      "▁मार": 2593,
      "राठ": 2594,
      "िक्": 2595,
      "▁जून": 2596,
      "▁दिस": 2597,
      "राजस्थान": 2598,
      "▁Pro": 2599,
      "▁इतिहास": 2600,
      "त्तरा": 2601,
      "जाति": 2602,
      "▁government": 2603,
      "eport": 2604,
      "धानमंत्र": 2605,
      "स्कृति": 2606,
      "ैदान": 2607,
      "▁खाना\")": 2608,
      "माणु": 2609,
      "महाद्वीप": 2610,
      "▁countries": 2611,
      "म्मू": 2612,
      "▁दिसम्बर": 2613,
      "2_": 2614,
      "uj": 2615,
      "–1": 2616,
      "▁ఈ": 2617,
      "▁ag": 2618,
      "▁భారత": 2619,
      "▁us": 2620,
      "▁Act": 2621,
      "▁1,": 2622,
      "▁Pradesh": 2623,
      "త్రి": 2624,
      "ాలు](https://te.wikipedia.org/wiki/": 2625,
      "▁\"Special:BookSources/978-1": 2626,
      "▁./Category:": 2627,
      "](Special:BookSources/978-1": 2628,
      "▁Island": 2629,
      "emplate:": 2630,
      "odern": 2631,
      "ince": 2632,
      "▁2023": 2633,
      ".jpg/330px-": 2634,
      ".\"\n": 2635,
      "_c": 2636,
      "tember": 2637,
      "](https://en.wikipedia.org/wiki/H": 2638,
      "▁par": 2639,
      "eptember": 2640,
      "▁July": 2641,
      "▁Asia\")": 2642,
      "dustry": 2643,
      "-re": 2644,
      "-language": 2645,
      "eg": 2646,
      "▁region": 2647,
      "arliament": 2648,
      "-20": 2649,
      ".as": 2650,
      "4-0)": 2651,
      "_క": 2652,
      "ober": 2653,
      "गा": 2654,
      "लि": 2655,
      "वी": 2656,
      "सभा": 2657,
      "ुट": 2658,
      "ैल": 2659,
      "ैंड": 2660,
      "०१": 2661,
      "తు": 2662,
      "పతి": 2663,
      "▁ని": 2664,
      "▁राष्ट्र": 2665,
      "▁స్థ": 2666,
      "▁फ़रवरी": 2667,
      "king": 2668,
      "▁[అ": 2669,
      "▁[ప": 2670,
      "▁\"భారతదేశం": 2671,
      "ारी": 2672,
      "](https://hi.wikipedia.org/wiki/सं": 2673,
      "▁सद": 2674,
      "▁पह": 2675,
      "్రి": 2676,
      "र्स": 2677,
      "र्जा": 2678,
      "्ता:": 2679,
      "](https://hi.wikipedia.org/wiki/भारतीय": 2680,
      "ats": 2681,
      "▁दृ": 2682,
      "▁बना": 2683,
      "▁प्रमुख": 2684,
      "ताब्": 2685,
      "ర్వ": 2686,
      "న్ని": 2687,
      "र्वत": 2688,
      "ंडिया": 2689,
      "पात": 2690,
      "ंग्रेस": 2691,
      "▁घाट": 2692,
      "మిళ": 2693,
      "country": 2694,
      "%E0%A4%B": 2695,
      "వంశ": 2696,
      "▁शासन": 2697,
      "▁हिन्दी": 2698,
      "illion": 2699,
      "वेबैक": 2700,
      "▁अगस्त": 2701,
      "▁द्वारा": 2702,
      "▁मार्च": 2703,
      "4–": 2704,
      "time": 2705,
      "ument": 2706,
      "▁Metcalf": 2707,
      "-2)": 2708,
      "-108": 2709,
      "hp": 2710,
      "han": 2711,
      "an_": 2712,
      "lear": 2713,
      "▁\"South": 2714,
      "ibrary": 2715,
      "ummit\")": 2716,
      "engal": 2717,
      "ographi": 2718,
      "%29": 2719,
      "3-0)": 2720,
      "89": 2721,
      "_re": 2722,
      "jab": 2723,
      "erv": 2724,
      "▁Chin": 2725,
      "depend": 2726,
      "▁1950": 2727,
      "ayan": 2728,
      "hindi": 2729,
      "logy": 2730,
      "also": 2731,
      "_W": 2732,
      "_మ": 2733,
      "_భాష": 2734,
      "ne": 2735,
      "ocial": 2736,
      "ఫ్": 2737,
      "▁స్": 2738,
      "kim": 2739,
      "▁[J": 2740,
      "▁[బ": 2741,
      "▁[స": 2742,
      "▁\"J": 2743,
      "▁\"అ": 2744,
      "ind": 2745,
      "acy": 2746,
      "-17": 2747,
      "న్నాయ": 2748,
      "row": 2749,
      "▁కాల": 2750,
      "ాలు\")": 2751,
      "duc": 2752,
      "▁have": 2753,
      "argest": 2754,
      "ులు](https://te.wikipedia.org/wiki/": 2755,
      "▁రై": 2756,
      ".jpg)](https://te.wikipedia.org/wiki/దస్త్రం:": 2757,
      "▁language\")": 2758,
      "521-80": 2759,
      "▁[Archived](https://web.archive.org/web/20": 2760,
      "KulkeRothermund2004": 2761,
      "హిందూ": 2762,
      "904-7": 2763,
      "521-80904-7": 2764,
      "_देश": 2765,
      "fr": 2766,
      "ंट": 2767,
      "खंड": 2768,
      "खण्ड": 2769,
      "भर": 2770,
      "रू": 2771,
      "व्यवस्था": 2772,
      "शीन": 2773,
      "हीं": 2774,
      "ाम": 2775,
      "ुरु": 2776,
      "ुंबई": 2777,
      "ोम": 2778,
      "ोष": 2779,
      "ोस": 2780,
      "ौर": 2781,
      "ौद्योगिक": 2782,
      "▁या": 2783,
      "▁27": 2784,
      "▁[e": 2785,
      "▁[ओ": 2786,
      "▁\"ओ": 2787,
      "\")*.": 2788,
      "▁संग": 2789,
      "estern": 2790,
      "▁जल": 2791,
      "नाडु": 2792,
      "▁दर": 2793,
      "त्रि": 2794,
      "▁बा": 2795,
      "▁प्रति": 2796,
      "स्त्र": 2797,
      "](https://hi.wikipedia.org/wiki/भारत#cite_ref-FOOTNOTE": 2798,
      "हाय": 2799,
      "▁हैं,": 2800,
      "किम": 2801,
      "पर्यटन": 2802,
      "दीव": 2803,
      "▁इसके": 2804,
      "ुख्य": 2805,
      "पालिका": 2806,
      "ज्ञा": 2807,
      "▁प्राप्त": 2808,
      "▁सिनेमा": 2809,
      "िक्षा": 2810,
      "धिकारिक": 2811,
      "िक्किम": 2812,
      "2/": 2813,
      "je": 2814,
      "ote": 2815,
      "▁year": 2816,
      "▁[3": 2817,
      "ini": 2818,
      "ally": 2819,
      "\\_with": 2820,
      "▁into": 2821,
      "▁Th": 2822,
      "▁[Stein": 2823,
      "_Press": 2824,
      "auth": 2825,
      "ffair": 2826,
      "uclear": 2827,
      "\".": 2828,
      "1-0)": 2829,
      "CE": 2830,
      "ron": 2831,
      "▁28": 2832,
      "▁[v": 2833,
      "▁Ass": 2834,
      "▁2006": 2835,
      "inister": 2836,
      "-78": 2837,
      "67": 2838,
      "NG": 2839,
      "c=": 2840,
      "gy": 2841,
      "m.nic.in/": 2842,
      "ncl": 2843,
      "ఆసియా": 2844,
      "ద్ర": 2845,
      "భూ": 2846,
      "మె": 2847,
      "య్య": 2848,
      "ర్య": 2849,
      "▁ల": 2850,
      "▁\"ప": 2851,
      "▁\"బ": 2852,
      "▁\"స": 2853,
      "arat": 2854,
      "](https://en.wikipedia.org/wiki/K": 2855,
      "cience": 2856,
      "▁their": 2857,
      "sical": 2858,
      "▁comp": 2859,
      "anges": 2860,
      "urr": 2861,
      "▁[↑](https://te.wikipedia.org/wiki/భారతదేశం#cite_ref-": 2862,
      "ctober": 2863,
      "త్త": 2864,
      "▁during": 2865,
      "▁అధిక": 2866,
      "▁October": 2867,
      "▁ప్రదేశ్": 2868,
      "ప్రదేశ్": 2869,
      "▁state": 2870,
      "_summit": 2871,
      "▁subcontinent": 2872,
      "▁Commissioner": 2873,
      "▁నుండి": 2874,
      "nclm.nic.in/": 2875,
      "*,": 2876,
      "500": 2877,
      "IM": 2878,
      "ph": 2879,
      "▁also": 2880,
      "adu": 2881,
      "unjab": 2882,
      "CS1": 2883,
      "▁[Archived](https://web.archive.org/web/201": 2884,
      "-प": 2885,
      "124": 2886,
      "_H": 2887,
      "_O": 2888,
      "pp": 2889,
      "son": 2890,
      "इल": 2891,
      "त्व": 2892,
      "तन्त": 2893,
      "लयाल": 2894,
      "वीं": 2895,
      "शक": 2896,
      "िला": 2897,
      "▁$": 2898,
      "▁ओ": 2899,
      "▁\"ज": 2900,
      "▁सभ": 2901,
      "▁महासागर": 2902,
      "etwe": 2903,
      "▁Archived": 2904,
      "▁Aug": 2905,
      "▁दो": 2906,
      "ताज": 2907,
      "210": 2908,
      "▁शा": 2909,
      "1162": 2910,
      "_Indian": 2911,
      "िये": 2912,
      "Union": 2913,
      "formatics": 2914,
      "umbai": 2915,
      "ृत्य": 2916,
      "ूनिव": 2917,
      "▁Press\").": 2918,
      "ूरो": 2919,
      "120px-": 2920,
      "](https://hi.wikipedia.org/wiki/भारत_की_": 2921,
      "](https://hi.wikipedia.org/wiki/भारत_का_": 2922,
      "times.com/": 2923,
      "outledge": 2924,
      "ोर्ड": 2925,
      "_संघ": 2926,
      "▁कार्य": 2927,
      "▁युद्ध": 2928,
      "तेलु": 2929,
      "▁first": 2930,
      "▁गणराज्य": 2931,
      "▁न्यायालय": 2932,
      "श्रील": 2933,
      "▁[पुरालेखित": 2934,
      "धानमंत्री": 2935,
      "\\_with\\_": 2936,
      "तन्त्र": 2937,
      "etween": 2938,
      "▁August": 2939,
      "88": 2940,
      "uri": 2941,
      "2023": 2942,
      "India)": 2943,
      "▁world": 2944,
      "ourt": 2945,
      "dex": 2946,
      "ight": 2947,
      "▁2020": 2948,
      "▁June": 2949,
      "64": 2950,
      "_3": 2951,
      "oor": 2952,
      "ణి": 2953,
      "తమిళ": 2954,
      "మైన": 2955,
      "హార": 2956,
      "ోర్": 2957,
      "▁en": 2958,
      "▁\"ఇ": 2959,
      "▁\"భారత": 2960,
      "anu": 2961,
      "are": 2962,
      "](https://en.wikipedia.org/wiki/J": 2963,
      "](https://en.wikipedia.org/wiki/L": 2964,
      "](https://te.wikipedia.org/wiki/బ": 2965,
      "ool": 2966,
      "site": 2967,
      "inguis": 2968,
      "▁మొ": 2969,
      "నాగ": 2970,
      "త్తర": 2971,
      "ులు\")": 2972,
      "▁been": 2973,
      "vision": 2974,
      "శ్మీ": 2975,
      "మూస:": 2976,
      "ritannica": 2977,
      "ughal": 2978,
      "-c": 2979,
      "-19": 2980,
      "_d": 2981,
      "eh": 2982,
      "rish": 2983,
      "▁al": 2984,
      "▁[I": 2985,
      "ofindia": 2986,
      "amp": 2987,
      "avid": 2988,
      "-107-1": 2989,
      "censusindia.gov.in/": 2990,
      "19-88": 2991,
      ".india": 2992,
      "bly": 2993,
      "mu": 2994,
      "tal": 2995,
      "ute": 2996,
      "one": 2997,
      "eri": 2998,
      "▁September": 2999,
      "▁system": 3000,
      "▁2018": 3001,
      "cha": 3002,
      "term": 3003,
      "▁English": 3004,
      "▁[*India": 3005,
      "hism": 3006,
      "inguistic": 3007,
      "4).": 3008,
      "_ए": 3009,
      "f/": 3010,
      "ंका": 3011,
      "कट": 3012,
      "गान": 3013,
      "गंगा": 3014,
      "टी": 3015,
      "भो": 3016,
      "शा": 3017,
      "हैद": 3018,
      "िख": 3019,
      "ीमा": 3020,
      "ूह": 3021,
      "▁कुल": 3022,
      "](https://hi.wikipedia.org/wiki/आ": 3023,
      "राबाद": 3024,
      "ाने": 3025,
      "र्ज": 3026,
      "र्ष": 3027,
      "र्ना": 3028,
      "2019": 3029,
      "▁अप्र": 3030,
      "▁population": 3031,
      "_का_": 3032,
      "▁बन": 3033,
      "▁but": 3034,
      "▁नी": 3035,
      "▁वार": 3036,
      "▁संबंध": 3037,
      "▁संसद": 3038,
      "▁शताब्": 3039,
      "प्रा": 3040,
      "हिमा": 3041,
      "त्तीस": 3042,
      "र्वो": 3043,
      "▁भाषाओं": 3044,
      "िस्ट": 3045,
      "ंग्रेजी": 3046,
      "िरपे": 3047,
      "▁करने": 3048,
      "▁अन्त": 3049,
      "वायु": 3050,
      "ीपी": 3051,
      "▁मेला\")": 3052,
      "▁हुए": 3053,
      "मेर": 3054,
      "भीम": 3055,
      "▁[हिन्दी](https://hi.wikipedia.org/wiki/": 3056,
      "हैदराबाद": 3057,
      "र्नाटक": 3058,
      "िरपेक्ष": 3059,
      "8)": 3060,
      "LA": 3061,
      "_University": 3062,
      "emple": 3063,
      "ft": 3064,
      "iver": 3065,
      "pr": 3066,
      "శా": 3067,
      "ైనా": 3068,
      "▁k": 3069,
      "▁wi": 3070,
      "▁uni": 3071,
      "▁[ఇ": 3072,
      "▁\"జ": 3073,
      "resid": 3074,
      "eser": 3075,
      "](https://te.wikipedia.org/wiki/ఇ": 3076,
      "](https://te.wikipedia.org/wiki/స": 3077,
      "2001": 3078,
      "files/": 3079,
      "▁Se": 3080,
      "angl": 3081,
      "భారత_": 3082,
      "rop": 3083,
      "▁Talbot": 3084,
      "రాజ": 3085,
      "లో](https://te.wikipedia.org/wiki/": 3086,
      "రిజ": 3087,
      "క్కు": 3088,
      "fore": 3089,
      "pecial:BookSources/978": 3090,
      "ండ్": 3091,
      "epublic": 3092,
      ".php": 3093,
      "స్కృతి": 3094,
      "-le": 3095,
      ".b": 3096,
      "ok": 3097,
      "oast": 3098,
      "▁(*": 3099,
      "▁official": 3100,
      "oll": 3101,
      "able": 3102,
      "ortal": 3103,
      "_De": 3104,
      "view": 3105,
      "censusindia.gov.in/2011": 3106,
      "ned": 3107,
      "▁per": 3108,
      "wing": 3109,
      "anisation": 3110,
      "ond": 3111,
      "ade": 3112,
      "ural": 3113,
      "▁between": 3114,
      "▁2017": 3115,
      "▁form": 3116,
      "doc": 3117,
      "known": 3118,
      ".indiatimes.com/": 3119,
      "-of": 3120,
      "81": 3121,
      "TR": 3122,
      "_11": 3123,
      "lli": 3124,
      "rd": 3125,
      "andhi": 3126,
      "▁13": 3127,
      "cember": 3128,
      "chnolog": 3129,
      "2905": 3130,
      "embly": 3131,
      "-to-": 3132,
      "-780": 3133,
      "1162-2": 3134,
      "-107-11162-2": 3135,
      "19-882905": 3136,
      "chnology": 3137,
      "19-882905-8": 3138,
      "7/": 3139,
      "Hindi": 3140,
      "_उ": 3141,
      "lesh": 3142,
      "ंह": 3143,
      "अन": 3144,
      "गल": 3145,
      "झार": 3146,
      "तट": 3147,
      "फ्रीका": 3148,
      "बा": 3149,
      "मालय": 3150,
      "हन": 3151,
      "हरा": 3152,
      "हरी": 3153,
      "िहार": 3154,
      "१९": 3155,
      "ం?action=edit&redlink=1": 3156,
      "చే": 3157,
      "బా": 3158,
      "▁ऑ": 3159,
      "▁लेख": 3160,
      "▁[च": 3161,
      "▁[జ": 3162,
      "▁[सा": 3163,
      "▁\"O": 3164,
      "▁\"द": 3165,
      "](https://hi.wikipedia.org/wiki/ओ": 3166,
      "](https://hi.wikipedia.org/wiki/न": 3167,
      "](https://en.wikipedia.org/wiki/F": 3168,
      "omen": 3169,
      "▁केन्द्र": 3170,
      "▁ही": 3171,
      "▁होत": 3172,
      "▁India\"),": 3173,
      "\\_देश": 3174,
      "ियां": 3175,
      "न्स": 3176,
      "▁పా": 3177,
      "▁नद": 3178,
      "▁नहीं": 3179,
      "▁से](http://": 3180,
      "raven": 3181,
      "▁आधिकारिक": 3182,
      "▁Min": 3183,
      "पुरा": 3184,
      "स्ला": 3185,
      "▁गा": 3186,
      "▁उद्य": 3187,
      "▁వా": 3188,
      "▁संस्कृति": 3189,
      "▁है।[[": 3190,
      "▁2004": 3191,
      "▁रहा": 3192,
      "▁National": 3193,
      "ండు": 3194,
      "▁చూ": 3195,
      "▁Language": 3196,
      "త్వ": 3197,
      "ember": 3198,
      "aint": 3199,
      "▁bec": 3200,
      "विशेष:EditPage/": 3201,
      "ప్రధాన": 3202,
      "▁जनगणना": 3203,
      "ow/": 3204,
      "गणराज्य": 3205,
      "▁తే": 3206,
      "करण": 3207,
      "श्चिमी": 3208,
      "ustr": 3209,
      "gency": 3210,
      "▁उपमहाद्वीप": 3211,
      "▁स्रोत/978-0-": 3212,
      "▁स्रोत/978-1": 3213,
      "](https://hi.wikipedia.org/wiki/विशेष:पुस्तक_स्रोत/978-0-": 3214,
      "](https://hi.wikipedia.org/wiki/विशेष:पुस्तक_स्रोत/978-1": 3215,
      "▁\"हिन्दी\")": 3216,
      "▁भूम": 3217,
      "▁चुनाव": 3218,
      "रेलू": 3219,
      "▁[पुरालेखित](https://web.archive.org/web/201": 3220,
      "र्वोच्च": 3221,
      "_University_Press": 3222,
      "leshow/": 3223,
      "विशेष:EditPage/साँचा:": 3224,
      ".htm": 3225,
      "1–": 3226,
      "Ch": 3227,
      "EO": 3228,
      "WEO": 3229,
      "▁ac": 3230,
      "\");": 3231,
      "atus": 3232,
      "fic": 3233,
      "url": 3234,
      "▁2012": 3235,
      "cyc": 3236,
      "32": 3237,
      ":[": 3238,
      "cms": 3239,
      "dle": 3240,
      "rans": 3241,
      "▁0.": 3242,
      ".org/10.": 3243,
      "2024": 3244,
      "▁(2018": 3245,
      "edu": 3246,
      "▁cons": 3247,
      "Harle": 3248,
      ".gov/": 3249,
      "harat": 3250,
      "%2F": 3251,
      ".jpg/120px-": 3252,
      "rade": 3253,
      "doi.org/10.": 3254,
      ".aspx": 3255,
      "ls": 3256,
      "ose": 3257,
      "par": 3258,
      "▁Y": 3259,
      "lob": 3260,
      "▁Pe": 3261,
      "ublish": 3262,
      ".n": 3263,
      "Template:": 3264,
      "_I": 3265,
      "_సా": 3266,
      "fric": 3267,
      "tary": 3268,
      "ttar": 3269,
      "ంప": 3270,
      "కో": 3271,
      "గణ": 3272,
      "దిన": 3273,
      "నై": 3274,
      "రీ": 3275,
      "▁23": 3276,
      "▁ru": 3277,
      "▁all": 3278,
      "▁other": 3279,
      "▁[![](https://upload.wikimedia.org/wikipedia/commons/thumb/": 3280,
      "▁\"W": 3281,
      "▁\"చ": 3282,
      "encies": 3283,
      "alley": 3284,
      "](https://te.wikipedia.org/wiki/జ": 3285,
      "1950": 3286,
      "ారం": 3287,
      "ed/": 3288,
      "▁Census": 3289,
      "iddle": 3290,
      "chin": 3291,
      "▁more": 3292,
      "▁క్రీ": 3293,
      "క్‌": 3294,
      "నికి": 3295,
      "▁East": 3296,
      "ల్ల": 3297,
      "ంగీ": 3298,
      "▁సి": 3299,
      "నాభా": 3300,
      "harma": 3301,
      "జాబి": 3302,
      "orities": 3303,
      "tent": 3304,
      "▁శా": 3305,
      "▁భాష\")": 3306,
      "AsherTalbot2008": 3307,
      "బెంగ": 3308,
      "IMF": 3309,
      "జాబితా": 3310,
      "-विज्ञान": 3311,
      "4/": 3312,
      "IA": 3313,
      "_9": 3314,
      "_इ": 3315,
      "_व": 3316,
      "rm": 3317,
      "ration": 3318,
      "ंच": 3319,
      "ंत": 3320,
      "ईरा": 3321,
      "को": 3322,
      "छत्तीस": 3323,
      "थल": 3324,
      "थिल": 3325,
      "पान": 3326,
      "लग": 3327,
      "वास": 3328,
      "सून": 3329,
      "िप": 3330,
      "िंध": 3331,
      "ीच": 3332,
      "ैथिल": 3333,
      "▁।": 3334,
      "▁es": 3335,
      "▁[Metcalf": 3336,
      "▁[दक्षिण": 3337,
      "▁\"च": 3338,
      "▁\"ल": 3339,
      "▁\"दक्षिण": 3340,
      "\"):": 3341,
      "▁कई": 3342,
      "▁कश्मीर": 3343,
      "](https://hi.wikipedia.org/wiki/च": 3344,
      "भारत)": 3345,
      "▁सभा": 3346,
      "▁सैन": 3347,
      "▁मैदान": 3348,
      "▁मुख्य": 3349,
      "▁पर्वत": 3350,
      "2016": 3351,
      "▁अव": 3352,
      "▁अर्थ": 3353,
      "att": 3354,
      "▁part": 3355,
      "वित": 3356,
      "▁दि": 3357,
      "▁द्वीप": 3358,
      "_का": 3359,
      "▁बीच": 3360,
      "▁से](http://www.": 3361,
      "_of_the": 3362,
      "न्दिर": 3363,
      "क्षा": 3364,
      "▁उत्पाद": 3365,
      "_मंदिर": 3366,
      "लेट": 3367,
      "▁इन": 3368,
      "त्तरी": 3369,
      "▁करोड़": 3370,
      "▁अनु": 3371,
      "▁[अंग्रेज़": 3372,
      "▁पुरा": 3373,
      "▁हैं।\n": 3374,
      "▁राजनी": 3375,
      "▁स्था": 3376,
      "▁\"पंजाब": 3377,
      "▁वर्ग": 3378,
      "▁[पंजाब": 3379,
      "▁होता": 3380,
      "ब्ब": 3381,
      "▁जिसमें": 3382,
      "74-108": 3383,
      "▁कारण": 3384,
      "_मेला?action=edit&redlink=1": 3385,
      "गोआ": 3386,
      "garh": 3387,
      "र्सिट": 3388,
      "ूनिवर्सिट": 3389,
      "श्रीलंका": 3390,
      "▁शताब्दी": 3391,
      "-78074-108": 3392,
      "▁[अंग्रेज़ी](https://hi.wikipedia.org/wiki/अ": 3393,
      "-78074-108-6": 3394,
      "-f": 3395,
      "7,": 3396,
      "Fisher": 3397,
      "az": 3398,
      "adi": 3399,
      "ology": 3400,
      "rof": 3401,
      "tates": 3402,
      "orce": 3403,
      "▁[Indian": 3404,
      "▁Hindi": 3405,
      "1994": 3406,
      "berg": 3407,
      "▁2011.\n": 3408,
      "▁century": 3409,
      "Fisher2018": 3410,
      "31": 3411,
      "44": 3412,
      "5_": 3413,
      "_t": 3414,
      "ges": 3415,
      "gni": 3416,
      "has": 3417,
      "▁over": 3418,
      "eration": 3419,
      "theast": 3420,
      "▁pri": 3421,
      "ing\\_": 3422,
      "▁comm": 3423,
      "▁2015": 3424,
      "28)": 3425,
      "_South": 3426,
      "olicy": 3427,
      "86": 3428,
      "8–": 3429,
      "_K": 3430,
      "get": 3431,
      "her": 3432,
      "uch": 3433,
      "చల్": 3434,
      "యన్": 3435,
      "షు": 3436,
      "ూర్": 3437,
      "▁/": 3438,
      "▁[చ": 3439,
      "▁[భారత": 3440,
      "▁[భారతీయ": 3441,
      "▁\"I": 3442,
      "ann": 3443,
      "ara": 3444,
      "arb": 3445,
      "](https://te.wikipedia.org/wiki/ప": 3446,
      "](https://te.wikipedia.org/wiki/భారతీయ": 3447,
      "ార్ట": 3448,
      "ాలయ": 3449,
      "ters": 3450,
      "▁music": 3451,
      "▁after": 3452,
      "క్క": 3453,
      "▁వ్యవస్థ": 3454,
      "▁ము": 3455,
      "-81": 3456,
      "ండో": 3457,
      "ముంబ": 3458,
      "సిన": 3459,
      "▁dance": 3460,
      "▁Official": 3461,
      "apit": 3462,
      ".png": 3463,
      "ినల్": 3464,
      "ద్ద": 3465,
      "▁ఉన్న": 3466,
      "▁ఉన్నాయ": 3467,
      "పాకిస్తాన్": 3468,
      "rick": 3469,
      "\"](https://web.archive.org/web/20160": 3470,
      "ompany": 3471,
      "obb": 3472,
      "ంధీ": 3473,
      "▁ఒక": 3474,
      "▁ఒరిజ": 3475,
      "uropean": 3476,
      "int:": 3477,
      "వంశం": 3478,
      "▁తేదీ": 3479,
      "ార్టీ": 3480,
      "▁ఒరిజినల్": 3481,
      "-26": 3482,
      "66": 3483,
      "▁29": 3484,
      "ern": 3485,
      "life": 3486,
      "▁Congress": 3487,
      "▁2013": 3488,
      "▁ab": 3489,
      "▁Development": 3490,
      "▁December": 3491,
      "ustrali": 3492,
      "119": 3493,
      "Ar": 3494,
      "En": 3495,
      "_f": 3496,
      "lag": 3497,
      "va": 3498,
      "wart": 3499,
      "zberg": 3500,
      "इन": 3501,
      "गू": 3502,
      "तृत": 3503,
      "पक": 3504,
      "पद": 3505,
      "मर": 3506,
      "मु": 3507,
      "मो": 3508,
      "श्य": 3509,
      "ीब": 3510,
      "ीगढ़": 3511,
      "ेद": 3512,
      "ॉक": 3513,
      "८५": 3514,
      "▁ले": 3515,
      "ped": 3516,
      "▁[द": 3517,
      "▁[वि": 3518,
      "▁[पाकिस्तान": 3519,
      "▁\"पाकिस्तान": 3520,
      "▁\"तमिल": 3521,
      "ones": 3522,
      "▁कु": 3523,
      "](https://hi.wikipedia.org/wiki/ल": 3524,
      "▁स्त": 3525,
      "▁सूचना": 3526,
      "▁मो": 3527,
      "▁मध्य": 3528,
      "्यान": 3529,
      "ानव": 3530,
      "ालदीव": 3531,
      "▁जी": 3532,
      "▁दशक": 3533,
      "ेशन": 3534,
      "ेशिया": 3535,
      "chwart": 3536,
      "षाण": 3537,
      "न्दोल": 3538,
      "क्षर": 3539,
      "▁Times": 3540,
      "काश": 3541,
      "▁शक्ति": 3542,
      "▁शिक्षा": 3543,
      "cture": 3544,
      "-40": 3545,
      "ंडीगढ़": 3546,
      "▁लोग": 3547,
      "▁लोक": 3548,
      "▁राज्य\")": 3549,
      "▁number": 3550,
      "▁क्षेत्रीय": 3551,
      "जनसंख्या": 3552,
      "▁जनसंख्या": 3553,
      "ूर्वी": 3554,
      "llchin": 3555,
      "▁Press.": 3556,
      "]](https://hi.wikipedia.org/wiki/भारत#cite_note-FOOTNOTEStein1998": 3557,
      "]](https://hi.wikipedia.org/wiki/भारत#cite_note-FOOTNOTESingh2009": 3558,
      "▁धर्म\")": 3559,
      "मुख्य": 3560,
      "त्तराखण्ड": 3561,
      "ographic": 3562,
      "▁years": 3563,
      "anuary": 3564,
      "▁अप्रैल": 3565,
      "हिमाचल": 3566,
      "▁लेख:": 3567,
      "chwartzberg": 3568,
      "2,": 3569,
      "7-0": 3570,
      "CO": 3571,
      "ions": 3572,
      "la": 3573,
      "pect": 3574,
      "tionary": 3575,
      "2000": 3576,
      "eds.": 3577,
      "▁Constitution": 3578,
      "ross": 3579,
      "form": 3580,
      "_Centre": 3581,
      "%7": 3582,
      ",[[": 3583,
      "-21": 3584,
      ".IN": 3585,
      ".fr": 3586,
      "55": 3587,
      "ID": 3588,
      "JP": 3589,
      "cri": 3590,
      "pl": 3591,
      "por": 3592,
      "జ్": 3593,
      "వరి": 3594,
      "శ్చ": 3595,
      "ిన్న": 3596,
      "ెల": 3597,
      "pear": 3598,
      "▁\"భారతదేశ": 3599,
      "ale": 3600,
      "](https://en.wikipedia.org/wiki/W": 3601,
      "్రె": 3602,
      "](https://en.wikipedia.org/wiki/Indian_": 3603,
      "▁India\")\n": 3604,
      "etail": 3605,
      "adesh": 3606,
      "▁1.": 3607,
      "▁May": 3608,
      "▁1947": 3609,
      "ాలు\n": 3610,
      "నిస్తాన్": 3611,
      "▁మధ్య": 3612,
      "▁(identifier)\"):[": 3613,
      "▁January": 3614,
      "](https://te.wikipedia.org/wiki/భారతదేశంలో": 3615,
      "స్థాన్": 3616,
      "▁most": 3617,
      "▁పేజీ": 3618,
      "మ్మూ": 3619,
      "lassical": 3620,
      "▁\"భారతదేశంలో": 3621,
      "ffairs": 3622,
      "resident": 3623,
      "angladesh": 3624,
      "▁చూసిన": 3625,
      "WEO.IN": 3626,
      "IMFWEO.IN": 3627,
      "▁తేదీ:": 3628,
      "శ్చి": 3629,
      "▁పేజీని": 3630,
      "/S": 3631,
      "a.": 3632,
      "s-": 3633,
      "▁'": 3634,
      "▁30": 3635,
      "orther": 3636,
      "an\")": 3637,
      "city": 3638,
      "issi": 3639,
      "ash": 3640,
      "ased": 3641,
      "▁spe": 3642,
      "▁Modern": 3643,
      "▁2022": 3644,
      "avy": 3645,
      "▁Press,": 3646,
      "ative": 3647,
      "▁Act,": 3648,
      "orthern": 3649,
      "/auth": 3650,
      "01": 3651,
      "2).": 3652,
      "3),": 3653,
      "Report": 3654,
      "Uttar": 3655,
      "_V": 3656,
      "back": 3657,
      "y-": 3658,
      "ymb": 3659,
      "](https://doi.org/10.": 3660,
      "asp": 3661,
      "](https://en.wikipedia.org/wiki/Indian": 3662,
      "▁tw": 3663,
      "come": 3664,
      "rain": 3665,
      "254": 3666,
      "ticles": 3667,
      "▁election": 3668,
      "▁2003": 3669,
      "▁[South": 3670,
      "▁national": 3671,
      "▁Wiki": 3672,
      "_New": 3673,
      "earch": 3674,
      "▁[2](https://en.wikipedia.org/wiki/India#cite_ref-FOOTNOTE": 3675,
      "▁[1](https://en.wikipedia.org/wiki/India#cite_ref-FOOTNOTE": 3676,
      "ikshi": 3677,
      "▁territories": 3678,
      "censusindia.gov.in/2011census": 3679,
      "ikshit": 3680,
      "_en": 3681,
      "_राज": 3682,
      "ia": 3683,
      "nam": 3684,
      "sar": 3685,
      "उप": 3686,
      "क_स": 3687,
      "गत": 3688,
      "जान": 3689,
      "दि": 3690,
      "धन": 3691,
      "धा": 3692,
      "फा": 3693,
      "म\")": 3694,
      "लिस": 3695,
      "वल": 3696,
      "षय": 3697,
      "स\")": 3698,
      "िनेमा": 3699,
      "ी.": 3700,
      "ृद्ध": 3701,
      "ॉल": 3702,
      "▁[ड": 3703,
      "▁सक": 3704,
      "्यों": 3705,
      "\\_अ": 3706,
      "ाले": 3707,
      "िया](https://mai.wikipedia.org/wiki/": 3708,
      "भाज": 3709,
      "loy": 3710,
      "्वतंत्रता": 3711,
      "▁भारत\")": 3712,
      "▁प्रेस": 3713,
      "▁प्रौद्योगिक": 3714,
      "▁व्य": 3715,
      "▁आर्थिक": 3716,
      "26)": 3717,
      "266": 3718,
      "▁गु": 3719,
      "▁Di": 3720,
      "▁शु": 3721,
      "ियार": 3722,
      "▁had": 3723,
      "▁लग": 3724,
      "परमाणु": 3725,
      "ेली": 3726,
      "▁नेतृत": 3727,
      "▁जनवरी": 3728,
      "ज्ज": 3729,
      "▁राजवंश": 3730,
      "▁जाती": 3731,
      "▁स्थान": 3732,
      "▁मेला](https://hi.wikipedia.org/wiki/": 3733,
      "▁3,": 3734,
      "▁२०१": 3735,
      "National_In": 3736,
      "▁प्राचीन": 3737,
      "▁1998": 3738,
      "▁था।": 3739,
      "ांग्लादेश": 3740,
      "▁स्थित": 3741,
      "ृष्ठ": 3742,
      "ed.).": 3743,
      "धिराज्य": 3744,
      "ूर्ण": 3745,
      "▁पहले": 3746,
      "▁[हिन्दी](https://hi.wikipedia.org/wiki/हिन्दी": 3747,
      "▁चुनावों": 3748,
      "▁सैन्य": 3749,
      "▁स्थाप": 3750,
      "*)": 3751,
      "5–": 3752,
      "99": 3753,
      "CN": 3754,
      "_19": 3755,
      "a-": 3756,
      "cent": 3757,
      "lam": 3758,
      "rin": 3759,
      "ua": 3760,
      "ya": 3761,
      "షన్": 3762,
      "హ్": 3763,
      "ెలు": 3764,
      "▁time": 3765,
      "religion": 3766,
      "▁(1,": 3767,
      "omas": 3768,
      "andard": 3769,
      "](https://te.wikipedia.org/wiki/అ": 3770,
      "lia": 3771,
      "ama": 3772,
      "state": 3773,
      "wealth": 3774,
      "రియా": 3775,
      "▁మార్": 3776,
      "gions": 3777,
      "▁Oxford": 3778,
      "ప్రపంచ": 3779,
      "ndaman": 3780,
      "clu": 3781,
      "▁సంస్కృతి": 3782,
      "దీవ": 3783,
      "▁Plate": 3784,
      "▁2006](https://en.wikipedia.org/wiki/India#CITEREF": 3785,
      ".aspx?": 3786,
      "545": 3787,
      "eth": 3788,
      "oy": 3789,
      "high": 3790,
      "er,": 3791,
      "2015": 3792,
      "▁tradition": 3793,
      "india-g": 3794,
      "irst": 3795,
      "▁2008": 3796,
      "ources": 3797,
      "▁religi": 3798,
      "▁[\"C": 3799,
      "resent": 3800,
      "edic": 3801,
      "formatics_Centre": 3802,
      "▁became": 3803,
      "National_Informatics_Centre": 3804,
      "5%": 3805,
      "UN": 3806,
      "_e": 3807,
      "ban": 3808,
      "ffi": 3809,
      "hol": 3810,
      "rag": 3811,
      "s.[[": 3812,
      "onwealth": 3813,
      "tis": 3814,
      "ared/": 3815,
      "ering": 3816,
      "ough": 3817,
      "-14": 3818,
      "ages/": 3819,
      "linkim": 3820,
      "▁14": 3821,
      "▁March": 3822,
      "▁Budd": 3823,
      "▁BCE": 3824,
      "shared/": 3825,
      "▁rel": 3826,
      "▁[2](https://en.wikipedia.org/wiki/India#cite_ref-": 3827,
      "▁[1](https://en.wikipedia.org/wiki/India#cite_ref-": 3828,
      "▁2010](https://en.wikipedia.org/wiki/India#CITEREF": 3829,
      "countries_by": 3830,
      "nclm.nic.in/shared/": 3831,
      "linkimages/": 3832,
      "nclm.nic.in/shared/linkimages/": 3833,
      "72": 3834,
      "oa": 3835,
      "▁[19": 3836,
      "iss": 3837,
      "rid": 3838,
      "rim": 3839,
      "riod": 3840,
      "▁India.": 3841,
      "109": 3842,
      "▁*The": 3843,
      "▁2005": 3844,
      "ingham": 3845,
      "127": 3846,
      "54": 3847,
      "9,": 3848,
      "RL": 3849,
      "_घ": 3850,
      "_द": 3851,
      "_राज्य": 3852,
      "a)": 3853,
      "d=": 3854,
      "oth": 3855,
      "pic": 3856,
      "thi": 3857,
      "अभि": 3858,
      "इप्र": 3859,
      "एन": 3860,
      "क्": 3861,
      "कणी": 3862,
      "खन": 3863,
      "ग्व": 3864,
      "च्": 3865,
      "जं": 3866,
      "तम": 3867,
      "नु": 3868,
      "पार": 3869,
      "फोर्ड": 3870,
      "ब्ल": 3871,
      "बेट": 3872,
      "भु": 3873,
      "यत": 3874,
      "यर": 3875,
      "रस": 3876,
      "लों": 3877,
      "ेक": 3878,
      "ैंक": 3879,
      "ॉंग्रेस": 3880,
      "ौसेना": 3881,
      "्म": 3882,
      "२००": 3883,
      "ం\"),": 3884,
      "ంత్రి": 3885,
      "ఆఫ్": 3886,
      "కత": 3887,
      "కై": 3888,
      "క్య": 3889,
      "దాయ": 3890,
      "రే": 3891,
      "లంక": 3892,
      "వీ": 3893,
      "శ్రీ": 3894,
      "షి": 3895,
      "సు": 3896,
      "▁·": 3897,
      "▁ఏ": 3898,
      "▁up": 3899,
      "▁ईसा": 3900,
      "order": 3901,
      "▁[ग": 3902,
      "▁[य": 3903,
      "▁[ल": 3904,
      "▁[ह": 3905,
      "▁[సి": 3906,
      "▁\"य": 3907,
      "\")[[": 3908,
      "](https://hi.wikipedia.org/wiki/पाकिस्तान": 3909,
      "भारतीय": 3910,
      "▁साल": 3911,
      "▁मह": 3912,
      "▁मौ": 3913,
      "राम": 3914,
      "ानगर": 3915,
      "र्क": 3916,
      "](https://te.wikipedia.org/wiki/చ": 3917,
      "](https://hi.wikipedia.org/wiki/भारत_के": 3918,
      "याधी": 3919,
      "ोंकणी": 3920,
      "_की_": 3921,
      "▁sh": 3922,
      "స్సా": 3923,
      "ंगाना": 3924,
      "▁పరి": 3925,
      "▁పార్టీ": 3926,
      "▁नव": 3927,
      "న్‌": 3928,
      "change": 3929,
      "▁व्या": 3930,
      "_(भारत)": 3931,
      "23)": 3932,
      "olk": 3933,
      "▁కు": 3934,
      "ड़िया": 3935,
      "ड़ियाँ": 3936,
      "▁उन": 3937,
      "काता": 3938,
      "▁వచ్చ": 3939,
      "▁विस्त": 3940,
      "▁विदेश": 3941,
      "▁इंडिया": 3942,
      "1996": 3943,
      "ंडोन": 3944,
      "abad": 3945,
      "▁राज्यक्षेत्र": 3946,
      "ముద్ర": 3947,
      "▁Linguistic": 3948,
      "ोलकाता": 3949,
      "▁क्षेत्रों": 3950,
      "-90": 3951,
      "ंध्र": 3952,
      "▁\"अंग्रेज़ी": 3953,
      "▁देश\")": 3954,
      "_Temple": 3955,
      "▁states": 3956,
      "हरिया": 3957,
      "िशा": 3958,
      "▁राजधान": 3959,
      "पुरम": 3960,
      "म्बई": 3961,
      "](https://en.wikipedia.org/wiki/South": 3962,
      "▁It": 3963,
      "िवस": 3964,
      "▁मेला\"),": 3965,
      "ंग्रेज़ी_भाषा": 3966,
      "గాంధీ": 3967,
      "ष्ण": 3968,
      "_Empire": 3969,
      "न्नई": 3970,
      "समिया": 3971,
      "न्तर": 3972,
      "నేపాల": 3973,
      "▁मानसून": 3974,
      "general": 3975,
      "▁पुरालेखित।,": 3976,
      "श्मीरी": 3977,
      "%E0%A4%A": 3978,
      "ikh": 3979,
      "बंधन": 3980,
      "_और_संघ": 3981,
      "ेरल": 3982,
      "▁युग": 3983,
      "तेलंगाना": 3984,
      "▁स्वतंत्रता": 3985,
      "Hindustan": 3986,
      "▁పేరు": 3987,
      "रक्षा": 3988,
      "హిందీ": 3989,
      "_के_आधार_पर_भारत_के_राज्यों_की_सूची": 3990,
      "क्सफोर्ड": 3991,
      "दिल्ली": 3992,
      "▁साम्राज्य\")": 3993,
      "चेन्नई": 3994,
      "धुनिक": 3995,
      "▁बहुत": 3996,
      "णिपुरी": 3997,
      "पीठ": 3998,
      "▁निर्माण": 3999,
      "▁చెయ్య": 4000,
      "▁Environment": 4001,
      "_साम्राज्य": 4002,
      "▁కూడా": 4003,
      "त्रिपुरा": 4004,
      "हायता": 4005,
      "ज्ञापक": 4006,
      "लयालम": 4007,
      "▁ओर": 4008,
      "▁सभ्यता": 4009,
      "तेलुगू": 4010,
      "भीमबेट": 4011,
      "झारखंड": 4012,
      "ంగీతం": 4013,
      "छत्तीसगढ़": 4014,
      "िंधु": 4015,
      "ब्बत": 4016,
      "▁[अंग्रेज़ी](https://hi.wikipedia.org/wiki/अंग्रेज़ी_भाषा": 4017,
      "ముంబై": 4018,
      "▁कुछ": 4019,
      "శ్చిమ": 4020,
      "ymbol": 4021,
      "▁two": 4022,
      "▁మార్గ": 4023,
      "अभिज्ञापक": 4024,
      "च्छ": 4025,
      "याधीश": 4026,
      "▁చెయ్యబడ": 4027,
      "भीमबेटका": 4028,
      "-23": 4029,
      "/P": 4030,
      "vid": 4031,
      "vol": 4032,
      "wal": 4033,
      "yan": 4034,
      "▁incre": 4035,
      "ssam": 4036,
      ".com/news/": 4037,
      "24)": 4038,
      "240": 4039,
      "](https://web.archive.org/web/200": 4040,
      "▁From": 4041,
      "_Delhi": 4042,
      "-language\\_": 4043,
      "1]](https://en.wikipedia.org/wiki/India#cite_note-FOOTNOTE": 4044,
      "300": 4045,
      "5/": 4046,
      "6–": 4047,
      "Ludden": 4048,
      "ced": 4049,
      "detail": 4050,
      "tro": 4051,
      "▁we": 4052,
      "▁ro": 4053,
      "▁Union": 4054,
      "▁[O": 4055,
      "▁(eds.": 4056,
      "ouse": 4057,
      "▁Ara": 4058,
      "▁caste": 4059,
      "▁summit\")": 4060,
      "ISO": 4061,
      "rah": 4062,
      "▁war": 4063,
      "olper": 4064,
      "_Indian_": 4065,
      "50th": 4066,
      "1997": 4067,
      "▁2025": 4068,
      "_Asian": 4069,
      "▁general": 4070,
      "imf": 4071,
      "▁\"Economy": 4072,
      "MetcalfMetcalf201": 4073,
      "ivil": 4074,
      "Wikipedia": 4075,
      "ujarat": 4076,
      "▁Minorities": 4077,
      "lobal": 4078,
      "olpert": 4079,
      ".0": 4080,
      "129": 4081,
      "415": 4082,
      "C).": 4083,
      "Qu": 4084,
      "_map": 4085,
      "lor": 4086,
      "nf": 4087,
      "oon": 4088,
      "ser": 4089,
      "way": 4090,
      "▁Sanskrit": 4091,
      "▁Pakistan": 4092,
      "ung": 4093,
      "25)": 4094,
      "ilg": 4095,
      "ictionary": 4096,
      "▁Feb": 4097,
      "imalay": 4098,
      "▁War": 4099,
      "▁status": 4100,
      "onstituent": 4101,
      "\")*,": 4102,
      "MetcalfMetcalf2006),": 4103,
      "visions": 4104,
      "ublishing": 4105,
      "National_Informatics_Centre2005": 4106,
      "-25": 4107,
      "-with": 4108,
      "6/": 4109,
      "BC": 4110,
      "_వ": 4111,
      "ealth": 4112,
      "rac": 4113,
      "గర": 4114,
      "టక": 4115,
      "టా": 4116,
      "దార": 4117,
      "నీ": 4118,
      "రో": 4119,
      "సభ": 4120,
      "ెద్ద": 4121,
      "▁[India": 4122,
      "▁[doi": 4123,
      "▁\"సి": 4124,
      "thematics": 4125,
      "omin": 4126,
      "ised": 4127,
      "astern": 4128,
      "right": 4129,
      "](https://te.wikipedia.org/wiki/భారత_": 4130,
      "ooperation": 4131,
      "etrag": 4132,
      "atar": 4133,
      "▁పు": 4134,
      "cean": 4135,
      "chool": 4136,
      "teracy": 4137,
      "rol": 4138,
      "రాజ్య": 4139,
      "_(India)": 4140,
      "▁BRICS": 4141,
      "▁కేంద్రపాలిత": 4142,
      "308": 4143,
      "▁మా": 4144,
      "▁చే": 4145,
      "▁group": 4146,
      "aksh": 4147,
      "ము\")": 4148,
      "త్స": 4149,
      "▁రాజ్య": 4150,
      "ruary": 4151,
      "వాతంత్ర": 4152,
      "▁Press](https://en.wikipedia.org/wiki/": 4153,
      "ankar": 4154,
      "▁దేశాల": 4155,
      "▁\"Doi": 4156,
      "లాదేశ్": 4157,
      "](https://en.wikipedia.org/wiki/Doi": 4158,
      "స్తు": 4159,
      "▁సామ్రాజ్యం](https://te.wikipedia.org/wiki/": 4160,
      "ంగ్లాదేశ్": 4161,
      "▁భాషలు": 4162,
      "/cb": 4163,
      "rganisation": 4164,
      "ారు.": 4165,
      "▁right": 4166,
      "/articleshow/": 4167,
      "_ప్రా": 4168,
      "langoff-1": 4169,
      "langoff_1": 4170,
      "్రిటి": 4171,
      "▁అధికార": 4172,
      "ూర్పు": 4173,
      "▁(identifier)\"):[10.": 4174,
      "కైవు": 4175,
      "▁[doi](https://en.wikipedia.org/wiki/Doi": 4176,
      "▁[doi](https://en.wikipedia.org/wiki/Doi_(identifier)": 4177,
      "-C": 4178,
      "-शासित": 4179,
      "II": 4180,
      "Pakistan": 4181,
      "\\*": 4182,
      "_श": 4183,
      "_धर्म": 4184,
      "_एशिया": 4185,
      "minist": 4186,
      "osi": 4187,
      "tb": 4188,
      "ual": 4189,
      "west": 4190,
      "ze": 4191,
      "ँची": 4192,
      "अरब": 4193,
      "ईस्ट": 4194,
      "टना": 4195,
      "द्वार": 4196,
      "पृष्ठ": 4197,
      "भग": 4198,
      "भिय": 4199,
      "मरी": 4200,
      "रि": 4201,
      "स्व": 4202,
      "िर्": 4203,
      "ुम्बई": 4204,
      "ेड": 4205,
      "ोला": 4206,
      "▁i": 4207,
      "▁औ": 4208,
      "▁५": 4209,
      "▁ला": 4210,
      "▁भाग": 4211,
      "▁[प्र": 4212,
      "▁[तमिल": 4213,
      "▁\"ग": 4214,
      "▁\"ड": 4215,
      "▁\"ह": 4216,
      "teen": 4217,
      "enn": 4218,
      "▁कम": 4219,
      "▁काल": 4220,
      "▁कॉंग्रेस": 4221,
      "](https://hi.wikipedia.org/wiki/दक्षिण": 4222,
      "](https://hi.wikipedia.org/wiki/तमिल": 4223,
      "्रय": 4224,
      "errit": 4225,
      "▁सह": 4226,
      "▁सित": 4227,
      "▁समाज": 4228,
      "▁मई": 4229,
      "▁मिल": 4230,
      "▁मशीन": 4231,
      "▁पै": 4232,
      "▁पश्चिम": 4233,
      "र्श": 4234,
      "ेंगल": 4235,
      "](https://hi.wikipedia.org/wiki/भारत_के_राज्य": 4236,
      "\\_स": 4237,
      "▁में,": 4238,
      "ाल्": 4239,
      "[[10": 4240,
      "▁जब": 4241,
      "▁दिल्ल": 4242,
      "भाई": 4243,
      "भाष": 4244,
      "▁प्रस": 4245,
      "▁व्यवस्था": 4246,
      "▁गई": 4247,
      "▁[मध्य": 4248,
      "▁शहर": 4249,
      "म्भ": 4250,
      "](https://mai.wikipedia.org/wiki/ब": 4251,
      "](https://mai.wikipedia.org/wiki/म": 4252,
      "duction": 4253,
      "cond": 4254,
      "संधान": 4255,
      "]](https://hi.wikipedia.org/wiki/भारत#cite_note-pib": 4256,
      "_के_अन": 4257,
      "त्ति": 4258,
      "1990": 4259,
      "▁सागर": 4260,
      "▁लिये": 4261,
      "▁यूनिवर्सिट": 4262,
      "▁northern": 4263,
      "ंग्रेज": 4264,
      "▁[*The": 4265,
      "्रांस": 4266,
      "▁\"ब्रिटिश": 4267,
      "▁जनजाति": 4268,
      "▁भाषा\")[[": 4269,
      "रुणा": 4270,
      "article": 4271,
      "ुसार_देश": 4272,
      "▁अधिकार": 4273,
      "आईएस": 4274,
      "ोर्ट": 4275,
      "▁शासित": 4276,
      "कालीन": 4277,
      "▁period": 4278,
      "वादी": 4279,
      "लोकसभा": 4280,
      "▁under": 4281,
      "हित्य": 4282,
      "▁देख": 4283,
      "▁Assembly": 4284,
      "NGDP": 4285,
      "ताजमह": 4286,
      "प्राचीन": 4287,
      "▁(2018),": 4288,
      "▁[पाकिस्तान](https://hi.wikipedia.org/wiki/पाकिस्तान": 4289,
      "▁\"पाकिस्तान\")": 4290,
      "क्षरता": 4291,
      "भाजपा": 4292,
      "▁नेतृत्व": 4293,
      "ेंगलुरु": 4294,
      "▁यूनिवर्सिटी": 4295,
      "-B": 4296,
      "219": 4297,
      "Craven": 4298,
      "DD": 4299,
      "ae": 4300,
      "ao": 4301,
      "britannica": 4302,
      "gan": 4303,
      "mi": 4304,
      "rar": 4305,
      "slam": 4306,
      "t-": 4307,
      "yayan": 4308,
      "▁j": 4309,
      "▁°": 4310,
      "▁am": 4311,
      "▁ref": 4312,
      "orest": 4313,
      "tecture": 4314,
      "index": 4315,
      "arna": 4316,
      "al_P": 4317,
      "](https://en.wikipedia.org/wiki/I": 4318,
      "](https://en.wikipedia.org/wiki/The": 4319,
      "ess/": 4320,
      "rial": 4321,
      "achin": 4322,
      "-16": 4323,
      "ing_": 4324,
      "▁sup": 4325,
      "urt": 4326,
      "ulti": 4327,
      "vers": 4328,
      "istrar": 4329,
      "▁British": 4330,
      "def": 4331,
      "ments": 4332,
      "_Sh": 4333,
      "118": 4334,
      "arge": 4335,
      "▁one": 4336,
      "▁K.": 4337,
      "▁than": 4338,
      "olitics": 4339,
      "feb": 4340,
      "ultan": 4341,
      "▁modern": 4342,
      ".svg/": 4343,
      "▁2,": 4344,
      "Hinduism": 4345,
      "usiness/": 4346,
      ".svg.png": 4347,
      "atsyayan": 4348,
      "ainting": 4349,
      "_South_Asia": 4350,
      "ricket": 4351,
      "▁Wikidata": 4352,
      "etraglia": 4353,
      "Craven1997": 4354,
      "britannica.com/": 4355,
      "3TR": 4356,
      "7-0)": 4357,
      "84": 4358,
      "Pages": 4359,
      "_g": 4360,
      "d/": 4361,
      "ite": 4362,
      "lance": 4363,
      "rdu": 4364,
      "tex": 4365,
      "▁(2006": 4366,
      "2017": 4367,
      "ould": 4368,
      "▁Ar": 4369,
      "▁co": 4370,
      "logi": 4371,
      "uslim": 4372,
      "00)": 4373,
      "ticle": 4374,
      "articles": 4375,
      "do-A": 4376,
      "india-glance": 4377,
      "3TRt": 4378,
      "\"](https://books.google.com/books?id=": 4379,
      "-28": 4380,
      "3/": 4381,
      "Ethnologue": 4382,
      "Main": 4383,
      "ahar": 4384,
      "can": 4385,
      "economic": 4386,
      "efore": 4387,
      "ihar": 4388,
      "icha": 4389,
      "languages": 4390,
      "vatsyayan": 4391,
      "ంజా": 4392,
      "గి": 4393,
      "టీ": 4394,
      "టాన్": 4395,
      "మంత్రి": 4396,
      "లను": 4397,
      "వె": 4398,
      "వరణ": 4399,
      "హదార": 4400,
      "ూచ": 4401,
      "▁హ": 4402,
      "▁భారతదేశ": 4403,
      "▁ther": 4404,
      "▁[978": 4405,
      "oni": 4406,
      "es.": 4407,
      "్రమ": 4408,
      "ripur": 4409,
      "▁India*](https://books.google.com/books?id=": 4410,
      "ammu": 4411,
      "▁classical": 4412,
      "▁such": 4413,
      "ussia": 4414,
      "istan": 4415,
      "▁million": 4416,
      "భారతదేశ_": 4417,
      "▁కొ": 4418,
      "▁వ్యా": 4419,
      "▁later": 4420,
      "▁మత": 4421,
      "▁మతము": 4422,
      "తావరణ": 4423,
      "నాడు": 4424,
      "▁[Singh": 4425,
      "▁ఉంది.": 4426,
      "osed": 4427,
      "_pro": 4428,
      "_BRICS": 4429,
      "▁ఇతర": 4430,
      "ాయి": 4431,
      "engali": 4432,
      "ణాసియా": 4433,
      "athak": 4434,
      "▁2021.\n": 4435,
      "ovember": 4436,
      "inistry_of_": 4437,
      "▁2019.\n": 4438,
      "టెడ్": 4439,
      "▁ఆర్కైవు": 4440,
      "-lord": 4441,
      "▁రైలు": 4442,
      "భూటాన్": 4443,
      "ehru": 4444,
      "document": 4445,
      "_Island": 4446,
      "_సామ్రాజ్యం": 4447,
      "▁February": 4448,
      "వాతంత్ర్య": 4449,
      "ichael": 4450,
      "vatsyayan-lord": 4451,
      "\"[[": 4452,
      "aus": 4453,
      "ks": 4454,
      "▁2.": 4455,
      "▁\"[": 4456,
      "tig": 4457,
      "arri": 4458,
      "ala": 4459,
      "reme": 4460,
      "ise": 4461,
      "-15": 4462,
      "lib": 4463,
      "▁Ac": 4464,
      "▁12": 4465,
      "21)": 4466,
      "itz": 4467,
      "rown": 4468,
      "▁David": 4469,
      "▁Economic": 4470,
      "▁...": 4471,
      "22)": 4472,
      "▁report": 4473,
      "search": 4474,
      "...": 4475,
      "ohn": 4476,
      "olden": 4477,
      "-india-": 4478,
      ".html)": 4479,
      "ervation": 4480,
      "logical": 4481,
      "/ark": 4482,
      "/hindi": 4483,
      "2),": 4484,
      "7_": 4485,
      "CL": 4486,
      "Con": 4487,
      "HA": 4488,
      "IJ": 4489,
      "_4": 4490,
      "ele": 4491,
      "fl": 4492,
      "ner": 4493,
      "nal": 4494,
      "ras": 4495,
      "war": 4496,
      "ंतर": 4497,
      "ईल": 4498,
      "घर": 4499,
      "घालय": 4500,
      "चें": 4501,
      "तुल": 4502,
      "थम": 4503,
      "थियार": 4504,
      "पि": 4505,
      "ल](https://hi.wikipedia.org/wiki/": 4506,
      "वेश": 4507,
      "वैद": 4508,
      "हम": 4509,
      "िबंध": 4510,
      "ृष": 4511,
      "ेन्द्र": 4512,
      "ोट": 4513,
      "ोड": 4514,
      "्लेट": 4515,
      "▁,": 4516,
      "▁३": 4517,
      ":/121": 4518,
      "▁[राज्य": 4519,
      "▁[United": 4520,
      "▁[नेपाल": 4521,
      "▁[गुजरात": 4522,
      "▁\"सा": 4523,
      "▁\"नेपाल": 4524,
      "ारो": 4525,
      "ारम्भ": 4526,
      "](https://hi.wikipedia.org/wiki/ज": 4527,
      "्रह": 4528,
      "arn": 4529,
      "arly": 4530,
      "than": 4531,
      "alore": 4532,
      "reat": 4533,
      "भारत\n": 4534,
      "▁मन": 4535,
      "▁(क": 4536,
      "▁(20": 4537,
      "राक": 4538,
      "र्ट": 4539,
      "र्त": 4540,
      "र्भ": 4541,
      "ेंस": 4542,
      "](https://hi.wikipedia.org/wiki/भारत_स": 4543,
      "\\_क": 4544,
      "\\_पृष्ठ": 4545,
      "-135": 4546,
      "▁अमेर": 4547,
      "▁अलग": 4548,
      "atak": 4549,
      "▁Con": 4550,
      "वियत": 4551,
      "ालैंड": 4552,
      "▁जय": 4553,
      "▁जिन": 4554,
      "न्ध": 4555,
      "▁देव": 4556,
      "▁दोन": 4557,
      "▁south": 4558,
      "angalore": 4559,
      "भाजन": 4560,
      "local": 4561,
      "▁बंगाल": 4562,
      "▁बड़े": 4563,
      "▁प्रधानमंत्री": 4564,
      "▁Per": 4565,
      "▁सेवा": 4566,
      "_से": 4567,
      "▁2019.": 4568,
      "▁काम": 4569,
      "chedu": 4570,
      "▁आक": 4571,
      "▁आन्दोल": 4572,
      "olle": 4573,
      "▁गठ": 4574,
      "▁कोर": 4575,
      "▁परि": 4576,
      "▁संस्थान": 4577,
      "_महासागर": 4578,
      "संबर": 4579,
      "ियन": 4580,
      "](https://hi.wikipedia.org/wiki/भारत#cite_ref-pib": 4581,
      "](https://hi.wikipedia.org/wiki/भारत#cite_ref-langoff_1": 4582,
      "]](https://hi.wikipedia.org/wiki/भारत#cite_note-langoff-1": 4583,
      "▁रक्षा": 4584,
      "▁GDP": 4585,
      "ी](https://hi.wikipedia.org/wiki/म": 4586,
      "▁[\"The": 4587,
      "▁\"मध्य": 4588,
      "जापान": 4589,
      "हाँ": 4590,
      "ोली": 4591,
      "-7mar": 4592,
      "ंधी": 4593,
      "](https://hi.wikipedia.org/wiki/मध्य": 4594,
      "▁[Asher": 4595,
      "a](https://en.wikipedia.org/wiki/S": 4596,
      "▁art": 4597,
      "▁Kashmir": 4598,
      "▁जनता": 4599,
      "द्यालय": 4600,
      "▁चार": 4601,
      "owland": 4602,
      "orical": 4603,
      "48/cb": 4604,
      "गुप्त": 4605,
      "erala": 4606,
      "न्नड़": 4607,
      "न्तु": 4608,
      "](https://hi.wikipedia.org/wiki/पंजाब": 4609,
      "](https://hi.wikipedia.org/wiki/पश्चिम": 4610,
      "Stein1998),": 4611,
      "Singh2009),": 4612,
      "▁./श्रेणी:CS1": 4613,
      "ों_की_सूची?action=edit&redlink=1": 4614,
      "120]](https://hi.wikipedia.org/wiki/भारत#cite_note-langoff-1": 4615,
      "▁CITEREFStein1998": 4616,
      "▁CITEREFSingh2009": 4617,
      "conomy_of_": 4618,
      "एसिया": 4619,
      "](https://hi.wikipedia.org/wiki/भारत#CITEREFStein1998),": 4620,
      "](https://hi.wikipedia.org/wiki/भारत#CITEREFSingh2009),": 4621,
      "रेन्द्र": 4622,
      "▁[संयुक्त": 4623,
      "meric": 4624,
      "धीरे": 4625,
      "वर्त": 4626,
      "▁थे": 4627,
      "▁पाकिस्तान": 4628,
      "त्पत्ति": 4629,
      "KulkeRothermund200": 4630,
      "endra": 4631,
      "▁मंदिर\")": 4632,
      "on_territ": 4633,
      "िन्धु": 4634,
      "नागालैंड": 4635,
      "▁\"संस्कृत": 4636,
      "▁who": 4637,
      "▁वर्षों": 4638,
      "ynas": 4639,
      "रोहर": 4640,
      "ृष्ण": 4641,
      "▁2024.": 4642,
      "_न्या": 4643,
      "▁2009](https://hi.wikipedia.org/wiki/भारत#CITEREFSingh2009),": 4644,
      "limate": 4645,
      "वार्ता:": 4646,
      "▁दृश्य": 4647,
      "▁घाटी": 4648,
      "rowth": 4649,
      "▁सिनेमा\"),": 4650,
      "तन्त्रता": 4651,
      "▁2018](https://en.wikipedia.org/wiki/India#CITEREF": 4652,
      "▁वार्ता:": 4653,
      "▁union": 4654,
      "-lead": 4655,
      ".bnf": 4656,
      "▁होती": 4657,
      "▁भूमिका": 4658,
      "Harle1994": 4659,
      "▁अर्थव्यवस्था": 4660,
      "▁दिसंबर": 4661,
      "Articles": 4662,
      "▁स्तर": 4663,
      ".fr/ark": 4664,
      "▁1998](https://hi.wikipedia.org/wiki/भारत#CITEREFStein1998),": 4665,
      "ffice": 4666,
      "हायता:": 4667,
      "erritory": 4668,
      "रुणाचल": 4669,
      "चेंज": 4670,
      "वैदिक": 4671,
      "िबंधीय": 4672,
      ":/12148/cb": 4673,
      "\\_पृष्ठसभ": 4674,
      "](https://hi.wikipedia.org/wiki/भारत#cite_ref-langoff_128": 4675,
      "-7mar2011": 4676,
      "120]](https://hi.wikipedia.org/wiki/भारत#cite_note-langoff-128)": 4677,
      ".bnf.fr/ark": 4678,
      ".bnf.fr/ark:/12148/cb": 4679,
      "1-0": 4680,
      "125": 4681,
      ";\n": 4682,
      "b)": 4683,
      "each": 4684,
      "nan": 4685,
      "▁out": 4686,
      "▁high": 4687,
      ".org": 4688,
      "▁[4": 4689,
      "ar,": 4690,
      "ety": 4691,
      "etary": 4692,
      "▁culture": 4693,
      "-0)\n": 4694,
      "▁Bank": 4695,
      "▁Nations": 4696,
      "elang": 4697,
      "emon": 4698,
      "▁[978-0-19": 4699,
      "▁left": 4700,
      "Pages\\_": 4701,
      "3TRtDwAAQBAJ&pg=PA": 4702,
      ".world": 4703,
      "2]](https://en.wikipedia.org/wiki/India#cite_note-FOOTNOTE": 4704,
      "313": 4705,
      "3]](https://en.wikipedia.org/wiki/India#cite_note-FOOTNOTE": 4706,
      "Dikshit": 4707,
      "Gua": 4708,
      "JIJ": 4709,
      "NA": 4710,
      "Schwartzberg": 4711,
      "Zva": 4712,
      "cul": 4713,
      "cted": 4714,
      "dones": 4715,
      "go": 4716,
      "gence": 4717,
      "gram": 4718,
      "gned": 4719,
      "pa": 4720,
      "ంశ": 4721,
      "ఆర్": 4722,
      "ఉత్తర": 4723,
      "ఒడి": 4724,
      "కీయ": 4725,
      "గలు": 4726,
      "చు": 4727,
      "జరా": 4728,
      "తూర్పు": 4729,
      "భు": 4730,
      "మన్": 4731,
      "యి": 4732,
      "లస": 4733,
      "ీన": 4734,
      "ేక": 4735,
      "▁డ": 4736,
      "▁జాబితా": 4737,
      "dian": 4738,
      "▁[m": 4739,
      "▁[భారతదేశ": 4740,
      "reli": 4741,
      "read": 4742,
      "esearch": 4743,
      "▁industry": 4744,
      "agar": 4745,
      "ingdom": 4746,
      "▁since": 4747,
      "▁**జాతీయ": 4748,
      "▁పట్ట": 4749,
      "ర్\")": 4750,
      "rative": 4751,
      "▁me": 4752,
      "▁many": 4753,
      "▁R.": 4754,
      "▁Raj": 4755,
      "నిక": 4756,
      "▁long": 4757,
      "▁large": 4758,
      "▁Europe": 4759,
      "ంగ్రె": 4760,
      "▁సభ": 4761,
      "-3)": 4762,
      "▁[\"India": 4763,
      "తాబ్": 4764,
      "ast_Asia": 4765,
      "▁ప్రపంచ": 4766,
      "▁ప్రభు": 4767,
      "utra": 4768,
      "avi": 4769,
      "-53": 4770,
      "▁ఆసియా": 4771,
      "▁original](https://": 4772,
      "▁original](https://www.": 4773,
      "▁*[The": 4774,
      "▁disp": 4775,
      "artment": 4776,
      "మ్రాజ్య": 4777,
      "గుజరా": 4778,
      "ublication": 4779,
      "▁సామ్రాజ్యం\")": 4780,
      "▁people": 4781,
      "త్యేక": 4782,
      "రాష్ట్రపతి": 4783,
      "ప్ప": 4784,
      "▁2021.": 4785,
      "▁కాశ్మీ": 4786,
      "▁రాజవంశం": 4787,
      "▁చెంద": 4788,
      "▁ఆర్ధిక": 4789,
      "%20%20%20%20": 4790,
      "▁used": 4791,
      "▁స్థాన": 4792,
      "ject": 4793,
      "తమిళనాడు": 4794,
      "pecial:BookSources/978-81": 4795,
      "_Development": 4796,
      "ప్రధానమంత్రి": 4797,
      "గణతంత్ర": 4798,
      "▁rule": 4799,
      "▁క్రీడ": 4800,
      "▁ఉన్నాయి.": 4801,
      "ఆఫ్ఘ": 4802,
      "శ్రీలంక": 4803,
      "షియా": 4804,
      "న్‌ఫ": 4805,
      "నేపాల్": 4806,
      "▁(eds.).": 4807,
      "▁among": 4808,
      "DikshitSchwartzberg": 4809,
      "GuaJIJ": 4810,
      "ZvaGuaJIJ": 4811,
      "gramme": 4812,
      "తాబ్ద": 4813,
      "DikshitSchwartzberg2023": 4814,
      "ZvaGuaJIJgo": 4815,
      "*](http://": 4816,
      "-r": 4817,
      "122": 4818,
      "2–": 4819,
      "QAAQBAJ&pg=PA": 4820,
      "cess": 4821,
      "day": 4822,
      "press": 4823,
      "ront": 4824,
      "ym": 4825,
      "yle": 4826,
      "tition": 4827,
      "alog": 4828,
      "es,": 4829,
      "ett": 4830,
      "inger": 4831,
      "▁Al": 4832,
      "003": 4833,
      "▁Rothermund": 4834,
      "▁1960": 4835,
      "_Air": 4836,
      "▁[\"A": 4837,
      "_at_the": 4838,
      "▁territory": 4839,
      "issile": 4840,
      "110": 4841,
      "63": 4842,
      "8-0)": 4843,
      "94": 4844,
      "Ali": 4845,
      "Congress": 4846,
      "PO": 4847,
      "Pro": 4848,
      "Se": 4849,
      "_for": 4850,
      "ds": 4851,
      "hand": 4852,
      "ning": 4853,
      "ving": 4854,
      "▁ra": 4855,
      "pee": 4856,
      "▁\"India": 4857,
      "▁\"United": 4858,
      "anth": 4859,
      "20)": 4860,
      "them": 4861,
      "▁inclu": 4862,
      "▁CE": 4863,
      "▁Afric": 4864,
      "▁some": 4865,
      "ilk": 4866,
      "▁economic": 4867,
      "ics": 4868,
      "_Summit": 4869,
      "▁land": 4870,
      "_in_South_Asia": 4871,
      "▁General": 4872,
      "ake": 4873,
      "harm": 4874,
      "a](https://en.wikipedia.org/wiki/A": 4875,
      "hindu": 4876,
      "ineering": 4877,
      "ffer": 4878,
      "arket": 4879,
      "Encyc": 4880,
      "ynasty": 4881,
      "ast_Asia_Summit": 4882,
      "ZvaGuaJIJgoC&pg=PA": 4883,
      "&s": 4884,
      "3,": 4885,
      "52": 4886,
      "6).": 4887,
      "9–": 4888,
      "Vu": 4889,
      "ZVu": 4890,
      "_2": 4891,
      "_त": 4892,
      "af": 4893,
      "kZVu": 4894,
      "oon_": 4895,
      "ंश": 4896,
      "इव": 4897,
      "ईद": 4898,
      "ऍथ": 4899,
      "एल": 4900,
      "ऑक्सफोर्ड": 4901,
      "ख़": 4902,
      "गध": 4903,
      "गाल": 4904,
      "छि": 4905,
      "जपुरी": 4906,
      "जिस्ट": 4907,
      "ताल": 4908,
      "दय": 4909,
      "दल": 4910,
      "दार": 4911,
      "दान": 4912,
      "दर्श": 4913,
      "नोल": 4914,
      "नत्व": 4915,
      "पया": 4916,
      "पीय": 4917,
      "पदी": 4918,
      "फ्रांस": 4919,
      "बू": 4920,
      "मक": 4921,
      "मत": 4922,
      "मृत": 4923,
      "वत": 4924,
      "शत": 4925,
      "शोक": 4926,
      "हें": 4927,
      "ीक": 4928,
      "ुक": 4929,
      "ुरा": 4930,
      "ुवै": 4931,
      "ूबर": 4932,
      "ेघालय": 4933,
      "ॉग": 4934,
      "ौपदी": 4935,
      "४७": 4936,
      "५०": 4937,
      "▁`": 4938,
      "▁ऐ": 4939,
      "▁रा": 4940,
      "▁ना": 4941,
      "▁history": 4942,
      "▁term": 4943,
      "▁[श": 4944,
      "▁[Kulke": 4945,
      "▁[Oxford": 4946,
      "▁\"राष्ट्रीय": 4947,
      "▁\"साँच": 4948,
      "▁\"साँचा:": 4949,
      "indus": 4950,
      "](https://hi.wikipedia.org/wiki/ग": 4951,
      "](https://hi.wikipedia.org/wiki/द": 4952,
      "](https://hi.wikipedia.org/wiki/हिन्द": 4953,
      "](https://hi.wikipedia.org/wiki/साँच": 4954,
      "](https://hi.wikipedia.org/wiki/साँचा:": 4955,
      "्रार": 4956,
      "भारत)\")": 4957,
      "▁सूच": 4958,
      "▁सीमा": 4959,
      "▁मन्दिर": 4960,
      "्यूरो": 4961,
      "▁(भारत)\")": 4962,
      "रात": 4963,
      "▁पड़": 4964,
      "▁पहु": 4965,
      "▁प्लेट": 4966,
      "▁they": 4967,
      "र्ग": 4968,
      "▁हाला": 4969,
      "▁हथियार": 4970,
      "िकी": 4971,
      "▁अछि": 4972,
      "atter": 4973,
      "str": 4974,
      "ालर": 4975,
      "▁ज़": 4976,
      "▁दी": 4977,
      "uran": 4978,
      "▁बार": 4979,
      "▁बने": 4980,
      "▁बड़ा": 4981,
      "लाओ": 4982,
      "तिब्बत": 4983,
      "▁नौसेना": 4984,
      "्टॉक": 4985,
      "न्दा": 4986,
      "▁वृद्ध": 4987,
      "क्षण": 4988,
      "क्षद्वीप": 4989,
      "▁आर": 4990,
      "स्थ": 4991,
      "थाईल": 4992,
      "▁1965": 4993,
      "▁[महाराष्ट्र": 4994,
      "कांक": 4995,
      "हिमालय": 4996,
      "म्प्र": 4997,
      "](https://mai.wikipedia.org/wiki/क": 4998,
      "▁विज्ञान": 4999,
      "ियर": 5000,
      "सां": 5001,
      "राष्ट्रीय_": 5002,
      "▁\"महा": 5003,
      "▁\"महाराष्ट्र": 5004,
      "ंडमान": 5005,
      "▁लिया": 5006,
      "मन्त": 5007,
      "मीरात": 5008,
      "परेशन": 5009,
      "▁करना": 5010,
      "▁करता": 5011,
      "र्मू": 5012,
      "्राष्ट्र": 5013,
      "्रांति": 5014,
      "](https://hi.wikipedia.org/wiki/महाराष्ट्र": 5015,
      "ोगरी": 5016,
      "ंदोल": 5017,
      "त्मा": 5018,
      "▁[ब्रिटिश": 5019,
      "पुर\")": 5020,
      "राष्ट्रीय_स": 5021,
      "हारजिस्ट": 5022,
      "▁वर्षा": 5023,
      "_भारतीय_": 5024,
      "द्रौपदी": 5025,
      "ा_वार्ता:": 5026,
      "मेन": 5027,
      "▁घोष": 5028,
      "▁घरेलू": 5029,
      "▁[2](https://hi.wikipedia.org/wiki/भारत#cite_ref-FOOTNOTE": 5030,
      "समूह": 5031,
      "](https://hi.wikipedia.org/wiki/पूर्व": 5032,
      "जराय": 5033,
      "▁[उत्तर": 5034,
      "▁निभाई": 5035,
      "▁[1](https://hi.wikipedia.org/wiki/भारत#cite_ref-FOOTNOTE": 5036,
      "-pro": 5037,
      "▁\"उत्तर": 5038,
      "▁मानव": 5039,
      "दाख": 5040,
      "▁था,": 5041,
      "▁2007\n": 5042,
      "गुजराती": 5043,
      "ेर-": 5044,
      "ंपन": 5045,
      "ंपरा": 5046,
      "▁अपने": 5047,
      "pib.nic.in/": 5048,
      "ार्कट": 5049,
      "जयनगर": 5050,
      "▁तटीय": 5051,
      "▁एशिया\")": 5052,
      "राष्ट्रपति\")": 5053,
      "भूट": 5054,
      "▁उत्तर-प": 5055,
      "िज़ोर": 5056,
      "▁सुरक्षा": 5057,
      "▁पार्टी": 5058,
      "राठी": 5059,
      "लिंग": 5060,
      "▁सदस": 5061,
      "▁दृष्ट": 5062,
      "पातकाल": 5063,
      "▁जलवायु": 5064,
      "भोजपुरी": 5065,
      "स्लाम": 5066,
      "▁estim": 5067,
      "▁राजनीतिक": 5068,
      "▁[पंजाब](https://hi.wikipedia.org/wiki/पंजाब": 5069,
      "८५७": 5070,
      "JPG": 5071,
      "cript": 5072,
      "_राजवंश": 5073,
      "फाएं": 5074,
      "▁शुरू": 5075,
      "▁लगभग": 5076,
      "खनऊ": 5077,
      "▁व्यापार": 5078,
      "हरियाणा": 5079,
      "teenth": 5080,
      "_के_अनुसार_देश": 5081,
      "तुल्य": 5082,
      "ृषि": 5083,
      "▁दोनों": 5084,
      "Pages\\_us": 5085,
      "ऍथनोल": 5086,
      "ुवैत": 5087,
      "▁\"साँचा": 5088,
      "](https://hi.wikipedia.org/wiki/साँचा_वार्ता:": 5089,
      "▁वृद्धि": 5090,
      "▁[महाराष्ट्र](https://hi.wikipedia.org/wiki/महाराष्ट्र": 5091,
      "▁\"महाराष्ट्र\")": 5092,
      "हारजिस्ट्रार": 5093,
      "ार्कटिका": 5094,
      "ऍथनोलॉग": 5095,
      "\"](http://": 5096,
      "-S": 5097,
      "-j": 5098,
      "-29": 5099,
      "/D": 5100,
      "83": 5101,
      "9-0)": 5102,
      "Asia": 5103,
      "C-0": 5104,
      "De": 5105,
      "Library": 5106,
      "Spear": 5107,
      "_ప్రదేశ్": 5108,
      "ather": 5109,
      "bc": 5110,
      "fgh": 5111,
      "ii": 5112,
      "k:": 5113,
      "lm": 5114,
      "ling": 5115,
      "law": 5116,
      "nar": 5117,
      "y=": 5118,
      "y\")": 5119,
      "yana": 5120,
      "zation": 5121,
      "ం,": 5122,
      "ఉప": 5123,
      "కొ": 5124,
      "కేంద్రపాలిత": 5125,
      "జె": 5126,
      "ఢ్": 5127,
      "ది.": 5128,
      "నాల": 5129,
      "లే": 5130,
      "ళు": 5131,
      "ౌద్ధ": 5132,
      "▁he": 5133,
      "▁భా": 5134,
      "oral": 5135,
      "pen": 5136,
      "▁[వి": 5137,
      "▁\"National": 5138,
      "▁\"Oxford": 5139,
      "tered": 5140,
      "telli": 5141,
      "enni": 5142,
      "inance": 5143,
      "hief": 5144,
      "tici": 5145,
      "lem": 5146,
      "stru": 5147,
      "ాలీ": 5148,
      "▁Science": 5149,
      "▁social": 5150,
      "links": 5151,
      "ర్చ": 5152,
      "217": 5153,
      "▁mi": 5154,
      "▁minister": 5155,
      ".jpe": 5156,
      "▁total": 5157,
      "ాలు?action=edit&redlink=1": 5158,
      "pecial:EditPage/": 5159,
      "▁her": 5160,
      "▁Nadu": 5161,
      "-317": 5162,
      "ubcontinent": 5163,
      "overe": 5164,
      "–సా.శ.18": 5165,
      "▁అత్య": 5166,
      "▁article": 5167,
      "ainism": 5168,
      "s](https://en.wikipedia.org/wiki/M": 5169,
      "▁ఆధ": 5170,
      "▁depend": 5171,
      "మాఖ్య": 5172,
      "logo": 5173,
      "వాణా": 5174,
      "ంటి": 5175,
      "▁దేశం": 5176,
      "▁Valley": 5177,
      "డ్డ": 5178,
      "▁జనాభా": 5179,
      "union_territ": 5180,
      "▁maj": 5181,
      "దక్షిణాసియా": 5182,
      "▁\"Special:BookSources/978-0-19": 5183,
      "](Special:BookSources/978-0-19": 5184,
      "▁గల": 5185,
      "▁భారతదేశంలో": 5186,
      "ంగ్లీ": 5187,
      "యునై": 5188,
      "ష్ణ": 5189,
      "_చరిత్ర?action=edit&redlink=1": 5190,
      "/article": 5191,
      "▁రాష్ట్రాలు,": 5192,
      "View": 5193,
      "akhand": 5194,
      "dependence": 5195,
      "_మతము": 5196,
      "▁మొద": 5197,
      "hasha": 5198,
      "▁చెయ్యబడింది.": 5199,
      "urton": 5200,
      "arnatak": 5201,
      "Spear1990": 5202,
      "fghan": 5203,
      "telligence": 5204,
      "pecial:EditPage/Template:": 5205,
      "యునైటెడ్": 5206,
      "-and": 5207,
      ".ni": 5208,
      "5-0)": 5209,
      "7%": 5210,
      "98": 5211,
      "9).": 5212,
      "Re": 5213,
      "bank": 5214,
      "stitu": 5215,
      "sources": 5216,
      "ortheast": 5217,
      "ender": 5218,
      "ancy": 5219,
      "tice": 5220,
      "lect": 5221,
      "entury": 5222,
      "243": 5223,
      "▁Data": 5224,
      "oung": 5225,
      "▁H.": 5226,
      "archive.org/detail": 5227,
      "▁north": 5228,
      "166": 5229,
      "ummer": 5230,
      "ternal": 5231,
      "▁States": 5232,
      "ociety": 5233,
      "catalog": 5234,
      "rofile": 5235,
      "formation": 5236,
      "ymbols": 5237,
      ".svg.png)": 5238,
      "archive.org/details/": 5239,
      ",NGDP": 5240,
      "123": 5241,
      "53": 5242,
      "F)": 5243,
      "Language": 5244,
      "M50th": 5245,
      "New": 5246,
      "NCL": 5247,
      "UCN": 5248,
      "aut": 5249,
      "business": 5250,
      "bbc": 5251,
      "cog": 5252,
      "dr": 5253,
      "eo": 5254,
      "if": 5255,
      "iri": 5256,
      "owe": 5257,
      "oint": 5258,
      "sur": 5259,
      "▁ci": 5260,
      "▁6.": 5261,
      "▁oc": 5262,
      "▁[p": 5263,
      "▁[s": 5264,
      "▁\"V": 5265,
      "▁\"19": 5266,
      "ins": 5267,
      "anat": 5268,
      "208": 5269,
      "thang": 5270,
      "▁(a)": 5271,
      "▁(b)": 5272,
      "ominal": 5273,
      "isl": 5274,
      "1970": 5275,
      "▁India\").": 5276,
      "\\_articles": 5277,
      "▁SAARC": 5278,
      "vement": 5279,
      "▁both": 5280,
      "verse": 5281,
      "mploy": 5282,
      "▁B.;": 5283,
      "ayback": 5284,
      "▁largest": 5285,
      "_in_New": 5286,
      "▁Gandhi": 5287,
      "▁2026": 5288,
      "27)": 5289,
      "ountry": 5290,
      "ains": 5291,
      "-107-0": 5292,
      "%20A": 5293,
      "own": 5294,
      "49-2": 5295,
      "▁area": 5296,
      "riculture": 5297,
      "▁rate": 5298,
      "timesofindia": 5299,
      "qual": 5300,
      "_Force": 5301,
      "ography": 5302,
      "▁\"History": 5303,
      "▁play": 5304,
      "hattis": 5305,
      "](https://en.wikipedia.org/wiki/History": 5306,
      "arliamentary": 5307,
      "▁world's": 5308,
      ".htm)": 5309,
      "fication": 5310,
      "Report.pdf)": 5311,
      "▁2006](https://en.wikipedia.org/wiki/India#CITEREFMetcalfMetcalf2006),": 5312,
      "nclm.nic.in/shared/linkimages/NCL": 5313,
      "▁article:": 5314,
      "M50thReport.pdf)": 5315,
      "▁occ": 5316,
      "_in_New_Delhi": 5317,
      "timesofindia.indiatimes.com/": 5318,
      "nclm.nic.in/shared/linkimages/NCLM50thReport.pdf)": 5319,
      "1-1": 5320,
      "2-4": 5321,
      "91": 5322,
      "EX": 5323,
      "Po": 5324,
      "_n": 5325,
      "_43": 5326,
      "e/": 5327,
      "eval": 5328,
      "hal": 5329,
      "ji": 5330,
      "uth": 5331,
      "yy": 5332,
      "ensi": 5333,
      "rect": 5334,
      "as,": 5335,
      "\\_(": 5336,
      "-00": 5337,
      "▁C.": 5338,
      "agari": 5339,
      "[[14": 5340,
      "lopedia": 5341,
      "urn": 5342,
      "▁2011.": 5343,
      "▁made": 5344,
      "ournal": 5345,
      "▁D.": 5346,
      "▁Government": 5347,
      "akrish": 5348,
      "407": 5349,
      "_Nadu": 5350,
      "edieval": 5351,
      "amil_Nadu": 5352,
      "crease": 5353,
      "8/8": 5354,
      ".html).": 5355,
      "vanagari": 5356,
      "▁Minorities,": 5357,
      "▁imp": 5358,
      "kZVuDwAAQBAJ&pg=PA": 5359,
      "Pages\\_using\\_": 5360,
      "-30": 5361,
      "-on-": 5362,
      "-गंगा": 5363,
      "6]](https://en.wikipedia.org/wiki/India#cite_note-": 5364,
      "7.\n": 5365,
      ":**": 5366,
      ":EditPage/": 5367,
      "Allchin": 5368,
      "Official": 5369,
      "OLA": 5370,
      "Petraglia": 5371,
      "Robb": 5372,
      "Sharma": 5373,
      "Wolpert": 5374,
      "_న": 5375,
      "cor": 5376,
      "fob": 5377,
      "lack": 5378,
      "ox": 5379,
      "s18": 5380,
      "udi": 5381,
      "ँकि": 5382,
      "इटे": 5383,
      "ऊर्जा": 5384,
      "ऋतु": 5385,
      "ऑपरेशन": 5386,
      "क\\_पृष्ठसभ": 5387,
      "ख्य": 5388,
      "घाट": 5389,
      "त्या": 5390,
      "थी": 5391,
      "दु": 5392,
      "नत": 5393,
      "बी": 5394,
      "ल्त": 5395,
      "लिम": 5396,
      "वली": 5397,
      "शील": 5398,
      "सत": 5399,
      "स](https://hi.wikipedia.org/wiki/": 5400,
      "सैन": 5401,
      "ाय": 5402,
      "ुस्तान": 5403,
      "ूस": 5404,
      "ैली": 5405,
      "ोण": 5406,
      "ोब": 5407,
      "ौक्स": 5408,
      "१८५७": 5409,
      "२६": 5410,
      "४.": 5411,
      "ఖండ": 5412,
      "గం": 5413,
      "టిక": 5414,
      "డే": 5415,
      "ద్య": 5416,
      "మార్": 5417,
      "మాలయ": 5418,
      "లలో": 5419,
      "లకు": 5420,
      "ళ్": 5421,
      "వ](https://te.wikipedia.org/wiki/": 5422,
      "ానికి": 5423,
      "ాళు": 5424,
      "ీర్": 5425,
      "▁९": 5426,
      "▁భ": 5427,
      "▁—": 5428,
      "▁యు": 5429,
      "](Category:": 5430,
      "▁[V": 5431,
      "▁\"प्र": 5432,
      "▁\"వి": 5433,
      "▁\"विशेष:EditPage/साँचा:": 5434,
      "hird": 5435,
      "ार्व": 5436,
      "▁कर्ज": 5437,
      "](https://hi.wikipedia.org/wiki/य": 5438,
      "](https://hi.wikipedia.org/wiki/विशेष:EditPage/साँचा:": 5439,
      "्रु": 5440,
      "arak": 5441,
      "India_": 5442,
      "▁सूर": 5443,
      "▁सम्प": 5444,
      "▁मील": 5445,
      "tions": 5446,
      "▁(c": 5447,
      "▁(India": 5448,
      "▁हर": 5449,
      "lease": 5450,
      "\\_मा": 5451,
      "educ": 5452,
      "-06": 5453,
      "▁अधिराज्य": 5454,
      "lion": 5455,
      "▁power": 5456,
      "▁Cons": 5457,
      "▁Company": 5458,
      "विद्यालय": 5459,
      "ాలో": 5460,
      "नाइटे": 5461,
      "▁Summit\")": 5462,
      "▁trans": 5463,
      "राजनी": 5464,
      "స్వ": 5465,
      "స్లా": 5466,
      "▁बनी": 5467,
      "▁ब्रिटिश": 5468,
      "▁बड़ी": 5469,
      "लावा": 5470,
      "▁प्रण": 5471,
      "▁प्रभा": 5472,
      "▁प्रकार": 5473,
      "▁प्रारम्भ": 5474,
      "▁పాల": 5475,
      "▁निय": 5476,
      "▁नृत्य": 5477,
      "_सागर": 5478,
      "_सिनेमा": 5479,
      "hell": 5480,
      "న్\")": 5481,
      "raj": 5482,
      "स्ता": 5483,
      "▁\"भारतक": 5484,
      "road": 5485,
      "ित्व": 5486,
      "▁वे": 5487,
      "▁आय": 5488,
      "▁आधुनिक": 5489,
      "▁member": 5490,
      "▁Mon": 5491,
      "▁Michael": 5492,
      "स्लिम": 5493,
      "260": 5494,
      "▁Bengal": 5495,
      "री\")": 5496,
      "रीक्षण": 5497,
      "▁गए": 5498,
      "india.com/": 5499,
      "▁కార": 5500,
      "▁కలి": 5501,
      "▁Delhi": 5502,
      "erry": 5503,
      "ादरा": 5504,
      "రిహ": 5505,
      "రికత": 5506,
      "క్నాల": 5507,
      "28.": 5508,
      "▁पर्यटन": 5509,
      "▁परमाणु": 5510,
      "▁परंपरा": 5511,
      "ంది.\n": 5512,
      "▁[महा": 5513,
      "నిమా": 5514,
      "▁संख्या": 5515,
      "नेट": 5516,
      "](https://mai.wikipedia.org/wiki/स": 5517,
      "igh": 5518,
      "▁विवाद": 5519,
      "▁विभाग": 5520,
      "content": 5521,
      "▁సంగీతం": 5522,
      "_के_देश": 5523,
      "ी](https://hi.wikipedia.org/wiki/प": 5524,
      "ी](https://hi.wikipedia.org/wiki/स": 5525,
      "ज़ा": 5526,
      "▁rep": 5527,
      "▁भाषाएँ": 5528,
      "▁చి": 5529,
      "ी\"))": 5530,
      "कारीब": 5531,
      "epal": 5532,
      "धानमन्त": 5533,
      "ులు\"),": 5534,
      "–సా.శ.13": 5535,
      "▁అయ": 5536,
      "▁ప్రధాన": 5537,
      "a](https://en.wikipedia.org/wiki/C": 5538,
      "a](https://en.wikipedia.org/wiki/K": 5539,
      "emoc": 5540,
      "emale": 5541,
      "▁\"Category:": 5542,
      "भिन्न": 5543,
      "▁[भारत](https://hi.wikipedia.org/wiki/भारत": 5544,
      "▁began": 5545,
      "s](https://en.wikipedia.org/wiki/List_of_": 5546,
      "ibet": 5547,
      "ప్రదాయ": 5548,
      "ప్రత్యేక": 5549,
      "ద్వీ": 5550,
      "▁ఉప": 5551,
      "द्यान": 5552,
      "▁రె": 5553,
      "मान्य": 5554,
      "▁जाते": 5555,
      "▁इसी": 5556,
      "న్నడ": 5557,
      "िवेश": 5558,
      "ध्यम": 5559,
      "▁समूह": 5560,
      "viol": 5561,
      "oreign": 5562,
      "ంటు": 5563,
      "मेव": 5564,
      "newsite": 5565,
      "▁దేశంలో": 5566,
      "न्नड": 5567,
      "ंबर": 5568,
      "uddhism": 5569,
      "▁./श्रेणी:जान": 5570,
      "▁मान्यता": 5571,
      "▁१९९": 5572,
      "▁किन्तु": 5573,
      "▁जिसके": 5574,
      "కాశ్మీ": 5575,
      "times.indiatimes.com/": 5576,
      "तिहासिक": 5577,
      "reek": 5578,
      "▁सिंह": 5579,
      "ంధు": 5580,
      "](https://hi.wikipedia.org/wiki/उत्तर": 5581,
      "्यटन\")": 5582,
      "వర్గం:Harv": 5583,
      "▁[संस्कृत": 5584,
      "क्षेत्रफल": 5585,
      "वर्ष": 5586,
      "▁[↑](https://hi.wikipedia.org/wiki/भारत#cite_ref-10": 5587,
      "]](https://hi.wikipedia.org/wiki/भारत#cite_note-10": 5588,
      "▁अपनी": 5589,
      "ద్ధం": 5590,
      "ద్ధి": 5591,
      "ాల్దీవ": 5592,
      "▁न्यायाधीश": 5593,
      "చ్చే": 5594,
      "Oxford_University_Press": 5595,
      "जयपुर": 5596,
      "श्रीनगर": 5597,
      "దక్షిణ_": 5598,
      "त्यमेव": 5599,
      "दिल्ली](https://hi.wikipedia.org/wiki/": 5600,
      "▁\"संयुक्त": 5601,
      "rgani": 5602,
      "▁కాంగ్రె": 5603,
      "Stein2010),": 5604,
      "▁रहे": 5605,
      "तुर्क": 5606,
      "▁वायु": 5607,
      "▁[t](https://hi.wikipedia.org/wiki/साँचा_वार्ता:": 5608,
      "టెక్నాల": 5609,
      "▁डॉल": 5610,
      "▁ప్రాంతాలు": 5611,
      "ility": 5612,
      "హిమాలయ": 5613,
      "▁ऊर्जा": 5614,
      "माजिक": 5615,
      "_पार्ट": 5616,
      "ईसाई": 5617,
      "हितक\\_पृष्ठसभ": 5618,
      "▁हुआ।": 5619,
      "▁Empire\")": 5620,
      "actbook": 5621,
      "](https://hi.wikipedia.org/wiki/संस्कृत": 5622,
      "ducation": 5623,
      "▁[e](https://hi.wikipedia.org/wiki/विशेष:EditPage/साँचा:": 5624,
      "▁प्रतिशत": 5625,
      "▁[v](https://hi.wikipedia.org/wiki/साँचा:": 5626,
      "▁లే": 5627,
      "త్తరా": 5628,
      "ूरोपीय": 5629,
      "నాగరికత": 5630,
      "_का_खाना": 5631,
      "esert": 5632,
      "క్కువ": 5633,
      "_उत्पाद": 5634,
      "\\_देशमे": 5635,
      "▁उद्यान": 5636,
      "▁उद्यान\")": 5637,
      "▁2004](https://hi.wikipedia.org/wiki/भारत#CITEREF": 5638,
      "క్‌సభ": 5639,
      "▁శాస్త్ర": 5640,
      "पदण्ड": 5641,
      "▁शक्तिपीठ": 5642,
      "asp?": 5643,
      "▁राजवंश\")": 5644,
      "ెలుగు": 5645,
      ".aspx?reli": 5646,
      "▁2010](https://en.wikipedia.org/wiki/India#CITEREFStein2010),": 5647,
      "_राज्यक्षेत्र": 5648,
      "▁వచ్చింది.": 5649,
      "▁विदेशी": 5650,
      "ंडोनेशिया": 5651,
      "न्तर्राष्ट्र": 5652,
      "_और_संघ_क्षेत्र": 5653,
      "yanmar": 5654,
      "▁Press](https://en.wikipedia.org/wiki/Oxford_University_Press": 5655,
      "_ప్రాంత": 5656,
      "ministrative": 5657,
      "▁सहयोग": 5658,
      "▁सितंबर": 5659,
      "\\_सहितक\\_पृष्ठसभ": 5660,
      "▁जबकि": 5661,
      "ultanate": 5662,
      "do-Ary": 5663,
      "▁there": 5664,
      "▁गठबंधन": 5665,
      "pib.nic.in/newsite": 5666,
      "_के_अनुसार_देशों_की_सूची": 5667,
      "ర్చ:": 5668,
      ":EditPage/మూస:": 5669,
      "PetragliaAllchin": 5670,
      "ल्तनत": 5671,
      "सैनिक": 5672,
      "ాళుక్య": 5673,
      "lease.aspx?reli": 5674,
      "\\_मापदण्ड": 5675,
      "education": 5676,
      "नाइटेड": 5677,
      "कारीबौक्स": 5678,
      "ప్రత్యేక:EditPage/మూస:": 5679,
      "▁./श्रेणी:जानकारीबौक्स": 5680,
      "టెక్నాలజీ": 5681,
      "▁डॉलर": 5682,
      "\\_सहितक\\_पृष्ठसभ#": 5683,
      "0)": 5684,
      "6-0)": 5685,
      "95": 5686,
      "Kashmir": 5687,
      "gra": 5688,
      "mil": 5689,
      "mrit": 5690,
      "ple": 5691,
      "y_": 5692,
      "▁ed.).": 5693,
      "▁[National": 5694,
      "203": 5695,
      "2025": 5696,
      "▁sp": 5697,
      "▁Publishing": 5698,
      "identifiers": 5699,
      "▁Tamil": 5700,
      "▁Republic": 5701,
      "▁Ex": 5702,
      "ounci": 5703,
      "▁Himalay": 5704,
      "22-9": 5705,
      "imach": 5706,
      "709": 5707,
      "ext": 5708,
      "▁State": 5709,
      "unjabi": 5710,
      "▁People": 5711,
      "-4020": 5712,
      "akrishnan": 5713,
      "mritsar": 5714,
      "3–": 5715,
      "318": 5716,
      "IB": 5717,
      "St": 5718,
      "_J": 5719,
      "br": 5720,
      "business/": 5721,
      "ho": 5722,
      "ker": 5723,
      "lue": 5724,
      "nominal": 5725,
      "racy": 5726,
      "yam": 5727,
      "▁web": 5728,
      "▁36": 5729,
      "dives": 5730,
      "oram": 5731,
      "](https://www": 5732,
      "▁[c": 5733,
      "ances": 5734,
      "2021": 5735,
      "aldives": 5736,
      "estic": 5737,
      "2012": 5738,
      "asing": 5739,
      "states": 5740,
      "▁Asher": 5741,
      "los": 5742,
      "lowing": 5743,
      "urch": 5744,
      "253": 5745,
      "▁Before": 5746,
      "▁app": 5747,
      "duct": 5748,
      "-345": 5749,
      "▁Fund": 5750,
      "epartment": 5751,
      "otals": 5752,
      "rust": 5753,
      "ommonwealth": 5754,
      "anipur": 5755,
      "_GDP": 5756,
      "_East_Asia_Summit": 5757,
      "hya": 5758,
      "](https://en.wikipedia.org/wiki/Economy_of_": 5759,
      "ultural": 5760,
      "india.gov.in/india-glance": 5761,
      "▁Reg": 5762,
      "arliest": 5763,
      "▁country": 5764,
      "AARC_summit": 5765,
      "maputra": 5766,
      "▁Thomas": 5767,
      "▁York": 5768,
      "▁prime": 5769,
      "apita": 5770,
      "Uttarakhand": 5771,
      "rahmaputra": 5772,
      "flu": 5773,
      "Congress2004": 5774,
      "quality": 5775,
      "▁(India)\")": 5776,
      "rganization": 5777,
      "nominal)": 5778,
      "▁Asher,": 5779,
      "-an": 5780,
      "-50": 5781,
      "/files/": 5782,
      "1-3": 5783,
      "4,": 5784,
      "_0": 5785,
      "_24": 5786,
      "dlife": 5787,
      "uil": 5788,
      "ward": 5789,
      "y,": 5790,
      "▁:": 5791,
      "▁[U": 5792,
      "tes": 5793,
      "reed": 5794,
      "report": 5795,
      "cise": 5796,
      "▁Centre": 5797,
      "\"),[[": 5798,
      "▁bot": 5799,
      "▁P.": 5800,
      "terature": 5801,
      "its": 5802,
      "ildlife": 5803,
      "upta": 5804,
      "22.": 5805,
      "▁gre": 5806,
      "▁new": 5807,
      ".gov.in": 5808,
      "▁J.": 5809,
      "160": 5810,
      "▁2014.": 5811,
      "ecuri": 5812,
      "a_d": 5813,
      "▁life": 5814,
      "_Lank": 5815,
      "asia": 5816,
      "KulkeRothermund2004),": 5817,
      "pectancy": 5818,
      "-language\\_sources": 5819,
      "-language\\_sources\\_(": 5820,
      "-D": 5821,
      ".పూ.": 5822,
      "/g": 5823,
      "0&": 5824,
      "350": 5825,
      "418": 5826,
      "534": 5827,
      "Census": 5828,
      "Rowland": 5829,
      "S.": 5830,
      "Taj": 5831,
      "atp": 5832,
      "aury": 5833,
      "bhasha": 5834,
      "c/c": 5835,
      "ical": 5836,
      "kar": 5837,
      "lass": 5838,
      "mal": 5839,
      "operation": 5840,
      "s_of_India": 5841,
      "wat": 5842,
      "work": 5843,
      "ంతం": 5844,
      "ఆగ": 5845,
      "కళ": 5846,
      "ఖండ్": 5847,
      "గ్": 5848,
      "గిన": 5849,
      "గఢ్": 5850,
      "జో": 5851,
      "ట్ర": 5852,
      "తెలుగు": 5853,
      "ద్రా": 5854,
      "పద": 5855,
      "భి": 5856,
      "యో": 5857,
      "లక్ష": 5858,
      "వర": 5859,
      "శో": 5860,
      "షా": 5861,
      "హు": 5862,
      "హార్": 5863,
      "హాయ": 5864,
      "ాష్ట్ర": 5865,
      "ీక": 5866,
      "ీహార్": 5867,
      "ుల": 5868,
      "ుల్": 5869,
      "ోల్": 5870,
      "ోత్స": 5871,
      "ౌర్య": 5872,
      "▁his": 5873,
      "▁46": 5874,
      "▁end": 5875,
      "dish": 5876,
      "▁[హ": 5877,
      "▁\"హ": 5878,
      "▁\"ఢిల్లీ": 5879,
      "thnic": 5880,
      "ered": 5881,
      "](https://en.wikipedia.org/wiki/O": 5882,
      "](https://en.wikipedia.org/wiki/V": 5883,
      "్రూ": 5884,
      "rig": 5885,
      "](https://te.wikipedia.org/wiki/సి": 5886,
      "leg": 5887,
      "ాలా": 5888,
      "ాలలో": 5889,
      "్యం": 5890,
      "vel": 5891,
      "▁11": 5892,
      "ర్ణా": 5893,
      "ర్మే": 5894,
      "0000": 5895,
      "ists": 5896,
      "▁Tim": 5897,
      "▁River": 5898,
      "267": 5899,
      "2649": 5900,
      "లోక్‌సభ": 5901,
      "▁Dyson": 5902,
      "▁economy": 5903,
      "icon": 5904,
      "aylor": 5905,
      "▁వంశ": 5906,
      "cts": 5907,
      "2221": 5908,
      "force": 5909,
      "ండర్": 5910,
      "](https://en.wikipedia.org/wiki/India#CITEREFB": 5911,
      "▁Li": 5912,
      "త్మా": 5913,
      "▁non-": 5914,
      "overty": 5915,
      "asting": 5916,
      "]](https://en.wikipedia.org/wiki/India#cite_note-FOOTNOTEMetcalfMetcalf2006": 5917,
      "▁అతి": 5918,
      "utt": 5919,
      "ికి": 5920,
      "ద్దు": 5921,
      "▁రహదార": 5922,
      "మాచల్": 5923,
      "▁సామ్రాజ్య": 5924,
      "రువా": 5925,
      "రుణా": 5926,
      "rief": 5927,
      "న్నో": 5928,
      "_population": 5929,
      "మిజో": 5930,
      "▁ఇది": 5931,
      "exis": 5932,
      "Asher2006": 5933,
      "AsherAsher2006": 5934,
      "▁జరి": 5935,
      "rough": 5936,
      "▁విస్త": 5937,
      "_and_depend": 5938,
      "▁movement": 5939,
      "▁శతాబ్ద": 5940,
      "ట్టు": 5941,
      "▁tex": 5942,
      "రాష్ట్రాలు": 5943,
      "▁control": 5944,
      "▁addition": 5945,
      "వేద": 5946,
      "code": 5947,
      "▁రాజకీయ": 5948,
      "ovement": 5949,
      "ilitary": 5950,
      "ship": 5951,
      "హిమాచల్": 5952,
      "illenni": 5953,
      "హాత్మా": 5954,
      "230-345": 5955,
      "▁Islands](https://en.wikipedia.org/wiki/": 5956,
      "▁ప్రదేశ్\")": 5957,
      "హారాష్ట్ర": 5958,
      "శాస్త్ర": 5959,
      "▁Talbot,": 5960,
      "రాజస్థాన్": 5961,
      "▁వాతావరణ": 5962,
      "దినోత్స": 5963,
      "బెంగాలీ": 5964,
      "యన్మార్": 5965,
      "▁ముఖ్య": 5966,
      "_from": 5967,
      "achine": 5968,
      "ంజాబ్": 5969,
      "▁వ్యాస": 5970,
      "_Islands": 5971,
      "గుజరాత్": 5972,
      "ఆఫ్ఘనిస్తాన్": 5973,
      "న్‌ఫర్మే": 5974,
      "-107-02649": 5975,
      "Wolpert2003": 5976,
      "వ](https://te.wikipedia.org/wiki/List_of_": 5977,
      "రిహద్దు": 5978,
      "చ్చేరి": 5979,
      "Rowland1970": 5980,
      "ర్ణాటక": 5981,
      "▁Dyson,": 5982,
      "రుణాచల్": 5983,
      "230-34549-2": 5984,
      "న్‌ఫర్మేషన్": 5985,
      "-107-02649-0": 5986,
      "%)": 5987,
      "-se": 5988,
      "2)[[": 5989,
      "3-8": 5990,
      "577": 5991,
      "7).": 5992,
      "=`": 5993,
      "Suk": 5994,
      "Ze": 5995,
      "_यु": 5996,
      "ethnologue": 5997,
      "hra": 5998,
      "ime": 5999,
      "ns": 6000,
      "var": 6001,
      "ंजन": 6002,
      "आर": 6003,
      "एम": 6004,
      "क\")": 6005,
      "चार": 6006,
      "जल": 6007,
      "तमान": 6008,
      "त\\_मापदण्ड": 6009,
      "थाली": 6010,
      "द्रा": 6011,
      "धर्": 6012,
      "नि": 6013,
      "नो": 6014,
      "पूर्ण": 6015,
      "फगान": 6016,
      "बन": 6017,
      "मस": 6018,
      "मिर": 6019,
      "मूल": 6020,
      "यपालिका": 6021,
      "र-": 6022,
      "ल्ड": 6023,
      "विक": 6024,
      "शक्ति": 6025,
      "सर": 6026,
      "हू": 6027,
      "िरा": 6028,
      "िंह": 6029,
      "ीकरण": 6030,
      "ूनाइटेड": 6031,
      "ेय": 6032,
      "ोत्तर": 6033,
      "ोडिया": 6034,
      "२.": 6035,
      "–120": 6036,
      "▁७": 6037,
      "▁ता": 6038,
      "▁ईस्ट": 6039,
      "▁धीरे": 6040,
      "▁[ए": 6041,
      "▁[ख": 6042,
      "▁[राष्ट्रीय": 6043,
      "▁[चीन": 6044,
      "▁[लोक": 6045,
      "▁[राजस्थान": 6046,
      "▁[दिल्ली](https://hi.wikipedia.org/wiki/": 6047,
      "▁\"श": 6048,
      "▁\"वि": 6049,
      "▁\"पु": 6050,
      "▁\"ची": 6051,
      "▁\"का": 6052,
      "▁\"दिल्ल": 6053,
      "▁\"विश्व": 6054,
      "▁\"गुजरात": 6055,
      "▁\"राजस्थान": 6056,
      "\")\"": 6057,
      "him": 6058,
      "on,": 6059,
      "▁कह": 6060,
      "▁क्रम": 6061,
      "](https://hi.wikipedia.org/wiki/ड": 6062,
      "](https://hi.wikipedia.org/wiki/वि": 6063,
      "](https://hi.wikipedia.org/wiki/प्र": 6064,
      "](https://hi.wikipedia.org/wiki/गुजरात": 6065,
      "](https://hi.wikipedia.org/wiki/राजस्थान": 6066,
      "्रिस": 6067,
      "▁सँ": 6068,
      "▁सश": 6069,
      "▁समा": 6070,
      "▁समान": 6071,
      "▁सल्तनत": 6072,
      "official": 6073,
      "▁महा": 6074,
      "▁मंत्र": 6075,
      "▁मिला": 6076,
      "्यु": 6077,
      "्यपालिका": 6078,
      "▁पहा": 6079,
      "ानी": 6080,
      "ानून": 6081,
      "▁हिल": 6082,
      "▁India*.": 6083,
      "िकता": 6084,
      "िकेट": 6085,
      "▁अभी": 6086,
      "▁अभिय": 6087,
      "ाली](https://hi.wikipedia.org/wiki/": 6088,
      "्षिक": 6089,
      "▁जै": 6090,
      "▁जिन्": 6091,
      "▁दिवस": 6092,
      "ेशिया\")": 6093,
      "_केंद्र": 6094,
      "▁बल": 6095,
      "▁बि": 6096,
      "▁बौद्ध": 6097,
      "▁बैंक": 6098,
      "ंगड": 6099,
      "ंगल": 6100,
      "ंगीत": 6101,
      "ला\")": 6102,
      "▁प्रशास": 6103,
      "▁नगर": 6104,
      "▁से](https://": 6105,
      "_सु": 6106,
      "_स्": 6107,
      "onsoon": 6108,
      "▁आप": 6109,
      "▁आंदोल": 6110,
      "ource": 6111,
      "पुत्र": 6112,
      "▁ती": 6113,
      "▁तो": 6114,
      "▁तुल": 6115,
      "▁तीस": 6116,
      "स्‍": 6117,
      "स्चेंज": 6118,
      "▁गति": 6119,
      "▁Day": 6120,
      "ड़िशा": 6121,
      "▁उस": 6122,
      "▁उद्योग": 6123,
      "▁संयुक्त": 6124,
      "▁संस्कृत": 6125,
      "्याचल": 6126,
      "]](https://hi.wikipedia.org/wiki/भारत#cite_note-Combined": 6127,
      "त्ता": 6128,
      "▁human": 6129,
      "ी](https://hi.wikipedia.org/wiki/न": 6130,
      "▁भाषाएं": 6131,
      "▁[\"P": 6132,
      "▁\"मुंबई": 6133,
      "ंडल": 6134,
      "पांड": 6135,
      "▁For": 6136,
      "कार्यपालिका": 6137,
      "▁Languages": 6138,
      "मी2": 6139,
      "▁[↑](https://hi.wikipedia.org/wiki/भारत#cite_ref-Combined": 6140,
      "द्वित": 6141,
      "▁Indus": 6142,
      "्राम": 6143,
      "वाँ": 6144,
      "▁१५": 6145,
      "▁पुलिस": 6146,
      "ंदर": 6147,
      "▁प्रदेश](https://hi.wikipedia.org/wiki/मध्य": 6148,
      "त्न": 6149,
      "▁\"पूर्वी": 6150,
      "▁वर्ण": 6151,
      "▁वर्तमान": 6152,
      "िवास": 6153,
      "▁Asia:": 6154,
      "फ़िल": 6155,
      "](https://hi.wikipedia.org/wiki/ब्रिटिश": 6156,
      "▁हिस्": 6157,
      "▁हिमालय": 6158,
      "गणतंत्र": 6159,
      "aries": 6160,
      "atis": 6161,
      "%E0%A5%": 6162,
      "▁[उर्दू": 6163,
      "▁किया।": 6164,
      "सभ\\_सहितक\\_पृष्ठसभ#": 6165,
      "▁गया।[[": 6166,
      "▁\"उर्दू": 6167,
      "स्थाप": 6168,
      "▁CITEREFKulkeRothermund2004": 6169,
      "▁१९८": 6170,
      "आई.": 6171,
      "html).": 6172,
      "्वरूप": 6173,
      "](https://hi.wikipedia.org/wiki/उर्दू": 6174,
      "वर्ल्ड": 6175,
      "ूचना-विज्ञान": 6176,
      "▁पूर्वी": 6177,
      "▁अपना": 6178,
      "▁[↑](https://hi.wikipedia.org/wiki/भारत#cite_ref-FOOTNOTEStein1998": 6179,
      "▁माध्यम": 6180,
      "ड़ीसा": 6181,
      "▁बहुमत": 6182,
      "▁रहल": 6183,
      "िस्तान\")": 6184,
      "▁निर्भर": 6185,
      "risti": 6186,
      "कल_घ": 6187,
      "▁धरोहर": 6188,
      "▁सुधार": 6189,
      "](https://mai.wikipedia.org/wiki/भारतक": 6190,
      "▁थी।": 6191,
      "▁Short": 6192,
      "▁इतिहास\")": 6193,
      "भरत": 6194,
      "▁संगीत": 6195,
      "हायक": 6196,
      "ज्ञात\\_मापदण्ड": 6197,
      "urrent": 6198,
      "▁शांति": 6199,
      "_एवं": 6200,
      "कटिबंधीय": 6201,
      "▁नीति": 6202,
      "▁वार्षिक": 6203,
      "ीपी)": 6204,
      "pringer": 6205,
      ".php?": 6206,
      "▁ऑफ": 6207,
      "रेलू_उत्पाद": 6208,
      "वासी": 6209,
      "attle": 6210,
      "▁अनुसंधान": 6211,
      "▁लेकर": 6212,
      "▁सूचना-विज्ञान": 6213,
      "\\_अज्ञात\\_मापदण्ड": 6214,
      "▁२०११": 6215,
      "इप्रस": 6216,
      "▁मौसम": 6217,
      "▁विस्तृत": 6218,
      "ष्णकटिबंधीय": 6219,
      "_map_en": 6220,
      "ilgrim": 6221,
      "▁लाख": 6222,
      "itzel": 6223,
      "\\_कड़ियाँ": 6224,
      "▁अमेरिका": 6225,
      "_सेना": 6226,
      "एसियाक": 6227,
      "िन्धु-गंगा": 6228,
      "_तथा": 6229,
      "▁`|": 6230,
      "▁पहुँच": 6231,
      "▁हालाँकि": 6232,
      "भूटान": 6233,
      "▁दृष्टि": 6234,
      "▁[भारत](https://hi.wikipedia.org/wiki/भारत)": 6235,
      "_पार्टी": 6236,
      "\\_देशमे\\_अज्ञात\\_मापदण्ड": 6237,
      "▁2004](https://hi.wikipedia.org/wiki/भारत#CITEREFKulkeRothermund2004),": 6238,
      "▁./श्रेणी:जानकारीबौक्स\\_देशमे\\_अज्ञात\\_मापदण्ड": 6239,
      "ethnologue.com/": 6240,
      "मूल्य": 6241,
      "▁[राजस्थान](https://hi.wikipedia.org/wiki/राजस्थान": 6242,
      "▁\"दिल्ली\")": 6243,
      "▁\"राजस्थान\")": 6244,
      "्रिसमस": 6245,
      "▁हिल्स": 6246,
      "▁तुलना": 6247,
      "▁प्रदेश](https://hi.wikipedia.org/wiki/मध्य_प्रदेश": 6248,
      "▁[उर्दू](https://hi.wikipedia.org/wiki/उर्दू": 6249,
      "कल_घरेलू_उत्पाद": 6250,
      "▁./श्रेणी:जानकारीबौक्स\\_देशमे\\_अज्ञात\\_मापदण्डसभ\\_सहितक\\_पृष्ठसभ#": 6251,
      "-news/": 6252,
      ".uk": 6253,
      "1-4": 6254,
      "9/": 6255,
      "AG": 6256,
      "C)": 6257,
      "European": 6258,
      "Mumbai": 6259,
      "ading": 6260,
      "ez": 6261,
      "lurton": 6262,
      "nc": 6263,
      "que": 6264,
      "tation": 6265,
      "udu": 6266,
      "uted": 6267,
      "▁ur": 6268,
      "▁Har": 6269,
      "din": 6270,
      "disp": 6271,
      "](https://id": 6272,
      "en:": 6273,
      "ency": 6274,
      "infob": 6275,
      "onom": 6276,
      "alli": 6277,
      "▁them": 6278,
      "▁India](https://en.wikipedia.org/wiki/G": 6279,
      "\\_country": 6280,
      "▁influ": 6281,
      "▁pre": 6282,
      "▁painting": 6283,
      "▁Cather": 6284,
      "ide": 6285,
      "adhya": 6286,
      "▁S.": 6287,
      "▁summit": 6288,
      "loc": 6289,
      "maint:": 6290,
      "▁billion": 6291,
      "FOOTNOTENational_Informatics_Centre2005": 6292,
      "▁2012.": 6293,
      "cherry": 6294,
      "ravi": 6295,
      "rote": 6296,
      "▁Territory": 6297,
      "▁western": 6298,
      "10)": 6299,
      "oloni": 6300,
      "▁eastern": 6301,
      "▁employ": 6302,
      "ict": 6303,
      "icob": 6304,
      "▁2007.": 6305,
      "115": 6306,
      "ly,": 6307,
      "opland": 6308,
      "_Act": 6309,
      "abh": 6310,
      "ability": 6311,
      "▁Lank": 6312,
      "▁des": 6313,
      "apan": 6314,
      "▁Kingdom": 6315,
      "key": 6316,
      "▁[↑](https://en.wikipedia.org/wiki/India#cite_ref-FOOTNOTEMetcalfMetcalf2006": 6317,
      "overnment_of_India": 6318,
      "▁disc": 6319,
      "▁31": 6320,
      "▁exp": 6321,
      "▁maint:": 6322,
      "html)": 6323,
      "ikkim": 6324,
      "▁\"Re": 6325,
      "▁\"Indo-": 6326,
      "PPP": 6327,
      "▁contrib": 6328,
      "](https://en.wikipedia.org/wiki/List_of_countries_by": 6329,
      "-largest": 6330,
      "rishna": 6331,
      "utes": 6332,
      "%7C": 6333,
      "%7c": 6334,
      "IMFWEO.IN-": 6335,
      "_election": 6336,
      "general_election": 6337,
      "volution": 6338,
      "_Indian_general_election": 6339,
      "Wikipedia\\_articles": 6340,
      "cogni": 6341,
      "cording": 6342,
      "illennium": 6343,
      "uducherry": 6344,
      "infobox": 6345,
      "▁Catherine": 6346,
      "\"](https://web.archive.org/web/20": 6347,
      "/India": 6348,
      "At": 6349,
      "CH": 6350,
      "Front": 6351,
      "GDP": 6352,
      "Raj": 6353,
      "_38": 6354,
      "ek": 6355,
      "ues": 6356,
      "▁United": 6357,
      "▁Qu": 6358,
      "en,": 6359,
      "anchi": 6360,
      "ties/": 6361,
      "arsh": 6362,
      "alam": 6363,
      "rest": 6364,
      "197": 6365,
      "ager": 6366,
      "lock": 6367,
      "urry": 6368,
      "umeration": 6369,
      "26.": 6370,
      "269,": 6371,
      "24.": 6372,
      "▁1962": 6373,
      "287,": 6374,
      "upreme": 6375,
      "508": 6376,
      "-85": 6377,
      "-459": 6378,
      "▁name": 6379,
      "onstitutional": 6380,
      "alayalam": 6381,
      "▁sector": 6382,
      "f/f": 6383,
      "▁3,287,": 6384,
      "▁(1,269,": 6385,
      "▁Plateau": 6386,
      "▁religious": 6387,
      "uthority": 6388,
      "reedom": 6389,
      "-language\\_sources\\_(en": 6390,
      "ristian": 6391,
      "*](https://web.archive.org/web/200": 6392,
      "-the": 6393,
      "1200": 6394,
      "2]](https://en.wikipedia.org/wiki/India#cite_note-": 6395,
      "9]](https://en.wikipedia.org/wiki/India#cite_note-": 6396,
      "B0%": 6397,
      "KI": 6398,
      "SAARC_summit": 6399,
      "ax": 6400,
      "ault": 6401,
      "dar": 6402,
      "ece": 6403,
      "hag": 6404,
      "iz": 6405,
      "lal": 6406,
      "late": 6407,
      "m2": 6408,
      "oard": 6409,
      "s:": 6410,
      "tw": 6411,
      "vent": 6412,
      "ంతి": 6413,
      "కాల": 6414,
      "కారం": 6415,
      "ఖ్": 6416,
      "గంగా": 6417,
      "టో": 6418,
      "డిన": 6419,
      "తీ": 6420,
      "ధి": 6421,
      "ధించ": 6422,
      "నల్": 6423,
      "మన": 6424,
      "మర": 6425,
      "ర్యా": 6426,
      "లం": 6427,
      "లతో": 6428,
      "లమె": 6429,
      "ీస్": 6430,
      "ూప": 6431,
      "ూరు": 6432,
      "ెనీ": 6433,
      "ౌక": 6434,
      "▁z": 6435,
      "▁ద": 6436,
      "▁ఫ": 6437,
      "▁50": 6438,
      "▁im": 6439,
      "▁దక్షిణ": 6440,
      "▁హిందూ": 6441,
      "▁గాంధీ": 6442,
      ".wikidata": 6443,
      ".org/wiki/Q": 6444,
      "▁[భారతదేశం": 6445,
      "▁[ఢిల్లీ": 6446,
      "▁\"U": 6447,
      "arty": 6448,
      "esti": 6449,
      "▁(199": 6450,
      "thehindu": 6451,
      "ారస": 6452,
      "ootb": 6453,
      "\\_or": 6454,
      "\\_cont": 6455,
      "\\_identifiers": 6456,
      "ederal": 6457,
      "atab": 6458,
      "▁Cyn": 6459,
      "ాలను": 6460,
      "adh": 6461,
      "adwe": 6462,
      "స్](https://te.wikipedia.org/wiki/": 6463,
      "▁14.": 6464,
      "▁border": 6465,
      "▁పెద్ద": 6466,
      "▁far": 6467,
      "ర్లు": 6468,
      "ver,": 6469,
      "raz": 6470,
      "00–సా.శ.పూ.": 6471,
      "▁women": 6472,
      "లు\")": 6473,
      "unknown": 6474,
      "238": 6475,
      "type": 6476,
      "ంది": 6477,
      "▁వే": 6478,
      "architecture": 6479,
      "upt": 6480,
      "_industry": 6481,
      "▁Gu": 6482,
      "▁November": 6483,
      "▁Nehru": 6484,
      "▁res": 6485,
      "▁regions": 6486,
      "_Ass": 6487,
      "_Affairs": 6488,
      ".[[3": 6489,
      "త్తం": 6490,
      "▁forest": 6491,
      "▁(సా.శ.13": 6492,
      "▁(సా.శ.15": 6493,
      "▁dom": 6494,
      "ountries": 6495,
      "▁అనే": 6496,
      "▁ప్రజ": 6497,
      "తం\")": 6498,
      "aves": 6499,
      "hina": 6500,
      "▁\"Ch": 6501,
      "ంచి": 6502,
      "_Data": 6503,
      "▁[Chin": 6504,
      "▁ఆఫ్": 6505,
      "undament": 6506,
      "▁సాం": 6507,
      "▁[Ministry": 6508,
      "48)": 6509,
      "ార్లమె": 6510,
      "_Navy": 6511,
      "▁\"British": 6512,
      "gional": 6513,
      "కిస్థాన్": 6514,
      "_Re": 6515,
      "▁నే": 6516,
      "▁నగర": 6517,
      "▁ext": 6518,
      "▁[978-0-521": 6519,
      "▁[978-0-521-80904-7": 6520,
      "ాయి.": 6521,
      "hmed": 6522,
      "టిబె": 6523,
      "▁[Government": 6524,
      "్రీ.పూ.": 6525,
      "853": 6526,
      "ండియా": 6527,
      "▁produc": 6528,
      "ahal": 6529,
      "▁ఎక్కువ": 6530,
      "▁ఎన్నో": 6531,
      "awahar": 6532,
      "ashmiri": 6533,
      "▁technology": 6534,
      "▁[![A": 6535,
      "▁Hinduism": 6536,
      "▁./వర్గం:Wikipedia\\_articles": 6537,
      "ranci": 6538,
      "▁second": 6539,
      "_సం": 6540,
      "on-Ali": 6541,
      "](https://en.wikipedia.org/wiki/List_of_SAARC_summit": 6542,
      "ారు.\n": 6543,
      "bi.n": 6544,
      "టుంబ": 6545,
      "▁భారత్": 6546,
      "kingdom": 6547,
      "jection": 6548,
      "మెరి": 6549,
      "▁మొత్తం": 6550,
      "eserve": 6551,
      "-of-india-": 6552,
      "బాద్": 6553,
      "ంపెనీ": 6554,
      "4/4": 6555,
      "హ్మ": 6556,
      "▁relations": 6557,
      "thia": 6558,
      "▁ఏర్": 6559,
      "olkata": 6560,
      "▁Environmental": 6561,
      "akshadwe": 6562,
      "్రిటిషు": 6563,
      "_BRICS_summit": 6564,
      "▁Persian": 6565,
      "▁Europe*](https://books.google.com/books?id=": 6566,
      "_Air_Force": 6567,
      "Provision": 6568,
      "lm.ni": 6569,
      "overeign": 6570,
      "▁అత్యధిక": 6571,
      "fghanistan": 6572,
      "hattisgarh": 6573,
      "ీర్ణ": 6574,
      "దక్షిణ_ఆసియా": 6575,
      "](https://www.wikidata": 6576,
      "_GDP_(": 6577,
      "ncbi.n": 6578,
      "▁summits\")": 6579,
      "icobar": 6580,
      "ootball": 6581,
      "\\_contain": 6582,
      "▁Cynthia": 6583,
      "awaharlal": 6584,
      "on-Aligned": 6585,
      "](https://en.wikipedia.org/wiki/List_of_SAARC_summits": 6586,
      "akshadweep": 6587,
      "lm.nih": 6588,
      "](https://www.wikidata.org/wiki/Q": 6589,
      "ncbi.nlm.nih": 6590,
      "-n": 6591,
      "/national": 6592,
      "2)\n": 6593,
      "fli": 6594,
      "g)": 6595,
      "here": 6596,
      "most": 6597,
      "o.": 6598,
      "ption": 6599,
      "sch": 6600,
      "▁<": 6601,
      "20.": 6602,
      "arendra": 6603,
      "of\\_": 6604,
      "ries/": 6605,
      "\\_of\\_": 6606,
      "▁prom": 6607,
      "▁Central": 6608,
      "▁Century": 6609,
      "stor": 6610,
      "=1&": 6611,
      "▁Tw": 6612,
      "▁1971": 6613,
      "▁2001": 6614,
      "▁only": 6615,
      "▁near": 6616,
      ".gov.": 6617,
      "▁Ocean": 6618,
      "countries/": 6619,
      "-symbols": 6620,
      "▁Urdu": 6621,
      "▁use": 6622,
      "text": 6623,
      "ripura": 6624,
      "documents/": 6625,
      "▁estimate": 6626,
      "ouncil": 6627,
      "ecurity": 6628,
      "/national-symbols": 6629,
      "%3": 6630,
      "-कार": 6631,
      ".\")\n": 6632,
      ".](https://upload.wikimedia.org/wikipedia/commons/thumb/": 6633,
      ".1.": 6634,
      "1]](https://hi.wikipedia.org/wiki/भारत#cite_note-": 6635,
      "130": 6636,
      "4]](https://en.wikipedia.org/wiki/India#cite_note-": 6637,
      "5.pdf)": 6638,
      "51)": 6639,
      "6]](https://en.wikipedia.org/wiki/India#cite_note-FOOTNOTE": 6640,
      "674": 6641,
      "MC": 6642,
      "MID": 6643,
      "Ministry_of_": 6644,
      "Young": 6645,
      "_-": 6646,
      "_ध": 6647,
      "_य": 6648,
      "_di": 6649,
      "_वि": 6650,
      "_mons": 6651,
      "_जन": 6652,
      "_शासित": 6653,
      "_द्वीप": 6654,
      "aul": 6655,
      "ait": 6656,
      "casting": 6657,
      "eld": 6658,
      "ham": 6659,
      "hang": 6660,
      "hdr": 6661,
      "ies": 6662,
      "ia\")": 6663,
      "jpg": 6664,
      "lood": 6665,
      "mir": 6666,
      "ncient": 6667,
      "pture": 6668,
      "round": 6669,
      "s\").": 6670,
      "s_in_India": 6671,
      "t,": 6672,
      "ंची": 6673,
      "ंज़": 6674,
      "ंमार": 6675,
      "अतुल्य": 6676,
      "इतिहास": 6677,
      "उद्यान": 6678,
      "ऋग्व": 6679,
      "ओआई": 6680,
      "कु": 6681,
      "क्रम": 6682,
      "कृष्ण": 6683,
      "ख्": 6684,
      "घा": 6685,
      "जवा": 6686,
      "ञ्": 6687,
      "टन": 6688,
      "टा": 6689,
      "ठा": 6690,
      "ठार": 6691,
      "णे": 6692,
      "तः": 6693,
      "तार": 6694,
      "थुरा": 6695,
      "दी_": 6696,
      "दून": 6697,
      "धता": 6698,
      "धोला": 6699,
      "नै": 6700,
      "नजं": 6701,
      "निवेश": 6702,
      "पिय": 6703,
      "पीप": 6704,
      "फिल": 6705,
      "बे": 6706,
      "बलि": 6707,
      "भ्स": 6708,
      "भुट": 6709,
      "मय": 6710,
      "मोर": 6711,
      "यण": 6712,
      "रत": 6713,
      "ल-": 6714,
      "लक": 6715,
      "लिया": 6716,
      "ल्ल": 6717,
      "लेशिया": 6718,
      "वर": 6719,
      "व\")": 6720,
      "वरा": 6721,
      "वरण": 6722,
      "शहरा": 6723,
      "सित": 6724,
      "़तर": 6725,
      "ाई": 6726,
      "ाग": 6727,
      "ाबा": 6728,
      "िच": 6729,
      "ीर": 6730,
      "ी](https://mai.wikipedia.org/wiki/": 6731,
      "ेज": 6732,
      "ेहरा": 6733,
      "ैम्ब": 6734,
      "ोज": 6735,
      "ोढ़": 6736,
      "ोसी": 6737,
      "ोटे": 6738,
      "ोवियत": 6739,
      "्मार": 6740,
      "०,": 6741,
      "२०१": 6742,
      "४०": 6743,
      "▁झ": 6744,
      "▁ढ": 6745,
      "▁६": 6746,
      "▁८": 6747,
      "▁low": 6748,
      "▁भाजपा": 6749,
      "kid=": 6750,
      "ors": 6751,
      "http://": 6752,
      "▁[f": 6753,
      "▁[का": 6754,
      "▁[धर्म": 6755,
      "▁[World": 6756,
      "▁[विश्व": 6757,
      "▁\"ख": 6758,
      "▁\"हैदराबाद": 6759,
      "indo": 6760,
      "hili": 6761,
      "ारा": 6762,
      "ारनाथ": 6763,
      "▁क्रांति": 6764,
      "▁कंपन": 6765,
      "](https://hi.wikipedia.org/wiki/श": 6766,
      "](https://hi.wikipedia.org/wiki/पु": 6767,
      "](https://hi.wikipedia.org/wiki/का": 6768,
      "](https://hi.wikipedia.org/wiki/सा": 6769,
      "](https://hi.wikipedia.org/wiki/चीन": 6770,
      "](https://hi.wikipedia.org/wiki/विश्व": 6771,
      "](https://hi.wikipedia.org/wiki/राष्ट्रीय_स": 6772,
      "्रिज": 6773,
      "arlo": 6774,
      "araj": 6775,
      "th_BRICS_summit": 6776,
      "aland": 6777,
      "alit": 6778,
      "India.pdf)": 6779,
      "release.aspx?reli": 6780,
      "भारत_के_राज्य": 6781,
      "▁सन्": 6782,
      "▁सर्वोच्च": 6783,
      "▁सहायक": 6784,
      "▁माना": 6785,
      "▁महारजिस्ट्रार": 6786,
      "▁(अ": 6787,
      "▁(19": 6788,
      "▁(अभिज्ञापक": 6789,
      "thema": 6790,
      "रान": 6791,
      "रामा": 6792,
      "▁पू": 6793,
      "▁पत्र": 6794,
      "▁पब्ल": 6795,
      "▁परीक्षण": 6796,
      "ानक": 6797,
      "ानेर-": 6798,
      "rime": 6799,
      "outheast": 6800,
      "▁हव": 6801,
      "19)": 6802,
      "यास": 6803,
      "▁India.[[": 6804,
      "िकेश": 6805,
      "िकास": 6806,
      "िकोब": 6807,
      "-05": 6808,
      "▁अब": 6809,
      "▁अमीरात": 6810,
      "▁अलावा": 6811,
      "ating": 6812,
      "atch": 6813,
      "▁में).": 6814,
      "▁Civil": 6815,
      "agran": 6816,
      "ों_और": 6817,
      "[[15": 6818,
      "▁जाना": 6819,
      "▁जीत": 6820,
      "▁जहाँ": 6821,
      "▁Affairs": 6822,
      "▁दर्": 6823,
      "▁caus": 6824,
      "▁class": 6825,
      "▁sq": 6826,
      "त्रुट": 6827,
      "▁tree": 6828,
      "linkid=": 6829,
      "loth": 6830,
      "▁बह": 6831,
      "▁ब्यूरो": 6832,
      "ंगला": 6833,
      "ंगोल": 6834,
      "▁प्रत्य": 6835,
      "▁प्रयास": 6836,
      "तिरु": 6837,
      "▁की।": 6838,
      "▁निर": 6839,
      "▁Puran": 6840,
      "ताम": 6841,
      "▁found": 6842,
      "_सभा": 6843,
      "_स्व": 6844,
      "ular": 6845,
      "_of_2011": 6846,
      "स्तिकता": 6847,
      "▁वीं": 6848,
      "▁वाला": 6849,
      "▁आज": 6850,
      "▁आया": 6851,
      "▁आयुक्त": 6852,
      "▁आदि": 6853,
      "▁M.": 6854,
      "▁Man": 6855,
      "▁This": 6856,
      "ास्": 6857,
      "▁Research": 6858,
      "▁तीन": 6859,
      "स्थल": 6860,
      "1017": 6861,
      "_(अभिज्ञापक": 6862,
      "23.": 6863,
      "माख्या": 6864,
      "▁गान": 6865,
      "▁उन्": 6866,
      "▁उच्च": 6867,
      "▁पर्यटन\")": 6868,
      "_Sindo": 6869,
      "▁[मराठ": 6870,
      "_मु": 6871,
      "नेई": 6872,
      "िलों": 6873,
      "_केन्द्र": 6874,
      "म्न": 6875,
      "लेस": 6876,
      "लेबन": 6877,
      "▁विषय": 6878,
      "▁विभाजन": 6879,
      "▁विभिन्न": 6880,
      "्यांमार": 6881,
      "संस्कृत": 6882,
      "ियम": 6883,
      "▁Health": 6884,
      "▁रु": 6885,
      "oples": 6886,
      "▁Ge": 6887,
      "▁house": 6888,
      "_1.1.": 6889,
      "_1_of_2011": 6890,
      "▁[\"G": 6891,
      "िसी": 6892,
      "▁साम": 6893,
      "▁साहित्य": 6894,
      "▁साक्षरता": 6895,
      "पावा": 6896,
      "पाषाण": 6897,
      "मनिरपेक्ष": 6898,
      "semb": 6899,
      "हाई": 6900,
      "_of_India.svg": 6901,
      "_Paper": 6902,
      "किर्ग": 6903,
      "हिन्द_महासागर": 6904,
      "मीन": 6905,
      "द्दाख": 6906,
      "▁करते": 6907,
      "▁Increase": 6908,
      "▁अनुस": 6909,
      "](https://hi.wikipedia.org/wiki/महा": 6910,
      "▁१२": 6911,
      "▁१३": 6912,
      "▁१८": 6913,
      "a](https://en.wikipedia.org/wiki/G": 6914,
      "emographic": 6915,
      "▁\"सिक्किम": 6916,
      "▁[सिक्किम": 6917,
      "ंदिरा": 6918,
      "ंत्रिक": 6919,
      "1.asp?": 6920,
      "▁these": 6921,
      "ibcode": 6922,
      "जनपद": 6923,
      "-5196": 6924,
      "_Missile": 6925,
      "▁\"बांग्ला": 6926,
      "नीताल": 6927,
      "▁खास": 6928,
      "_Totals": 6929,
      "द्यनाथ": 6930,
      "त्स": 6931,
      "▁चल": 6932,
      "▁[बांग्ला": 6933,
      "▁[↑](https://en.wikipedia.org/wiki/India#cite_ref-FOOTNOTEB": 6934,
      "▁dec": 6935,
      "▁def": 6936,
      "▁development": 6937,
      "2011religion": 6938,
      "तीस": 6939,
      "म्बन्ध": 6940,
      "▁[British": 6941,
      "▁Press](https://en.wikipedia.org/wiki/C": 6942,
      "opulation_Totals": 6943,
      "](https://hi.wikipedia.org/wiki/सिक्किम": 6944,
      "%2C_India": 6945,
      "▁इसकी": 6946,
      "िवार": 6947,
      "र्थन": 6948,
      "ोकोस": 6949,
      "▁समर्थन": 6950,
      "रबै": 6951,
      "▁सूची\"))": 6952,
      "_River": 6953,
      "फ़्रीका": 6954,
      "मिलन": 6955,
      "](https://hi.wikipedia.org/wiki/बांग्ला": 6956,
      "▁language\"),": 6957,
      "ष्ठ": 6958,
      "▁[पश्चिम": 6959,
      "हुमूल्य": 6960,
      "▁२००": 6961,
      "o-operation": 6962,
      "जीवन": 6963,
      "▁किया।[[": 6964,
      "▁\"Government": 6965,
      "वनेश्वर": 6966,
      "वनवर्ल्ड": 6967,
      "सभक": 6968,
      "](https://hi.wikipedia.org/wiki/भारत_का": 6969,
      "▁मानचित्र": 6970,
      "▁१९६": 6971,
      "▁१९७": 6972,
      "▁[Dyson": 6973,
      "▁1994": 6974,
      "▁mathema": 6975,
      "ikhism": 6976,
      "च्चे": 6977,
      "दाय": 6978,
      "दाबाद": 6979,
      "▁संघर्ष": 6980,
      "assam": 6981,
      "ोर्नो": 6982,
      "_संविधान": 6983,
      "emplate_": 6984,
      "anta": 6985,
      "०००": 6986,
      "mblem": 6987,
      "ंपनी": 6988,
      "ंपानेर-": 6989,
      "रक्षित": 6990,
      "▁[हिन्दू": 6991,
      "uring_O": 6992,
      "_by_Indian": 6993,
      "ार्श": 6994,
      "_अन": 6995,
      "▁मुर्मू": 6996,
      "▁मुस्लिम": 6997,
      "▁[↑](https://hi.wikipedia.org/wiki/भारत#cite_ref-FOOTNOTESingh2009": 6998,
      "_क्षेत्र?action=edit&redlink=1": 6999,
      "▁languages\")": 7000,
      "राष्ट्रपति](https://hi.wikipedia.org/wiki/भारत_के_": 7001,
      "▁when": 7002,
      "चेरी": 7003,
      "ैकमिलन": 7004,
      "▁भूगोल": 7005,
      "डीओआई": 7006,
      "वैद्यनाथ": 7007,
      "णिपुर": 7008,
      "पी.": 7009,
      "uisine": 7010,
      "](https://en.wikipedia.org/wiki/Indo-": 7011,
      "ल्प": 7012,
      "ल्पा": 7013,
      "ociation": 7014,
      "गोलशा": 7015,
      "देवनाग": 7016,
      "▁[*An": 7017,
      "odiversity": 7018,
      "▁देखा": 7019,
      "▁संविधान\")": 7020,
      "ligious": 7021,
      "▁Programme": 7022,
      "▁Islands\")": 7023,
      "वीरा": 7024,
      "](https://hi.wikipedia.org/wiki/संयुक्त": 7025,
      "%E0%A4%BE": 7026,
      "▁Chinese": 7027,
      "-17feb": 7028,
      "ंटर": 7029,
      "ंटार्कटिका": 7030,
      "ामित्व": 7031,
      "ोमाल": 7032,
      "ौर्य": 7033,
      "▁जलोढ़": 7034,
      "gypt": 7035,
      "▁composed": 7036,
      "nclm.nic.in/index": 7037,
      "phere": 7038,
      "▁\"जम्मू": 7039,
      "ताजिक": 7040,
      "▁कार्यालय": 7041,
      "तेलुगु": 7042,
      "ighth": 7043,
      "▁along": 7044,
      "भोपाल": 7045,
      "▁बनाने": 7046,
      "▁km2": 7047,
      "▁wide": 7048,
      "ondon": 7049,
      "▁होते": 7050,
      "▁नदियाँ": 7051,
      "▁स्रोत/978-0-521-80904-7": 7052,
      "](https://hi.wikipedia.org/wiki/विशेष:पुस्तक_स्रोत/978-0-521-80904-7": 7053,
      "▁भूमि": 7054,
      "_विकास": 7055,
      "ंचनजं": 7056,
      "ैथिली": 7057,
      "▁सभा\")": 7058,
      "▁द्वीपसमूह": 7059,
      "▁राजनीति": 7060,
      "▁\"पंजाबी": 7061,
      "azet": 7062,
      "gni_Missile": 7063,
      "119–120": 7064,
      "्यानमार": 7065,
      "्यान्मार": 7066,
      "▁जीवन": 7067,
      "place": 7068,
      "resident_of_India": 7069,
      "दिभ्स": 7070,
      "धनता": 7071,
      "धाकृष्ण": 7072,
      "\\_अंग्रेज़ी": 7073,
      "▁व्यक्ति": 7074,
      "▁गुफाएं": 7075,
      "▁स्थापना": 7076,
      "inghamYoung": 7077,
      "जंता": 7078,
      "भुवनेश्वर": 7079,
      "्मपुत्र": 7080,
      "▁राज्यक्षेत्र\")": 7081,
      "▁राजधानी": 7082,
      "▁Arab": 7083,
      "मरीका": 7084,
      "िर्धनता": 7085,
      "▁औसत": 7086,
      "ennai": 7087,
      "ाल्दिभ्स": 7088,
      "भाषी": 7089,
      "आईएसएस": 7090,
      "ताजमहल": 7091,
      "arnatic": 7092,
      "al_Population_Totals": 7093,
      "▁(2006),": 7094,
      "economictimes.indiatimes.com/": 7095,
      "ksai": 7096,
      "/hindirelease.aspx?reli": 7097,
      "ConinghamYoung": 7098,
      "वेशद्वार": 7099,
      "हमदाबाद": 7100,
      "ेन्द्रीय": 7101,
      "▁[गुजरात](https://hi.wikipedia.org/wiki/गुजरात": 7102,
      "्रह्मपुत्र": 7103,
      "राक़": 7104,
      "](https://hi.wikipedia.org/wiki/भारत_सरकार": 7105,
      "▁जयते": 7106,
      "▁जिनमें": 7107,
      "_न्यायालय": 7108,
      "Articles\\_contain": 7109,
      "▁नागर": 7110,
      "▁पड़ोसी": 7111,
      "थाईलैंड": 7112,
      "सांख्य": 7113,
      "राष्ट्रीय_उद्यान": 7114,
      "](https://hi.wikipedia.org/wiki/पूर्वी_": 7115,
      "जरायल": 7116,
      "िज़ोरम": 7117,
      "business-news/": 7118,
      "](https://en.wikipedia.org/wiki/History_of_": 7119,
      "दुच्चे": 7120,
      "ोणार्": 7121,
      "्रुनेई": 7122,
      "▁प्रभाव": 7123,
      "roadcasting": 7124,
      "](https://hi.wikipedia.org/wiki/उत्तर_प्रदेश": 7125,
      "तुर्कमेन": 7126,
      "do-Aryan": 7127,
      "pib.nic.in/newsite/hindirelease.aspx?reli": 7128,
      "business/business-news/": 7129,
      "▁Registrar": 7130,
      "Census2011religion": 7131,
      "एमआई": 7132,
      "धर्मनिरपेक्ष": 7133,
      "▁[दिल्ली](https://hi.wikipedia.org/wiki/दिल्ली": 7134,
      "▁\"गुजरात\")": 7135,
      "▁समाप्त": 7136,
      "▁अभियान": 7137,
      "ंगलोर": 7138,
      "द्वितीय": 7139,
      "▁./श्रेणी:जानकारीबौक्स\\_देशमे\\_अज्ञात\\_मापदण्डसभ\\_सहितक\\_पृष्ठसभ#l": 7140,
      "▁urban": 7141,
      "hagwat": 7142,
      "▁[978-0-521-80904-7](https://hi.wikipedia.org/wiki/विशेष:पुस्तक_स्रोत/978-0-521-80904-7": 7143,
      "▁Europe*](https://books.google.com/books?id=ZvaGuaJIJgoC&pg=PA": 7144,
      "Provisional_Population_Totals": 7145,
      "-काराबा": 7146,
      "_monsoon_": 7147,
      "ऋग्वेद": 7148,
      "जवाड़े": 7149,
      "धोलावीरा": 7150,
      "पीपीपी)": 7151,
      "बेकिस्तान": 7152,
      "बलिपुरम": 7153,
      "वरात्रि": 7154,
      "ेहरादून": 7155,
      "ैम्ब्रिज": 7156,
      "▁(अभिज्ञापक)\")": 7157,
      "रामायण": 7158,
      "िकेशन्स": 7159,
      "िकोबार": 7160,
      "linkid=20": 7161,
      "तिरुवन": 7162,
      "_(अभिज्ञापक)": 7163,
      "_Sindoor": 7164,
      "_1_of_2011_India": 7165,
      "पावागढ़": 7166,
      "_Paper_1_of_2011_India": 7167,
      "1.asp?linkid=20": 7168,
      "▁[बांग्ला](https://hi.wikipedia.org/wiki/बांग्ला": 7169,
      "ोर्नो-काराबा": 7170,
      "ंपानेर-पावागढ़": 7171,
      "गोलशास्त्र": 7172,
      "-17feb14": 7173,
      "nclm.nic.in/index1.asp?linkid=20": 7174,
      "ंचनजंघा": 7175,
      "ConinghamYoung2015": 7176,
      "Provisional_Population_Totals_Paper_1_of_2011_India": 7177,
      "#P": 7178,
      "-li": 7179,
      ".co": 7180,
      "/).": 7181,
      "/india": 7182,
      "2%": 7183,
      "2-1": 7184,
      "6)\n": 7185,
      "76.": 7186,
      "AS": 7187,
      "kb": 7188,
      "ode": 7189,
      "tom": 7190,
      "}}": 7191,
      "people": 7192,
      "2022": 7193,
      "▁(2011": 7194,
      "acts": 7195,
      "▁pan": 7196,
      "▁popul": 7197,
      "agen": 7198,
      "▁Society": 7199,
      "78.": 7200,
      "main": 7201,
      "▁Present": 7202,
      "ull": 7203,
      "_of_S": 7204,
      "_of_Congress2004": 7205,
      "▁Muslim": 7206,
      "▁Dictionary": 7207,
      "ird": 7208,
      "igved": 7209,
      "-349": 7210,
      "_and_N": 7211,
      "▁Ludden": 7212,
      "359": 7213,
      "ndhra": 7214,
      "orities/": 7215,
      "_Ram": 7216,
      "ureau": 7217,
      "▁History*](https://books.google.com/books?id=": 7218,
      "▁(2014).": 7219,
      ".jpg/250px-S": 7220,
      "▁Chand": 7221,
      "1947)": 7222,
      "ehl": 7223,
      "▁See": 7224,
      "cms)": 7225,
      "IAF": 7226,
      "troduction": 7227,
      "d/d": 7228,
      "tiger": 7229,
      "Library_of_Congress2004": 7230,
      "bank.org/": 7231,
      "▁Ludden,": 7232,
      "\"](http://www.": 7233,
      "-in": 7234,
      "0/0": 7235,
      "2%29": 7236,
      "4]](https://en.wikipedia.org/wiki/India#cite_note-FOOTNOTE": 7237,
      "5).": 7238,
      "5]](https://en.wikipedia.org/wiki/India#cite_note-FOOTNOTE": 7239,
      "7C": 7240,
      "7-8": 7241,
      "97": 7242,
      "DS": 7243,
      "ES": 7244,
      "Home": 7245,
      "IF": 7246,
      "IUCN": 7247,
      "Jha": 7248,
      "Nar": 7249,
      "RA": 7250,
      "_30": 7251,
      "_with": 7252,
      "_2004": 7253,
      "_జాబితా": 7254,
      "b/": 7255,
      "ctive": 7256,
      "mit": 7257,
      "minis": 7258,
      "os/": 7259,
      "ren": 7260,
      "tain": 7261,
      "ually": 7262,
      "ఆంధ": 7263,
      "కీ": 7264,
      "కాలు": 7265,
      "క్రమ": 7266,
      "గర్": 7267,
      "డో": 7268,
      "థి": 7269,
      "నె": 7270,
      "నాలు": 7271,
      "పించ": 7272,
      "బడ్డ": 7273,
      "భర": 7274,
      "మహ": 7275,
      "మై": 7276,
      "యన": 7277,
      "రంగ": 7278,
      "లయా": 7279,
      "వార": 7280,
      "శీ": 7281,
      "షనల్": 7282,
      "స్య": 7283,
      "ృద్ధి": 7284,
      "ెంగ": 7285,
      "ేర": 7286,
      "–24": 7287,
      "▁gi": 7288,
      "▁40": 7289,
      "▁hist": 7290,
      "▁దా": 7291,
      "▁నాగరికత": 7292,
      "▁టెక్నాలజీ": 7293,
      "win": 7294,
      "digarh": 7295,
      "orn": 7296,
      "](Template:": 7297,
      "](https://catalog": 7298,
      "inan": 7299,
      "ines": 7300,
      "hi/": 7301,
      "hild": 7302,
      "onk": 7303,
      "tification": 7304,
      "20/": 7305,
      "erman": 7306,
      "్రై": 7307,
      "్రప్రదేశ్": 7308,
      "asht": 7309,
      "ashi": 7310,
      "](https://te.wikipedia.org/wiki/ఢిల్లీ": 7311,
      "19.": 7312,
      "200853": 7313,
      "▁India](https://en.wikipedia.org/wiki/C": 7314,
      "ation,": 7315,
      "▁Cooperation": 7316,
      "ing-in-": 7317,
      "▁colle": 7318,
      "adra": 7319,
      "adras": 7320,
      "vey": 7321,
      "దేశం": 7322,
      "దేశాల": 7323,
      "దేశాలు": 7324,
      "స్\")": 7325,
      "urasi": 7326,
      "▁Park": 7327,
      "▁Policy": 7328,
      "▁fam": 7329,
      "ర్‌": 7330,
      "rahm": 7331,
      "21.": 7332,
      "istorical": 7333,
      "లు?action=edit&redlink=1": 7334,
      "రాఠ": 7335,
      "]](https://en.wikipedia.org/wiki/India#cite_note-Combined": 7336,
      "107": 7337,
      "▁Bi": 7338,
      "▁కి": 7339,
      "▁కో": 7340,
      "▁emer": 7341,
      "క్టో": 7342,
      "నియా": 7343,
      "▁వర్": 7344,
      "▁వారస": 7345,
      "irth": 7346,
      "ల్వే": 7347,
      "pecially": 7348,
      "▁సరిహద్దు": 7349,
      "▁మన": 7350,
      "▁మూ": 7351,
      "▁Games": 7352,
      "▁hum": 7353,
      "▁religion": 7354,
      "ండమా": 7355,
      "▁చిన్న": 7356,
      "▁growth": 7357,
      "తాన": 7358,
      "ముఖ": 7359,
      "ishing": 7360,
      ".[[23": 7361,
      "త్వం": 7362,
      "▁(సా.శ.14": 7363,
      "▁(సా.శ.17": 7364,
      "ులు,": 7365,
      "AAJ": 7366,
      "–సా.శ.15": 7367,
      "–సా.శ.17": 7368,
      "▁ప్రతి": 7369,
      "▁ప్రస్తు": 7370,
      "▁ప్రకారం": 7371,
      "▁ప్రముఖ": 7372,
      "a](https://en.wikipedia.org/wiki/South": 7373,
      "ంచిన": 7374,
      "కుడు": 7375,
      "నుమ": 7376,
      "▁through": 7377,
      "ింది.\n": 7378,
      "▁\"Mughal": 7379,
      "▁రో": 7380,
      "▁రంగ": 7381,
      "▁రవాణా": 7382,
      "hai": 7383,
      "▁సాధించ": 7384,
      "ష్టు": 7385,
      "osphere": 7386,
      "▁within": 7387,
      "E0%B0%": 7388,
      "▁differ": 7389,
      "ంతో": 7390,
      "▁\"Template:": 7391,
      "▁తరువా": 7392,
      "1):": 7393,
      "పాలన": 7394,
      "eccan": 7395,
      "ం](https://te.wikipedia.org/wiki/భారతీయ": 7396,
      "ports": 7397,
      "గుర్": 7398,
      "నేషనల్": 7399,
      ",_కేంద్రపాలిత": 7400,
      "▁ప్రాంతం": 7401,
      "వందే": 7402,
      "▁రాజ్యం](https://te.wikipedia.org/wiki/": 7403,
      "▁బా": 7404,
      "▁బహు": 7405,
      "▁బెంగ": 7406,
      "ediff": 7407,
      "a/a": 7408,
      "orthographic": 7409,
      "ాల్లో": 7410,
      "58)": 7411,
      "AsherTalbot200853": 7412,
      "121–1": 7413,
      "శ్వా": 7414,
      "▁river": 7415,
      "ారిటీ": 7416,
      "గోళ": 7417,
      "బడిన": 7418,
      "countries_and_depend": 7419,
      "Dyson2018),": 7420,
      "తున్న": 7421,
      "న్నిక": 7422,
      "handigarh": 7423,
      "ographical": 7424,
      "▁స్వాతంత్ర్య": 7425,
      "▁కాలంలో": 7426,
      "ote:": 7427,
      "arathi": 7428,
      "eries": 7429,
      "ortal:": 7430,
      "cms).": 7431,
      "ంపి": 7432,
      "encies_by": 7433,
      "బెంగాల్": 7434,
      "rmy": 7435,
      "▁especially": 7436,
      "ెలవు": 7437,
      "](https://te.wikipedia.org/wiki/భారతదేశంలో_": 7438,
      "▁Buddhist": 7439,
      "](https://en.wikipedia.org/wiki/South_Asian": 7440,
      "▁increased": 7441,
      "MetcalfMetcalf2012-": 7442,
      "▁groups": 7443,
      "▁అధికారిక": 7444,
      "britannica.com/place": 7445,
      "_projection": 7446,
      "nergy": 7447,
      "▁2018](https://en.wikipedia.org/wiki/India#CITEREFDyson2018),": 7448,
      "ఆర్ధిక": 7449,
      "▁పట్టణ": 7450,
      "▁కాశ్మీరు": 7451,
      "▁dependencies": 7452,
      "ంగ్లీషు": 7453,
      "▁అయిన": 7454,
      "▁రెండు": 7455,
      "violence": 7456,
      "ాల్దీవులు": 7457,
      "ట్రో": 7458,
      "ుల్తాన": 7459,
      "రాష్ట్రాలు,_కేంద్రపాలిత": 7460,
      "దినోత్సవం": 7461,
      "▁వ్యాసం:": 7462,
      "▁Quote:": 7463,
      "ార్లమెంట": 7464,
      "▁./వర్గం:Wikipedia\\_articles\\_with\\_": 7465,
      "▁ఏర్ప": 7466,
      "ministered": 7467,
      "ఆంధ్రప్రదేశ్": 7468,
      "లయాళ": 7469,
      "orthographic_projection": 7470,
      "countries_and_dependencies_by": 7471,
      "రాష్ట్రాలు,_కేంద్రపాలిత_ప్రాంత": 7472,
      "-w": 7473,
      "-ex": 7474,
      "-url": 7475,
      ".t": 7476,
      ".JPG": 7477,
      "34)": 7478,
      "613": 7479,
      ":IN": 7480,
      "Am": 7481,
      "DR": 7482,
      "Gum": 7483,
      "HQ": 7484,
      "TO": 7485,
      "Yum": 7486,
      "_2011": 7487,
      "`:": 7488,
      "fos": 7489,
      "sm": 7490,
      "uture": 7491,
      "{{": 7492,
      "Infos": 7493,
      "cite": 7494,
      "190": 7495,
      "ets": 7496,
      "▁pur": 7497,
      "style": 7498,
      "[[13": 7499,
      "▁Ad": 7500,
      "▁Portal": 7501,
      "▁Publication": 7502,
      "heel": 7503,
      "ulm": 7504,
      "uscript": 7505,
      "raw": 7506,
      "▁Minister": 7507,
      "1016": 7508,
      "280": 7509,
      "ayana": 7510,
      "_in_": 7511,
      "_16": 7512,
      "elated": 7513,
      "▁Fisher": 7514,
      "▁First": 7515,
      "13)": 7516,
      "17.": 7517,
      "_Modi": 7518,
      "_Tamil_Nadu": 7519,
      "ysHQ": 7520,
      "CS1_": 7521,
      "▁\"Edit": 7522,
      "neworld": 7523,
      "_English": 7524,
      "▁[978-0-19-882905-8": 7525,
      "▁[Edit": 7526,
      "ody": 7527,
      "▁[978-1-107-11162-2": 7528,
      "▁contin": 7529,
      "dustrial": 7530,
      "cat.org/": 7531,
      "▁28.": 7532,
      "▁2020.": 7533,
      "▁°C": 7534,
      "▁°F)": 7535,
      "▁Wikidata\")": 7536,
      "▁Wikidata](https://www.wikidata.org/wiki/Q": 7537,
      "...]": 7538,
      "▁Day*](https://books.google.com/books?id=": 7539,
      "Mumbai_": 7540,
      "FrontView": 7541,
      "anchi2": 7542,
      "}}`:": 7543,
      "Gumpa": 7544,
      "Yumthang": 7545,
      "{{cite": 7546,
      "InfosysHQ": 7547,
      "▁Fisher,": 7548,
      "InfosysHQFrontView": 7549,
      "*](https://web.archive.org/web/201": 7550,
      "-e": 7551,
      "-i": 7552,
      "-de": 7553,
      "-world": 7554,
      "/we": 7555,
      "1%20": 7556,
      "3-": 7557,
      "310": 7558,
      "528": 7559,
      "677": 7560,
      "7]](https://en.wikipedia.org/wiki/India#cite_note-": 7561,
      "E﻿": 7562,
      "First": 7563,
      "Political": 7564,
      "YS": 7565,
      "_h": 7566,
      "_26": 7567,
      "_50": 7568,
      "_dom": 7569,
      "_2024": 7570,
      "a-b": 7571,
      "bu": 7572,
      "baki": 7573,
      "che": 7574,
      "eology": 7575,
      "fun": 7576,
      "ged": 7577,
      "hut": 7578,
      "ia](https://en.wikipedia.org/wiki/": 7579,
      "jan": 7580,
      "ka": 7581,
      "khand": 7582,
      "lations": 7583,
      "oin": 7584,
      "page": 7585,
      "rance": 7586,
      "tandard": 7587,
      "ui": 7588,
      "utical": 7589,
      "voy": 7590,
      "▁eng": 7591,
      "dir": 7592,
      "orship": 7593,
      "▁[n": 7594,
      "▁\"World": 7595,
      "ences": 7596,
      "an,": 7597,
      "anad": 7598,
      "arl": 7599,
      "artition": 7600,
      "](https://en.wikipedia.org/wiki/World": 7601,
      "▁(ed.).": 7602,
      "ately": 7603,
      "sive": 7604,
      "lima": 7605,
      "lief": 7606,
      "▁political": 7607,
      "▁Comp": 7608,
      "ref-1": 7609,
      "note-1": 7610,
      "▁All": 7611,
      "▁coast": 7612,
      "▁ser": 7613,
      "▁sur": 7614,
      "ango": 7615,
      "angam": 7616,
      "ume": 7617,
      "umar": 7618,
      "very": 7619,
      "rab": 7620,
      "▁work": 7621,
      "ourbaki": 7622,
      "103": 7623,
      "iland": 7624,
      "263": 7625,
      "▁By": 7626,
      "▁*B": 7627,
      "ichell": 7628,
      "ritsch": 7629,
      "ubram": 7630,
      "▁gen": 7631,
      "406]](https://en.wikipedia.org/wiki/India#cite_note-": 7632,
      "_Pro": 7633,
      "_President_of_India": 7634,
      "15/": 7635,
      "ountain": 7636,
      "geoh": 7637,
      "▁International": 7638,
      "_Comm": 7639,
      "harkhand": 7640,
      "14.": 7641,
      "▁\"Cambridge": 7642,
      "▁before": 7643,
      "▁[Ch": 7644,
      "▁[Cambridge": 7645,
      "▁[↑](https://en.wikipedia.org/wiki/India#cite_ref-FOOTNOTEStein2010": 7646,
      "▁original](http://www.": 7647,
      "](https://en.wikipedia.org/wiki/Ch": 7648,
      "_subcontinent": 7649,
      "▁\"En": 7650,
      "inema": 7651,
      "arden": 7652,
      "](https://en.wikipedia.org/wiki/British": 7653,
      "▁Vol": 7654,
      "ecu": 7655,
      "▁[GDP": 7656,
      "vention": 7657,
      "▁range": 7658,
      "ambridge_University_Press": 7659,
      "▁2007](https://en.wikipedia.org/wiki/India#CITEREF": 7660,
      "onstitution_of_India": 7661,
      "▁[New": 7662,
      "34238": 7663,
      "](https://en.wikipedia.org/wiki/Re": 7664,
      "efence": 7665,
      "aceutical": 7666,
      "South_Asia": 7667,
      "▁2016.\n": 7668,
      "▁vill": 7669,
      "Vice": 7670,
      "vanced": 7671,
      "▁notation": 7672,
      "▁ago": 7673,
      "_War": 7674,
      "2001),": 7675,
      "ollingham": 7676,
      ".net": 7677,
      "11934238": 7678,
      "Ludden200": 7679,
      "▁[India](https://en.wikipedia.org/wiki/India": 7680,
      "/articleshow/5": 7681,
      "Pakistani": 7682,
      "vatsyayan-lord-4": 7683,
      "vatsyayan-lord_43": 7684,
      "library": 7685,
      "cheduled": 7686,
      "culpture": 7687,
      "▁including": 7688,
      "harmaceutical": 7689,
      "Encyclop": 7690,
      "▁mi)": 7691,
      "owever,": 7692,
      "rajbhasha": 7693,
      "_Lanka": 7694,
      "AGE": 7695,
      "olonial": 7696,
      "cogniz": 7697,
      "undamental": 7698,
      "hmedabad": 7699,
      "▁Press](https://en.wikipedia.org/wiki/Cambridge_University_Press": 7700,
      "inancial": 7701,
      "406]](https://en.wikipedia.org/wiki/India#cite_note-vatsyayan-lord-4": 7702,
      "geohack": 7703,
      "11934238p": 7704,
      "-चीन": 7705,
      "/india/": 7706,
      "1-7": 7707,
      "1308": 7708,
      "226": 7709,
      "2nd": 7710,
      "5]](https://hi.wikipedia.org/wiki/भारत#cite_note-pib": 7711,
      ":भारत": 7712,
      ";[[": 7713,
      "=hi": 7714,
      "?us": 7715,
      "Eb": 7716,
      "FHA": 7717,
      "NI": 7718,
      "Sanskrit": 7719,
      "bharat": 7720,
      "cet": 7721,
      "hali": 7722,
      "nt": 7723,
      "pub": 7724,
      "paper": 7725,
      "ंपर": 7726,
      "आइ": 7727,
      "आर्": 7728,
      "उद्": 7729,
      "क_": 7730,
      "क्र": 7731,
      "क्ट": 7732,
      "कृति": 7733,
      "ग्री": 7734,
      "गाली": 7735,
      "घीय": 7736,
      "ङ्ला": 7737,
      "चित": 7738,
      "जट": 7739,
      "जेंस": 7740,
      "ठवीं": 7741,
      "डा": 7742,
      "डो": 7743,
      "डिशा": 7744,
      "ण्": 7745,
      "तक": 7746,
      "तीय": 7747,
      "तपु": 7748,
      "तियां": 7749,
      "दों": 7750,
      "दी\")": 7751,
      "न्या": 7752,
      "निस्ट": 7753,
      "पट": 7754,
      "प्य": 7755,
      "परा": 7756,
      "प्रे": 7757,
      "पक्ष": 7758,
      "पमान": 7759,
      "पनिवेश": 7760,
      "बो": 7761,
      "ब्रिटिश": 7762,
      "भौ": 7763,
      "भिक": 7764,
      "भ्यता": 7765,
      "माल": 7766,
      "मता": 7767,
      "ये": 7768,
      "यिका": 7769,
      "लाल": 7770,
      "लब्": 7771,
      "व्य": 7772,
      "वणी": 7773,
      "शन": 7774,
      "शि": 7775,
      "शेष": 7776,
      "शाली": 7777,
      "श्रय": 7778,
      "षद": 7779,
      "सार": 7780,
      "स्वरूप": 7781,
      "हो": 7782,
      "िफ": 7783,
      "ीडिया": 7784,
      "ुब": 7785,
      "ृह": 7786,
      "ेज़": 7787,
      "ैनीताल": 7788,
      "्‍": 7789,
      "४३": 7790,
      "▁%": 7791,
      "▁ठ": 7792,
      "▁9.": 7793,
      "▁\\*": 7794,
      "▁ऋतु": 7795,
      "▁[व": 7796,
      "▁[ना": 7797,
      "▁[वेबैक": 7798,
      "▁[ईरा": 7799,
      "▁[गोआ": 7800,
      "▁[श्रीलंका": 7801,
      "▁[जापान": 7802,
      "▁\"श्रेणी:": 7803,
      "▁\"वेबैक": 7804,
      "▁\"ईरा": 7805,
      "▁\"गोआ": 7806,
      "▁\"श्रीलंका": 7807,
      "▁\"जनसंख्या": 7808,
      "▁\"हिमाचल": 7809,
      "▁\"गुजराती": 7810,
      "▁\"en:": 7811,
      "ारण": 7812,
      "▁कट": 7813,
      "▁क्र": 7814,
      "▁किये": 7815,
      "](https://hi.wikipedia.org/wiki/श्रेणी:": 7816,
      "](https://hi.wikipedia.org/wiki/वेबैक": 7817,
      "](https://hi.wikipedia.org/wiki/हैदराबाद": 7818,
      "](https://hi.wikipedia.org/wiki/गोआ": 7819,
      "](https://hi.wikipedia.org/wiki/श्रीलंका": 7820,
      "](https://hi.wikipedia.org/wiki/जनसंख्या": 7821,
      "्रिय": 7822,
      "aranth": 7823,
      "alakrishnan": 7824,
      "▁सी": 7825,
      "▁सर्व": 7826,
      "▁सफल": 7827,
      "▁स्टॉक": 7828,
      "▁मि": 7829,
      "▁मिश": 7830,
      "▁महाराष्ट्र": 7831,
      "्यू": 7832,
      "्याद": 7833,
      "राई": 7834,
      "▁पी": 7835,
      "▁पार": 7836,
      "▁पास": 7837,
      "▁पठार": 7838,
      "ानपान": 7839,
      "र्ण": 7840,
      "र्ध": 7841,
      "ases": 7842,
      "▁केवल": 7843,
      "▁India\"](https://web.archive.org/web/201": 7844,
      "\\_टे": 7845,
      "\\_वेबैक": 7846,
      "-138": 7847,
      "-113)": 7848,
      "sider": 7849,
      "▁अस": 7850,
      "▁अंग्रेज़ी": 7851,
      "▁अमरी": 7852,
      "▁अक्ट": 7853,
      "ams": 7854,
      "ोंड": 7855,
      "विषय": 7856,
      "ाली\")": 7857,
      "न्डिया": 7858,
      "▁दूस": 7859,
      "_कोर": 7860,
      "_कश्मीर": 7861,
      "▁Stu": 7862,
      "राजभाषा": 7863,
      "lines": 7864,
      "▁बै": 7865,
      "▁बजट": 7866,
      "लाका": 7867,
      "▁भारतक": 7868,
      "▁प्रचल": 7869,
      "▁प्रमाण": 7870,
      "▁प्रथम": 7871,
      "▁प्रदान": 7872,
      "तांत्रिक": 7873,
      "▁से,": 7874,
      "▁से](https://www.": 7875,
      "▁सेपिय": 7876,
      "_संग": 7877,
      "्रेलिया": 7878,
      "▁का*": 7879,
      "chol": 7880,
      "स्तु": 7881,
      "▁वाली": 7882,
      "▁वाले": 7883,
      "▁वंश": 7884,
      "▁आ॔": 7885,
      "▁आकार": 7886,
      "▁आगमन": 7887,
      "▁men": 7888,
      "▁Te": 7889,
      "▁Ram": 7890,
      "▁Report": 7891,
      "▁तमिल": 7892,
      "ilber": 7893,
      "▁top": 7894,
      "ssehl": 7895,
      "चीफ": 7896,
      "▁गेल": 7897,
      "▁कोई": 7898,
      "▁उभ": 7899,
      "▁उत्तरी": 7900,
      "▁उत्पत्ति": 7901,
      "ादेव": 7902,
      "▁एन": 7903,
      "▁ele": 7904,
      "▁परिण": 7905,
      "_Se": 7906,
      "▁[मलयालम": 7907,
      "काइव": 7908,
      "▁Economy": 7909,
      "_मो": 7910,
      "_मैदान": 7911,
      "_मशीन": 7912,
      "▁शैल": 7913,
      "▁शुरु": 7914,
      "हिला": 7915,
      "](https://mai.wikipedia.org/wiki/अ": 7916,
      "116": 7917,
      "▁विजय": 7918,
      "▁विरो": 7919,
      "]](https://hi.wikipedia.org/wiki/भारत#cite_note-B": 7920,
      "▁Hindus": 7921,
      "_के_तट": 7922,
      "ी](https://hi.wikipedia.org/wiki/ह": 7923,
      "_14": 7924,
      "▁[\"M": 7925,
      "▁[\"भारत": 7926,
      "▁\"मानव": 7927,
      "▁\"मराठी": 7928,
      "▁सां": 7929,
      "▁सामाजिक": 7930,
      "ी_खाना": 7931,
      "1857": 7932,
      "ablish": 7933,
      "▁लड़ा": 7934,
      "▁लगा": 7935,
      "ूची?action=edit&redlink=1": 7936,
      "27.": 7937,
      "▁यूरोपीय": 7938,
      "40.": 7939,
      "▁[↑](https://hi.wikipedia.org/wiki/भारत#cite_ref-5": 7940,
      "▁[↑](https://hi.wikipedia.org/wiki/भारत#cite_ref-B": 7941,
      "▁क्षेत्र,": 7942,
      "▁क्षेत्रफल": 7943,
      "धानिक": 7944,
      "](https://hi.wikipedia.org/wiki/मुंबई": 7945,
      "](https://hi.wikipedia.org/wiki/मानव": 7946,
      "▁[असम": 7947,
      "aving": 7948,
      "▁\"असम": 7949,
      "▁नेहर": 7950,
      "▁\"कु": 7951,
      "▁\"कर्नाटक": 7952,
      "▁\"सकल": 7953,
      "▁\"सहायता:": 7954,
      ")[[13": 7955,
      "ोगा": 7956,
      "▁[स्व": 7957,
      "▁[सिख": 7958,
      "▁[सी.": 7959,
      "ंत्रण": 7960,
      "▁प्रदेशों": 7961,
      "▁प्रदेश](https://hi.wikipedia.org/wiki/उत्तर_प्रदेश": 7962,
      "थिति": 7963,
      "▁[कु": 7964,
      "▁[कर्नाटक": 7965,
      "_Mand": 7966,
      "▁\"बंगाल": 7967,
      "▁\"बिहार": 7968,
      "](https://hi.wikipedia.org/wiki/कु": 7969,
      "](https://hi.wikipedia.org/wiki/कर्नाटक": 7970,
      "](https://hi.wikipedia.org/wiki/केरल": 7971,
      "नीति": 7972,
      "ी_सिनेमा": 7973,
      "▁चा": 7974,
      "▁चला": 7975,
      "▁[बौद्ध": 7976,
      "▁[बिहार": 7977,
      "7080": 7978,
      "*](https://books.google.com/books?id=kZVuDwAAQBAJ&pg=PA": 7979,
      "▁राजा": 7980,
      "▁राजभाषा": 7981,
      "▁राजनै": 7982,
      "▁जाति": 7983,
      "▁स्क": 7984,
      "](https://hi.wikipedia.org/wiki/सकल_घरेलू_उत्पाद": 7985,
      "्स\")": 7986,
      "▁\"पश्चिम": 7987,
      "▁\"पश्चिमी": 7988,
      "र्थव्यवस्था": 7989,
      "_भारतीय": 7990,
      "ा_ब": 7991,
      "](https://hi.wikipedia.org/wiki/असम": 7992,
      "▁समझ": 7993,
      "ue.bnf.fr/ark:/12148/cb": 7994,
      "](https://hi.wikipedia.org/wiki/बंगाल": 7995,
      "](https://hi.wikipedia.org/wiki/बिहार": 7996,
      "ष्क": 7997,
      "ष्म": 7998,
      "▁[पूर्वी": 7999,
      "▁सरकार.": 8000,
      "▁सरकारें": 8001,
      "_प्रौद्योगिक": 8002,
      "_Gandhi": 8003,
      "जीव": 8004,
      "](https://hi.wikipedia.org/wiki/भारतीय_अ": 8005,
      "arian": 8006,
      "]](https://hi.wikipedia.org/wiki/भारत#cite_note-FOOTNOTEKulkeRothermund200": 8007,
      "▁[उप": 8008,
      "▁विशेष": 8009,
      "▁./श्रेणी:वेब": 8010,
      "चलचित्र": 8011,
      "▁गया।\n": 8012,
      "स्कृतिक": 8013,
      "ियाँ\")": 8014,
      "आई॰": 8015,
      "▁किए": 8016,
      "▁किंगड": 8017,
      "▁जिसका": 8018,
      "▁संघीय": 8019,
      "▁था।[[": 8020,
      "▁हिन्दू": 8021,
      "▁[978-1-78074-108-6": 8022,
      "data.bnf.fr/ark:/12148/cb": 8023,
      "_और_कश्मीर": 8024,
      "2007),": 8025,
      "ohan": 8026,
      "▁(2013),": 8027,
      "▁पाषाण": 8028,
      "▁स्वतन्त्रता": 8029,
      "रक्षक": 8030,
      "▁विकसित": 8031,
      "स्ट्रेलिया": 8032,
      "_अनु": 8033,
      "▁मुद्रा": 8034,
      "नागा": 8035,
      "▁[↑](https://hi.wikipedia.org/wiki/भारत#cite_ref-FOOTNOTEKulkeRothermund200": 8036,
      "▁\"हिन्दू": 8037,
      "▁एशिया](https://hi.wikipedia.org/wiki/दक्षिण": 8038,
      "भागवत": 8039,
      "▁सेना\")": 8040,
      ".jpg)](https://hi.wikipedia.org/wiki/चित्र:S": 8041,
      "▁स्थल": 8042,
      "भूगोल": 8043,
      "वैधानिक": 8044,
      "▁रही": 8045,
      "▁छोड़": 8046,
      "▁छोटे": 8047,
      "▁[जल": 8048,
      "▁वास्त": 8049,
      "ctorate": 8050,
      "पेन": 8051,
      "ल्मो": 8052,
      "िज़र्व": 8053,
      "▁डि": 8054,
      "▁ऊपर": 8055,
      "▁टेली": 8056,
      "▁बढ़कर": 8057,
      "म्पलेट": 8058,
      "](https://mai.wikipedia.org/wiki/भारतीय_": 8059,
      "▁थी।[[": 8060,
      "न](https://hi.wikipedia.org/wiki/ईरा": 8061,
      "म्मू_और_कश्मीर": 8062,
      "गांधी": 8063,
      "▁सदन": 8064,
      "▁बनाई": 8065,
      "%E0%A4%B8": 8066,
      "4–10": 8067,
      "ामस्वरूप": 8068,
      "ुंबई](https://hi.wikipedia.org/wiki/मुंबई": 8069,
      "ोषण": 8070,
      "▁बाहरी": 8071,
      "-पूर्व": 8072,
      "](https://hi.wikipedia.org/wiki/भारत_की_जन": 8073,
      "▁न्यायालय\")": 8074,
      "ample": 8075,
      "र्जिया": 8076,
      "▁संसदीय": 8077,
      "▁kमी2": 8078,
      "स्लामी": 8079,
      "▁गांधी": 8080,
      "▁स्रोत/978-0-19-882905-8": 8081,
      "▁स्रोत/978-1-107-11162-2": 8082,
      "▁स्रोत/978-1-78074-108-6": 8083,
      "](https://hi.wikipedia.org/wiki/विशेष:पुस्तक_स्रोत/978-0-19-882905-8": 8084,
      "](https://hi.wikipedia.org/wiki/विशेष:पुस्तक_स्रोत/978-1-107-11162-2": 8085,
      "](https://hi.wikipedia.org/wiki/विशेष:पुस्तक_स्रोत/978-1-78074-108-6": 8086,
      "▁[पुरालेखित](https://web.archive.org/web/20140": 8087,
      "paris": 8088,
      "▁अवशेष": 8089,
      "▁पुराण": 8090,
      "▁[पंजाबी](https://hi.wikipedia.org/wiki/प": 8091,
      "▁communi": 8092,
      "मोहन": 8093,
      "▁\"तमिलनाडु": 8094,
      "▁मोदी": 8095,
      "▁मध्यम": 8096,
      "काशी": 8097,
      "▁लोगों": 8098,
      "उपमहाद्वीप": 8099,
      "धायिका": 8100,
      "▁प्रौद्योगिकी": 8101,
      "ज्जैन": 8102,
      "▁स्थानीय": 8103,
      "▁स्थापित": 8104,
      "*);\n": 8105,
      "_दिवस": 8106,
      "ानगरीय": 8107,
      "▁विस्तार": 8108,
      "5/5": 8109,
      "6–18": 8110,
      "िर्भर": 8111,
      "▁[तमिल](https://hi.wikipedia.org/wiki/तमिल": 8112,
      "▁मिलियन": 8113,
      "▁मशीन\")\n": 8114,
      "▁मशीन](https://hi.wikipedia.org/wiki/वेबैक": 8115,
      "[[105]](https://hi.wikipedia.org/wiki/भारत#cite_note-pib": 8116,
      "▁दिल्ली": 8117,
      "▁भाषा\")[[120]](https://hi.wikipedia.org/wiki/भारत#cite_note-langoff-128)": 8118,
      "▁report:": 8119,
      "olden_Temple": 8120,
      "▁\"नेपाल\")": 8121,
      "र्तगाल": 8122,
      "▁देवी": 8123,
      "▁आकर्ष": 8124,
      "▁आन्दोलन": 8125,
      "▁कोरिया\")": 8126,
      "](https://hi.wikipedia.org/wiki/भारत#cite_ref-pib-7mar2011": 8127,
      "](https://hi.wikipedia.org/wiki/पश्चिमी_": 8128,
      "-7mar2011-113)": 8129,
      "elang=hi": 8130,
      ".worldbank.org/": 8131,
      "*](http://archive.org/details/": 8132,
      "ymn": 8133,
      "दर्शन": 8134,
      "बूत": 8135,
      "▁सूचकांक": 8136,
      "लाओस": 8137,
      "▁घोषणा": 8138,
      "ार्वभौ": 8139,
      "▁सूर्य": 8140,
      "राजनीतिक": 8141,
      "▁वायुसेना": 8142,
      "imachal": 8143,
      "फगानिस्तान": 8144,
      "▁तापमान": 8145,
      "▁[चीन](https://hi.wikipedia.org/wiki/चीन": 8146,
      "▁कहते": 8147,
      "्युनिस्ट": 8148,
      "▁तीर्थ": 8149,
      "स्‍त्र": 8150,
      "▁उसके": 8151,
      "%E0%A5%87": 8152,
      "\\_कड़ियाँ\n": 8153,
      "](https://id.": 8154,
      "भुटान": 8155,
      "ोजना": 8156,
      "▁प्रत्येक": 8157,
      "▁[मराठी](https://hi.wikipedia.org/wiki/म": 8158,
      "▁रुपया": 8159,
      "▁अनुसूची": 8160,
      "▁\"सिक्किम\")": 8161,
      "▁[सिक्किम](https://hi.wikipedia.org/wiki/सिक्किम": 8162,
      "\\_अंग्रेज़ी-language\\_sources\\_(en": 8163,
      "#P1308": 8164,
      "▁History*](https://books.google.com/books?id=Eb": 8165,
      "▁[978-0-19-882905-8](https://hi.wikipedia.org/wiki/विशेष:पुस्तक_स्रोत/978-0-19-882905-8": 8166,
      "▁[978-1-107-11162-2](https://hi.wikipedia.org/wiki/विशेष:पुस्तक_स्रोत/978-1-107-11162-2": 8167,
      "?uselang=hi": 8168,
      "FHAQAAQBAJ&pg=PA": 8169,
      "ंपरिक": 8170,
      "आर्काइव": 8171,
      "तपुड़ा": 8172,
      "पनिवेशिक": 8173,
      "लब्धता": 8174,
      "▁[ईरान](https://hi.wikipedia.org/wiki/ईरा": 8175,
      "▁[श्रीलंका](https://hi.wikipedia.org/wiki/श्रीलंका": 8176,
      "▁\"ईरान\")": 8177,
      "▁\"श्रीलंका\")": 8178,
      "्यादा": 8179,
      "\\_टेम्पलेट": 8180,
      "\\_वेबैक\\_कड़ियाँ\n": 8181,
      "▁अमरीकी": 8182,
      "▁अक्टूबर": 8183,
      "_कोरिया": 8184,
      "▁परिणामस्वरूप": 8185,
      "▁शुरुआ": 8186,
      "▁\"बिहार\")": 8187,
      "▁[बिहार](https://hi.wikipedia.org/wiki/बिहार": 8188,
      "▁राजनैतिक": 8189,
      "_प्रौद्योगिकी": 8190,
      "▁./श्रेणी:वेबआर्काइव": 8191,
      "▁[978-1-78074-108-6](https://hi.wikipedia.org/wiki/विशेष:पुस्तक_स्रोत/978-1-78074-108-6": 8192,
      "ल्मोड़ा": 8193,
      "▁[पंजाबी](https://hi.wikipedia.org/wiki/पंजाब": 8194,
      "_दिवस_(भारत)": 8195,
      "▁मशीन](https://hi.wikipedia.org/wiki/वेबैक_मशीन": 8196,
      "[[105]](https://hi.wikipedia.org/wiki/भारत#cite_note-pib-7mar2011-113)": 8197,
      "](https://hi.wikipedia.org/wiki/भारत#cite_ref-pib-7mar2011_11": 8198,
      "ार्वभौम": 8199,
      "▁History*](https://books.google.com/books?id=EbFHAQAAQBAJ&pg=PA": 8200,
      "?uselang=hi#P1308": 8201,
      "▁[ईरान](https://hi.wikipedia.org/wiki/ईरान": 8202,
      "\\_टेम्पलेट\\_वेबैक\\_कड़ियाँ\n": 8203,
      "▁./श्रेणी:वेबआर्काइव\\_टेम्पलेट\\_वेबैक\\_कड़ियाँ\n": 8204,
      "\";\n": 8205,
      ")\"),": 8206,
      "-A": 8207,
      "/F": 8208,
      "1]](https://en.wikipedia.org/wiki/India#cite_note-": 8209,
      "2-5196": 8210,
      "400": 8211,
      "5]](https://en.wikipedia.org/wiki/India#cite_note-": 8212,
      "8+": 8213,
      ":\n": 8214,
      "CA": 8215,
      "Collingham": 8216,
      "DNA": 8217,
      "Flag": 8218,
      "OL": 8219,
      "S$": 8220,
      "States": 8221,
      "Tarlo": 8222,
      "_22": 8223,
      "_వి": 8224,
      "_history": 8225,
      "_కాశ్మీ": 8226,
      "athe": 8227,
      "athematics": 8228,
      "be": 8229,
      "cord": 8230,
      "dna": 8231,
      "egh": 8232,
      "equality": 8233,
      "gure": 8234,
      "mage": 8235,
      "mill": 8236,
      "odia": 8237,
      "osh": 8238,
      "rune": 8239,
      "spect": 8240,
      "tate": 8241,
      "yer": 8242,
      "zer": 8243,
      "ంస్కృ": 8244,
      "ఉత్తరా": 8245,
      "ఖో": 8246,
      "ఘాలయ": 8247,
      "చ్": 8248,
      "టై": 8249,
      "టర్": 8250,
      "డమ్": 8251,
      "డఖ్": 8252,
      "ణే": 8253,
      "ణంగా": 8254,
      "తే": 8255,
      "తెల": 8256,
      "దరంగ": 8257,
      "నో": 8258,
      "నంద": 8259,
      "బర్": 8260,
      "బార్": 8261,
      "యె": 8262,
      "రె": 8263,
      "లడఖ్": 8264,
      "ళా": 8265,
      "ళి": 8266,
      "శు": 8267,
      "హించ": 8268,
      "ుకు": 8269,
      "ెన్న": 8270,
      "ెట్రో": 8271,
      "ేతి": 8272,
      "ేఘాలయ": 8273,
      "ైనిక": 8274,
      "ొగలు": 8275,
      "ోళ": 8276,
      "‌కా": 8277,
      "‌మహ": 8278,
      "▁ఐ": 8279,
      "▁ఖ": 8280,
      "▁–సా.శ.": 8281,
      "▁భారతీయ": 8282,
      "▁old": 8283,
      "▁kingdom": 8284,
      "dic": 8285,
      "org": 8286,
      "▁[Y": 8287,
      "▁[రాష్ట్ర": 8288,
      "▁[జన": 8289,
      "▁[గో": 8290,
      "▁\"పా": 8291,
      "▁\"జన": 8292,
      "▁\"గో": 8293,
      "▁\"మూస:": 8294,
      "temp": 8295,
      "ino-": 8296,
      "tile": 8297,
      "International": 8298,
      "er-": 8299,
      "India_G": 8300,
      "cip": 8301,
      "ofker": 8302,
      "▁(1):": 8303,
      "omo": 8304,
      "anda": 8305,
      "isc": 8306,
      "riy": 8307,
      "](https://te.wikipedia.org/wiki/B": 8308,
      "](https://te.wikipedia.org/wiki/G": 8309,
      "](https://te.wikipedia.org/wiki/భారతదేశ": 8310,
      "](https://te.wikipedia.org/wiki/గో": 8311,
      "](https://te.wikipedia.org/wiki/మూస:": 8312,
      "198": 8313,
      "ారస్వ": 8314,
      "ed,": 8315,
      "ed\\_": 8316,
      "acmill": 8317,
      "▁inte": 8318,
      "etry": 8319,
      "atna": 8320,
      "enty-": 8321,
      "stat": 8322,
      "ాలె": 8323,
      "ingap": 8324,
      "▁Affair": 8325,
      "▁Americ": 8326,
      "▁can": 8327,
      "▁school": 8328,
      "angered": 8329,
      "▁third": 8330,
      "well": 8331,
      "స్ట": 8332,
      "స్వాతంత్ర్య": 8333,
      "urk": 8334,
      "▁band": 8335,
      "▁పర": 8336,
      "▁పండు": 8337,
      "▁Punjab": 8338,
      "▁fe": 8339,
      "▁four": 8340,
      "▁fol": 8341,
      "vert": 8342,
      "ratic": 8343,
      "213": 8344,
      "▁man": 8345,
      "▁Machine": 8346,
      "▁Temple": 8347,
      "▁would": 8348,
      "లు](https://te.wikipedia.org/wiki/": 8349,
      "రాన్": 8350,
      "రాస్య": 8351,
      "▁Routledge": 8352,
      "▁B.": 8353,
      "ola": 8354,
      "olnar": 8355,
      "del": 8356,
      "▁కే": 8357,
      "▁కోర్": 8358,
      "త్రిక": 8359,
      "▁*India": 8360,
      "▁1980": 8361,
      "mem": 8362,
      "క్స్": 8363,
      "క్కి": 8364,
      "▁వె": 8365,
      "▁వంట": 8366,
      "▁\"Sanskrit": 8367,
      "▁\"Special:BookSources/978-81": 8368,
      "11)": 8369,
      "iger": 8370,
      "igration": 8371,
      "_in_M": 8372,
      "ంగో": 8373,
      "▁సముద్ర": 8374,
      "▁సూచ": 8375,
      "▁సౌక": 8376,
      "▁Greek": 8377,
      "▁N.": 8378,
      "▁Nicobar": 8379,
      "్రామ": 8380,
      "1991": 8381,
      "_Ar": 8382,
      "_A7C": 8383,
      "_15": 8384,
      "▁[\"H": 8385,
      "ండా": 8386,
      "ండీ": 8387,
      "ండ్య": 8388,
      "ngineering": 8389,
      "abha": 8390,
      "తాజ్": 8391,
      "నాథ": 8392,
      "▁[SAARC": 8393,
      "▁Force": 8394,
      "_Pradesh": 8395,
      "త్వా": 8396,
      "▁[*M": 8397,
      "▁(సా.శ.16": 8398,
      "▁dynasty": 8399,
      "ులు?action=edit&redlink=1": 8400,
      "▁అభి": 8401,
      "▁Organization": 8402,
      "otal": 8403,
      "▁ప్రజా": 8404,
      "](https://books.google.com/books?id=3TRtDwAAQBAJ&pg=PA": 8405,
      "aph": 8406,
      "తం?action=edit&redlink=1": 8407,
      "▁\"Chin": 8408,
      "పూర్": 8409,
      "▁[Central": 8410,
      "ప్రిల్": 8411,
      "_Mahal": 8412,
      "▁now": 8413,
      "▁ఉంట": 8414,
      "▁ఉత్తర": 8415,
      "](Special:BookSources/978-81": 8416,
      "▁dem": 8417,
      "▁deci": 8418,
      "hailand": 8419,
      "▁సామా": 8420,
      "వాద": 8421,
      "2018-lead": 8422,
      "38/http://": 8423,
      "విధ": 8424,
      "ార్ఖండ్": 8425,
      "ogri": 8426,
      "క్షరాస్య": 8427,
      "clar": 8428,
      "_Bank": 8429,
      "పుర": 8430,
      "ambodia": 8431,
      "▁నడి": 8432,
      "articleshow/": 8433,
      "audi": 8434,
      "▁ఇండియా": 8435,
      "▁areas": 8436,
      "33-7": 8437,
      "▁Ved": 8438,
      "▁\"De": 8439,
      "ecre": 8440,
      "aking": 8441,
      "గుప్": 8442,
      "డుకు": 8443,
      "నేషియా": 8444,
      "ంగాణ": 8445,
      "ameez": 8446,
      "▁జన": 8447,
      "లియా": 8448,
      "▁main": 8449,
      "▁ప్రాచ": 8450,
      "▁విభ": 8451,
      "▁వివిధ": 8452,
      "▁సంఘ": 8453,
      "_and_union_territ": 8454,
      "▁like": 8455,
      "tence": 8456,
      "ండిచ్చేరి": 8457,
      "▁[Re": 8458,
      "DwAAQBAJ": 8459,
      "1967": 8460,
      "arch_2004": 8461,
      "alaysia": 8462,
      "▁led": 8463,
      "▁lead": 8464,
      "▁figure": 8465,
      "_Fund": 8466,
      "▁[![The": 8467,
      "జీరియా": 8468,
      "▁subject": 8469,
      "india/report": 8470,
      "ంకేతి": 8471,
      "ukesh": 8472,
      "వేలీ": 8473,
      "national-language": 8474,
      "South_Asian": 8475,
      "/pdf": 8476,
      "/profile": 8477,
      "know": 8478,
      "▁change": 8479,
      "–సా.శ.పూ.3": 8480,
      "▁ప్రాంతాలు\")": 8481,
      "బియా": 8482,
      "rise": 8483,
      "డామన్": 8484,
      "▁రాష్ట్రపతి": 8485,
      "_%282%29": 8486,
      "▁agriculture": 8487,
      "▁Pradesh\")": 8488,
      "త్రిపుర": 8489,
      "egistrar": 8490,
      "_కాల": 8491,
      "▁Metcalf,": 8492,
      "indhi": 8493,
      "▁రైల్వే": 8494,
      "▁[Archived](https://web.archive.org/web/20210": 8495,
      "▁These": 8496,
      "య్యూ": 8497,
      "త్తీస్": 8498,
      "▁ప్రదేశ్](https://te.wikipedia.org/wiki/": 8499,
      "▁subcontinent\")": 8500,
      "sites/": 8501,
      "నాగాలా": 8502,
      "_dance": 8503,
      "▁\"జమ్మూ": 8504,
      "-of-": 8505,
      "▁పాకిస్తాన్": 8506,
      "Chennai": 8507,
      "కోవ": 8508,
      "కోబార్": 8509,
      "](https://te.wikipedia.org/wiki/జమ్మూ": 8510,
      "ల్లవ": 8511,
      "AsherTalbot2008),": 8512,
      "▁species": 8513,
      "2542-5196": 8514,
      "రేబియా": 8515,
      "▁rock": 8516,
      "▁2025.": 8517,
      "టాక్": 8518,
      "ominion": 8519,
      "ataraj": 8520,
      "▁మాత్ర": 8521,
      "్రిటిష్": 8522,
      "వెను": 8523,
      "ూచి": 8524,
      "▁[978-81": 8525,
      "భారతదేశ_రాష్ట్రాలు,_కేంద్రపాలిత_ప్రాంత": 8526,
      "chedule": 8527,
      "ప్పటిక": 8528,
      "లేషియా": 8529,
      "▁majority": 8530,
      "▁మొదల": 8531,
      "Spear199024": 8532,
      "166-2": 8533,
      "eological": 8534,
      "▁occup": 8535,
      "ద్యు": 8536,
      "india.com/india/report": 8537,
      "▁చిత్ర": 8538,
      "emocracy": 8539,
      "ద్వీప్": 8540,
      "▁ఉపఖండ": 8541,
      "▁దేశంలోని": 8542,
      "▁కాంగ్రెసు": 8543,
      "Taj_Mahal": 8544,
      "ఆగష్టు": 8545,
      "లక్షద్వీప్": 8546,
      "హాయం:": 8547,
      "ీకరణ": 8548,
      "ోల్‌కా": 8549,
      "మిజోరా": 8550,
      "lurton199": 8551,
      "ravidian": 8552,
      "▁employed": 8553,
      "ర్యానా": 8554,
      "▁[ఢిల్లీ](https://te.wikipedia.org/wiki/ఢిల్లీ": 8555,
      "atabase": 8556,
      "razil": 8557,
      "_industry_in_India": 8558,
      "టిబెట్": 8559,
      "మెరికా": 8560,
      "-05-0": 8561,
      "lothing": 8562,
      "▁widely": 8563,
      "Home_Affairs": 8564,
      "IFT": 8565,
      "బడ్డీ": 8566,
      "ేరళ": 8567,
      "్రైస్త": 8568,
      "urasian": 8569,
      "ండమాన్": 8570,
      "ెలవుదిన": 8571,
      "_Commission": 8572,
      "Tarlo1996": 8573,
      "dnaindia.com/india/report": 8574,
      "eghalay": 8575,
      "runei": 8576,
      "తెలంగాణ": 8577,
      "ెన్నై": 8578,
      "‌మహల్": 8579,
      "ino-Indian": 8580,
      "India_Goa": 8581,
      "acmillan": 8582,
      "enty-First": 8583,
      "ingapore": 8584,
      "_in_March_2004": 8585,
      "తాజ్‌మహల్": 8586,
      "క్షరాస్యత": 8587,
      "_and_union_territories": 8588,
      "నాగాలాండ్": 8589,
      "](https://te.wikipedia.org/wiki/జమ్మూ_కాశ్మీ": 8590,
      "Taj_Mahal_in_March_2004": 8591,
      "ోల్‌కాతా": 8592,
      ",_India": 8593,
      "/m": 8594,
      "0–": 8595,
      "2.\n": 8596,
      "2-9": 8597,
      "338": 8598,
      "421": 8599,
      "4-3": 8600,
      "6%": 8601,
      "623": 8602,
      "7)[[": 8603,
      "72.": 8604,
      "96": 8605,
      "Ag": 8606,
      "Copland": 8607,
      "_sh": 8608,
      "_45": 8609,
      "aun": 8610,
      "c/": 8611,
      "dhy": 8612,
      "fall": 8613,
      "gad": 8614,
      "ggle": 8615,
      "iti": 8616,
      "mt": 8617,
      "nline": 8618,
      "po": 8619,
      "ses": 8620,
      "tradition": 8621,
      "▁X": 8622,
      ".org/s": 8623,
      "2020": 8624,
      "2013": 8625,
      "ason": 8626,
      "\\_par": 8627,
      "-13": 8628,
      "▁poll": 8629,
      "[[18": 8630,
      "\"),[": 8631,
      "ustice": 8632,
      "?action=edit&redlink=1#": 8633,
      "108": 8634,
      "▁Book": 8635,
      "▁Des": 8636,
      "ices": 8637,
      "opal": 8638,
      "▁Ne": 8639,
      "29)": 8640,
      "270": 8641,
      "▁Library": 8642,
      "establish": 8643,
      "▁nation": 8644,
      "▁John": 8645,
      "▁Informatics": 8646,
      "▁West": 8647,
      "_Dictionary": 8648,
      "%2C_S": 8649,
      "via": 8650,
      "▁expectancy": 8651,
      "\"](https://web.archive.org/web/20140": 8652,
      "indicat": 8653,
      "ameters": 8654,
      "[![](https://upload.wikimedia.org/wikipedia/commons/thumb/7/": 8655,
      "1961)": 8656,
      "▁centre": 8657,
      "▁[Ludden": 8658,
      "/articles/": 8659,
      "▁21.": 8660,
      "▁consider": 8661,
      "docs/": 8662,
      "▁(2018).": 8663,
      "ustralian": 8664,
      "▁2022.\n": 8665,
      "ridget": 8666,
      "▁(2006).": 8667,
      ".worldcat.org/": 8668,
      "strument": 8669,
      "Pages\\_using\\_infobox": 8670,
      "\\_country\\_with\\_": 8671,
      "igveda": 8672,
      "onkani": 8673,
      "\\_parameters": 8674,
      "indicator": 8675,
      "\\_parameters#": 8676,
      "*](https://": 8677,
      ",6": 8678,
      "-H": 8679,
      "-no": 8680,
      "-fi": 8681,
      "-for": 8682,
      "-II": 8683,
      "-def": 8684,
      "-logo": 8685,
      ".economictimes.indiatimes.com/": 8686,
      "/C-0": 8687,
      "221": 8688,
      "3).": 8689,
      "3.\n": 8690,
      "4_": 8691,
      "5-3": 8692,
      "7]](https://en.wikipedia.org/wiki/India#cite_note-FOOTNOTE": 8693,
      "985": 8694,
      "Assam": 8695,
      "Constituent": 8696,
      "Countries": 8697,
      "HDR": 8698,
      "LS": 8699,
      "MDD": 8700,
      "W00": 8701,
      "Web": 8702,
      "Wright": 8703,
      "Witzel": 8704,
      "XLS": 8705,
      "_&": 8706,
      "_per": 8707,
      "_ex": 8708,
      "aci": 8709,
      "cu": 8710,
      "caste": 8711,
      "hā": 8712,
      "ij": 8713,
      "jana": 8714,
      "janta": 8715,
      "k;": 8716,
      "mall": 8717,
      "ocal": 8718,
      "p?": 8719,
      "puri": 8720,
      "tur": 8721,
      "tats": 8722,
      "u,": 8723,
      "uries": 8724,
      "vil": 8725,
      "yth": 8726,
      "′′": 8727,
      "▁ve": 8728,
      "▁7.": 8729,
      "▁ob": 8730,
      "▁known": 8731,
      "dis": 8732,
      "dies": 8733,
      "orb": 8734,
      "orpor": 8735,
      "https://": 8736,
      "▁\"ISO": 8737,
      "enj": 8738,
      "ancient": 8739,
      "arh": 8740,
      "ardian": 8741,
      "alace": 8742,
      "alk:": 8743,
      "](https://en.wikipedia.org/wiki/U": 8744,
      "reen": 8745,
      "cia": 8746,
      "▁(2007": 8747,
      "▁(India)": 8748,
      "▁(nominal)": 8749,
      "isni": 8750,
      "▁off": 8751,
      "rian": 8752,
      "ouch": 8753,
      "▁India\").[[": 8754,
      "\\_c": 8755,
      "\\_Wiki": 8756,
      "-0\").\n": 8757,
      "acred": 8758,
      "▁independence": 8759,
      "etra": 8760,
      "etwork": 8761,
      "▁prac": 8762,
      "status": 8763,
      "▁Agency": 8764,
      "▁cal": 8765,
      "▁cre": 8766,
      "▁census": 8767,
      "▁tril": 8768,
      "▁talk:": 8769,
      "78–": 8770,
      "lose": 8771,
      "urmu": 8772,
      "comm": 8773,
      "▁based": 8774,
      "▁buil": 8775,
      "▁[↑](https://en.wikipedia.org/wiki/India#cite_": 8776,
      "ches": 8777,
      "_of_B": 8778,
[...]
